#version: 0.2
Ġ t
a n
< |
| >
i n
e r
Ġ s
i s
Ġt h
Ġ w
o u
Ġ a
Ġ f
in g
e s
u s
Ġ c
e l
a s
Ġ m
Ġ b
t an
Ġ I
e o
i t
Ġ h
r e
e n
a t
Ġt o
tan t
as s
is tant
eo s
us er
Ġ <|
ass istant
Ġ an
o r
Ġth e
o n
Ġ d
Ġ l
Ġf e
Ġan d
Ġfe el
a l
Ġ p
Ġc an
a y
a r
o m
e t
l e
Ġ is
Ġ it
Ġ n
Ġ o
Ġ y
Ġ e
Ġy ou
k e
Ġ in
o w
i m
u n
Ġw h
ou t
g h
Ġw e
Ġb e
l y
Ġ g
v er
Ġl i
gh t
i c
ou r
Ġo f
Ġm a
e d
Ġ re
Ġth at
c t
Ġh a
Ġ Y
Ġ our
u t
l d
o o
Ġa b
ĠI t
ing s
v e
Ġ un
a d
Ġab out
ĠY es
Ġf or
o t
Ġs t
p e
Ġd o
Ġ us
h er
Ġwh en
Ġs om
d er
Ġ T
el p
u l
Ġs e
p p
Ġh elp
ver y
es s
in d
in k
t er
r i
en t
Ġs h
h at
i d
Ġth ink
c h
i on
Ġli ke
o re
Ġse e
p le
u r
Ġs o
o y
ou ld
l l
Ġh ow
i r
Ġ j
ou n
al ly
Ġc h
us t
d s
i f
Ġ on
it h
Ġw ith
Ġm e
ĠT hat
Ġ en
c e
Ġn ot
o s
eo ple
im es
Ġm ore
Ġp eople
ay s
Ġha pp
f ul
Ġ r
Ġn e
Ġe very
oo d
Ġb ut
Ġma ke
Ġma k
Ġm y
Ġsom et
Ġ D
el y
Ġt r
an g
e a
Ġa re
d ay
Ġw or
Ġ H
der s
Ġb et
Ġth ings
h ing
tan d
c i
ĠD o
el l
q u
Ġf r
Ġbet ter
ders tand
ar d
a re
i ll
Ġth is
Ġun derstand
Ġc om
Ġh o
Ġto day
re at
Ġ im
Ġre ally
Ġs oun
Ġp l
j oy
f e
Ġen joy
ri ght
Ġmak es
Ġf ind
al k
Ġa l
Ġfeel ings
Ġim p
Ġthe y
Ġ qu
Ġb r
Ġs u
Ġe x
Ġ W
i ght
Ġsoun ds
b le
e p
o l
on e
al l
Ġho pe
Ġha ve
i es
Ġg ood
an y
Ġsee m
a in
er e
im e
ion s
Ġs ad
Ġw on
id e
Ġh e
u re
Ġwon der
t ing
Ġsomet imes
t en
ic e
Ġsom e
Ġs m
it e
Ġt ime
Ġ out
Ġd is
Ġyou r
Ġ or
ang e
Ġs p
an t
Ġj ust
Ġd ay
Ġw ill
pe ci
g et
Ġs ur
Ġw ay
Ġe v
Ġp r
Ġc on
p r
ent s
oo k
Ġfe ar
Ġj oy
t her
Ġa t
or t
Ġ k
Ġ very
Ġthe ir
Ġfeel ing
Ġs a
Ġo ther
Ġimp or
ell o
ĠH ello
Ġa g
Ġl o
Ġl e
r y
Ġ if
Ġc ould
a c
on g
Ġfeel s
Ġh ard
Ġt alk
get her
Ġimpor tant
Ġhapp y
Ġst r
Ġev en
Ġa m
if f
pr is
os e
n ess
Ġsur pris
Ġto gether
Ġof ten
Ġm any
oun d
a us
u p
Ġd iff
Ġ S
Ġm om
Ġth ou
Ġth ere
Ġa ll
is h
Ġ es
Ġb right
Ġevery one
Ġa r
Ġne w
Ġwh at
Ġbe c
Ġa s
aus e
at her
peci ally
Ġes pecially
Ġ ke
Ġthou ght
Ġsh ould
Ġ up
Ġd ays
t h
s ide
v es
Ġc le
Ġn ice
Ġb it
Ġdo es
as t
i l
s e
Ġbr ing
Ġke ep
Ġw ould
re e
a ble
n e
t hing
Ġqu ite
w ays
Ġmom ents
Ġal ways
Ġ A
ou gh
i g
i ve
Ġw ant
es e
Ġc reat
Ġch ange
Ġs un
Ġ M
Ġpr o
Ġbec ause
Ġsm all
Ġg o
ar k
Ġt a
Ġhelp s
Ġwe ather
ic k
ar t
Ġth ese
Ġm ight
Ġf un
Ġseem s
le ct
Ġfr om
Ġf a
Ġsu ch
Ġm u
Ġa f
Ġthe m
Ġd e
Ġevery thing
es t
r at
Ġto o
Ġsomet hing
a g
Ġa ct
i e
Ġth ose
e m
Ġl ook
Ġmu ch
pe ct
Ġli fe
Ġb ad
f lect
Ġn at
Ġtr y
k ing
ar ing
Ġw ish
Ġre m
Ġs c
Ġother s
a ct
Ġdiff er
t le
Ġl it
Ġag ree
er s
u e
Ġout side
Ġar ound
Ġg reat
Ġan g
f ort
i le
at e
Ġpl an
s t
Ġex p
ar m
b s
or ies
ust rat
Ġfr ustrat
Ġo ver
ĠT h
Ġlit tle
i v
Ġne ed
Ġ v
Ġp os
a ch
ĠW hat
in ess
Ġsh are
n ow
ur ing
ri en
' s
en ce
Ġg r
or m
Ġf rien
Ġd uring
at ion
ol ut
Ġan y
a ut
olut ely
Ġw as
Ġt imes
ou s
Ġc are
ĠA bs
ĠAbs olutely
Ġcle an
it y
ea v
e ad
h y
f t
Ġst ay
Ġsurpris ing
Ġnat ure
Ġbe aut
c us
Ġhapp en
Ġwonder ful
Ġh eav
er i
Ġl ess
Ġg et
Ġlo v
b e
it s
ĠS om
' t
Ġc l
g ust
Ġdis gust
Ġcreat e
v ing
Ġa w
Ġ id
fe ct
Ġw ays
Ġe ver
Ġid ea
Ġn ow
Ġfrustrat ing
ar n
a ce
Ġli ght
or s
d e
Ġin ter
a m
Ġmak ing
Ġthought s
Ġheav y
Ġ right
Ġf l
it ing
Ġwor k
ac k
Ġc o
Ġe as
Ġb y
ĠW hy
Ġsad ness
Ġhapp iness
Ġlov ely
Ġk now
i er
Ġw arm
es ting
el ie
m ent
Ġang ry
ĠSom et
ĠSomet imes
Ġb ig
Ġch ang
ay be
Ġpos it
Ġle arn
Ġcom m
flect ing
Ġlo ve
Ġsh aring
Ġe ach
Ġwh ile
Ġm ind
Ġle ad
Ġfrien ds
Ġt ough
Ġhe al
Ġta ke
Ġb elie
Ġso on
i ly
Ġf o
in e
Ġ F
Ġinter esting
al s
ĠH ow
Ġdiffer ent
o ve
om e
Ġw at
Ġs im
Ġ E
s et
Ġf ood
b er
Ġag ain
Ġun e
Ġth an
Ġstr ong
ac es
Ġbelie ve
a p
Ġli ves
Ġc al
Ġa pp
Ġme m
Ġw alk
Ġcal m
Ġa d
ne ct
en d
em ber
Ġk ind
Ġin st
Ġli ft
Ġchang es
ul t
Ġr es
Ġcon nect
Ġf ut
Ġr el
Ġbr ings
Ġwor ld
Ġwith out
Ġexp eri
Ġfut ure
ar y
s i
are d
Ġposit ive
Ġ R
if ul
Ġbeaut iful
Ġch e
ow n
â Ģ
at ions
âĢ Ļ
Ġd ark
Ġsp ir
Ġcom p
Ġheal th
Ġs it
s o
it ies
Ġal so
Ġfear s
Ġsu pp
c es
ag e
Ġsa fe
Ġtr ue
Ġfo cus
Ġinst ead
Ġaf ter
Ġd id
s el
n y
Ġrem ember
Ġc ol
Ġqu ick
ĠM any
Ġh as
Ġd own
ic es
Ġmem ories
Ġsim ple
Ġtalk ing
Ġbe ing
Ġcom fort
er t
Ġch o
Ġstr ange
ea ce
Ġp eace
Ġwh y
Ġaw ay
c k
Ġspir its
ic h
Ġw ell
os t
Ġs k
i z
re ci
o om
Ġs peci
Ġo p
Ġg u
Ġspeci al
Ġl at
Ġun c
ĠE x
Ġup set
Ġgr ow
Ġn o
Ġcle ar
Ġsc ared
Ġdisgust ed
Ġd r
t o
Ġbright er
Ġl ong
act ly
ind ing
Ġb l
ic ult
Ġdiff icult
i re
es h
Ġpl ay
Ġex pect
Ġwh ich
Ġapp reci
her e
a x
i ld
ĠEx actly
Ġsa f
Ġsit u
Ġp ark
Ġm ood
Ġg l
m s
Ġwor ry
Ġaf fect
Ġsupp ort
Ġst ill
w ard
Ġe f
a k
Ġm is
Ġpro ble
Ġquick ly
Ġimp r
n ot
Ġsh ow
Ġwor ri
Ġhe ar
Ġhe art
ĠF inding
Ġn orm
Ġrel ax
Ġre ad
is e
Ġst ories
Ġnorm al
Ġcomm un
Ġappreci ate
ur n
Ġunderstand ing
Ġtr u
Ġfr esh
Ġ C
Ġb u
v or
Ġtru ly
Ġr ain
a ve
Ġex c
Ġe m
ĠTh e
ĠR e
ot h
o in
Ġma de
Ġin to
Ġl et
Ġfear ful
Ġact iv
Ġs en
en g
Ġsun ny
x t
Ġth r
ir on
Ġrem ind
all eng
Ġm o
Ġch alleng
ch ing
Ġw r
e k
an d
Ġ ide
ĠM aybe
Ġide as
Ġwe ek
Ġsc ary
Ġa ir
Ġst art
t y
Ġn ight
u m
Ġcan not
Ġon e
Ġpl aces
Ġsen se
d u
Ġcho ices
Ġcom e
ĠRe flecting
is ten
Ġfa vor
Ġd on
ig n
Ġen v
Ġm ess
Ġenv iron
Ġgu ess
i p
Ġre flect
Ġimpr ove
en ces
Ġdiffer ence
Ġne xt
Ġthink ing
ast e
i ous
Ġche er
Ġfavor ite
i x
e ct
Ġact ions
Ġp re
Ġb ack
eo ne
Ġsom eone
Ġt ea
Ġin side
Ġha ving
an ce
ert ain
a z
Ġenjoy able
Ġenviron ment
pect ed
an k
et y
Ġfl ow
Ġune x
Ġm at
Ġcomp l
Ġpl ace
f in
Ġproble ms
k ay
Ġactiv ities
w n
Ġd es
Ġo kay
it ely
f ore
Ġbe fore
fin itely
Ġw a
Ġof f
Ġl isten
Ġre al
Ġexp l
Ġlat ely
s h
Ġam az
Ġ L
Ġc r
re n
Ġfind ing
a pp
ou d
Ġunex pected
t r
ur es
Ġsurpris ed
Ġre flecting
Ġsp ace
Ġw ind
l es
Ġis s
as ant
Ġso l
Ġm aybe
a ke
Ġm ay
o p
Ġhapp ier
Ġis n
d o
Ġan im
at ing
ĠY ou
sel ves
Ġit s
Ġd el
Ġc ar
Ġin v
Ġs w
Ġthr ough
Ġal one
si ble
ul l
Ġh ere
Ġamaz ing
Ġp er
Ġnew s
ĠH ave
Ġbright en
m e
Ġcol ors
Ġbe en
Ġ P
n ing
Ġb o
Ġus e
Ġs l
Ġl ast
a v
Ġc ook
Ġsa me
as on
Ġmind s
Ġst orm
Ġfor ward
ĠTh ank
e ar
Ġd ir
Ġexperi ences
Ġworri es
Ġb re
t s
Ġcompl et
c o
Ġco ld
sh ine
Ġjoy ful
m ing
Ġop en
Ġfa ce
Ġst ep
Ġplan s
Ġfa m
u es
Ġang er
Ġde ep
Ġenjoy ing
Ġflow ers
Ġo ld
Ġunderstand able
g g
Ġune as
Ġem ot
Ġl a
ver s
Ġwh o
i et
Ġgo ing
de ed
a king
Ġcheer ful
Ġbeaut y
Ġd a
Ġsa w
Ġt urn
ard en
w h
Ġse c
Ġkind ness
Ġen d
Ġsun shine
Ġanim als
h ead
wh el
Ġover whel
Ġuneas y
Ġsk y
Ġg arden
i gh
Ġha d
Ġa head
Ġwat er
ic al
Ġexperi ence
iz e
Ġqu iet
r ow
Ġbu ild
oo l
Ġlearn ing
Ġp at
Ġb oth
ic t
Ġhealth y
Ġm us
Ġhappen ing
cus s
Ġsitu ation
Ġemot ions
Ġdis cuss
Ġef fort
le d
l ing
el c
Ġo wn
Ġl ea
Ġl ot
Ġcon f
ĠW e
Ġlook s
or y
Ġta king
Ġour selves
Ġun k
Ġgl oom
Ġda ily
Ġexc iting
Ġm an
Ġiss ues
g e
ke d
Ġtry ing
Ġeas e
Ġne ver
Ġjoy s
c ess
Ġmom ent
Ġupset ting
Ġnot ic
Ġun ple
Ġheart s
Ġb us
ot her
u ally
Ġdir ty
Ġcomm on
Ġsoun d
Ġlight en
Ġa v
Ġwr ong
Ġv al
Ġgloom y
Ġfrien d
Ġpl ant
Ġme et
Ġt re
g y
Ġsp end
Ġb est
Ġsaf ety
Ġp ain
Ġla u
Ġb ook
ap s
Ġy ear
Ġcomplet ely
Ġstr ess
Ġp art
Ġmis s
as h
s p
Ġsh in
a ir
is t
Ġbe h
w here
Ġde c
sel f
Ġt ri
ow s
Ġbre ak
Ġmus ic
v ed
Ġv is
Ġa c
Ġhe ard
Ġnotic ed
Ġar t
Ġsm ell
Ġhelp ful
p on
Ġne ar
k s
Ġcon vers
e et
Ġdisgust ing
Ġh ome
oo se
Ġf right
h aps
r ound
j ect
Ġf ix
d en
Ġdoes n
Ġcommun ity
Ġdr ink
do ors
Ġc ause
Ġkeep ing
est ion
ou ds
Ġeas ier
Ġan n
Ġres pect
Ġsm ile
u b
Ġres pon
Ġho ld
Ġcl ouds
Ġshow s
Ġw elc
Ġfam ily
Ġann oy
Ġoverwhel ming
Ġdis co
Ġp ers
Ġl oud
oo ds
Ġ B
ur al
Ġwor se
Ġfright en
Ġsurpris es
om fort
Ġat t
ĠI n
o id
Ġun f
Ġr o
pr ess
Ġunple asant
Ġp o
Ġen er
Ġcare ful
Ġm ove
ac ing
Ġav oid
Ġfor get
Ġpos sible
Ġm ust
Ġ el
Ġlook ing
Ġst ick
Ġad v
Ġh ar
Ġex press
Ġsur round
Ġl ost
Ġnat ural
Ġexpl ore
Ġy es
Ġcook ing
Ġre c
Ġsitu ations
Ġchalleng es
Ġstay ing
Ġus ing
Ġsol ut
or row
Ġt as
Ġp ast
er v
Ġg am
Ġm ost
Ġsl ow
ter day
Ġde finitely
Ġan x
Ġinv ol
Ġw ise
Ġyes terday
Ġad d
Ġpeace ful
k es
Ġsaf er
Ġsurpris e
Ġtre es
Ġwat ching
c our
Ġdisco ver
Ġevery where
Ġf ull
Ġcon c
u d
Ġsh o
p er
Ġsp aces
Ġhope ful
ire d
Ġto m
Ġunc ertain
Ġstr u
Ġwelc ome
Ġme an
Ġwat ch
Ġef fect
re ad
Ġun w
Ġt ast
Ġtom orrow
du ce
Ġsu re
Ġread ing
Ġwh ere
em s
Ġsw eet
ĠTh ose
Ġev ents
Ġplant s
ad e
Ġener gy
Ġcol or
Ġsee ing
Ġh ur
Ġp le
Ġget s
Ġinvol ved
Ġsurround ings
app oin
Ġh and
Ġtr ou
tan ce
Ġb ir
Ġdis appoin
Ġ ign
Ġs in
Ġen cour
Ġin deed
Ġannoy ing
l ic
alk ing
Ġ ri
Ġfrighten ing
Ġsin ce
Ġlight er
a il
Ġin sp
Ġt reat
Ġwor ds
Ġunf air
Ġanx ious
el t
Ġplay ing
Ġt aste
Ġto p
Ġimp act
Ġdel ic
Ġany one
f orm
Ġs ay
os s
Ġw ere
Ġaw are
Ġbus y
Ġha b
Ġunc omfort
Ġj our
Ġreal ize
ĠD id
Ġim ag
us h
Ġs n
Ġwa iting
r a
Ġnot ice
Ġf acing
Ġw aste
ĠC h
ip s
re t
as e
ent ion
Ġc ertain
is es
Ġc hat
Ġthan k
Ġd ang
Ġbec ome
Ġf elt
Ġre ason
Ġwarm th
ne y
Ġb al
Ġuncomfort able
Ġjour ney
or ting
Ġwalk ing
Ġmat ter
Ġchalleng ing
Ġdo ing
Ġp ow
or ing
ie w
Ġh igh
et s
Ġper fect
iv ity
Ġt ired
Ġeas ily
at ed
Ġqu estion
Ġy et
Ġr u
a b
Ġstep s
Ġon es
Ġpro ject
ra id
ĠS t
Ġta kes
Ġget ting
Ġlisten ing
Ġlat er
Ġmo v
Ġus ually
oun t
om es
Ġre f
Ġde al
Ġr un
ĠS h
Ġpers on
Ġr est
Ġign ore
Ġaf raid
Ġch oose
ĠD e
Ġspend ing
Ġun h
ub lic
Ġ N
eri ous
Ġp ublic
Ġs erious
re d
Ġl ow
Ġvis it
Ġunk ind
Ġconc er
Ġv iew
ar ds
Ġstru gg
ent ly
Ġme als
Ġweek end
Ġcom es
Ġneed s
f er
Ġhab its
Ġref r
ak es
Ġit ems
ĠDe finitely
Ġd ri
ght er
Ġworri ed
Ġtri ed
Ġr oom
Ġre g
Ġso ft
ct s
Ġtas ks
u ck
Ġmess y
Ġm or
Ġpr ot
Ġstrong er
Ġmis t
Ġwor king
Ġtr ash
m er
le an
Ġe at
os p
ay ing
Ġne g
n g
Ġh arm
si der
Ġconnect ed
m ents
Ġh id
Ġw in
Ġm ix
Ġcommun ic
Ġas king
i qu
ul ar
i ves
Ġpow er
Ġc ur
Ġse ason
Ġcon sider
Ġst ory
Ġwe ight
Ġfr u
Ġf all
Ġlea ve
w ards
m mer
Ġus ed
Ġf ound
Ġadv ent
Ġe ar
Ġbal ance
p l
Ġkeep s
Ġre duce
Ġatt ention
Ġclean ing
Ġhappen s
Ġencour age
Ġb reat
Ġfocus ing
Ġp ol
Ġcon tr
Ġg ive
ou p
Ġman age
it ch
ĠT alking
iv ely
Ġsm oo
Ġf ir
Ġdisappoin ting
Ġ O
Ġsolut ions
Ġhar der
Ġin c
Ġpro per
Ġst op
Ġconf us
it ed
Ġstorm s
Ġpre p
Ġbo d
Ġdo g
Ġa p
Ġeas y
Ġtr ick
Ġno ise
Ġno ises
Ġshin ing
Ġover all
Ġout doors
Ġh er
p es
Ġel se
Ġs il
g an
one y
Ġli ving
Ġf as
k en
Ġgl ad
Ġcom f
Ġcontr ol
Ġdec is
um p
il ing
Ġch ild
Ġconvers ations
Ġdang er
ĠT here
Ġv i
Ġhur t
Ġconnect ions
Ġcom ing
Ġg re
Ġhand le
Ġc aus
si b
Ġfir st
oo ked
Ġp ut
Ġmy self
Ġc at
Ġp ass
Ġcomf orting
ĠT aking
Ġmor ning
om ing
Ġneg at
Ġun iqu
Ġse en
u al
Ġbr o
Ġsp read
Ġgam es
Ġdeep ly
Ġf in
Ġconcer n
Ġm oney
Ġin form
Ġwin ter
id y
Ġple asant
Ġlau ghter
a w
Ġremind s
t ions
Ġsh ad
Ġw et
ic s
Ġuniqu e
Ġstick y
Ġbeh av
Ġbehav i
Ġany thing
c king
l ight
Ġfun ny
Ġpat h
r ing
Ġread y
Ġj oin
Ġm on
es hing
os ing
Ġf ly
ap pe
Ġrefr eshing
g th
ren gth
Ġp ri
Ġp ict
Ġprot ect
Ġbl ue
Ġst rength
Ġcho ice
Ġcar ry
Ġf il
Ġsmoo th
Ġsu mmer
Ġt idy
Ġcreat ing
Ġinsp ire
b y
al ing
Ġpre fer
tr act
am e
Ġunexpected ly
Ġen ough
Ġshare d
al ity
Ġlong er
Ġac c
du c
Ġf ar
Ġor gan
Ġpr act
if e
Ġme al
Ġdis h
Ġon ce
Ġp ic
Ġpat i
Ġf ree
Ġe ating
Ġrelax ed
Ġru in
ĠP er
Ġcon s
Ġdes ign
Ġsn ack
Ġlau gh
Ġsh ar
Ġd ry
Ġgo es
ĠIn deed
Ġto wards
ill s
Ġwr iting
Ġtea m
Ġc aring
p t
Ġt ou
erv ous
Ġper haps
le ep
Ġn ervous
Ġaffect s
sib il
Ġimpor tance
Ġa ut
m osp
Ġat mosp
g er
Ġbreat h
Ġop tions
Ġatmosp here
v en
ĠPer haps
Ġare a
Ġsp ring
Ġev ent
Ġpo or
Ġyou ng
Ġ [
re am
in es
S T
I N
IN ST
Ġ[ /
a pe
Ġpic n
Ġdes p
Ġche ck
Ġbir ds
Ġcomfort able
Ġl on
do or
Ġreg ular
Ġcl oth
Ġon ly
Ġcon t
Ġdesp ite
Ġp oin
Ġwa it
Ġco pe
Ġfrustrat ion
Ġgr ound
Ġsh ort
Ġhelp ing
Ġcl oud
en er
itch en
Ġk itchen
ĠM y
Ġcl os
Ġcalm ing
Ġst uck
Ġtast y
Ġexc ited
Ġmo ving
ĠT r
Ġsec ure
ĠSt aying
Ġs leep
Ġunc lean
Ġbro ken
ĠCh ange
Ġth ick
Ġsh e
b r
Ġd ep
Ġproble m
Ġshar p
ain s
Ġmat eri
Ġr ough
Ġmeet ing
at ure
or k
Ġso ci
Ġtrou b
on d
Ġdel ight
Ġt ight
es ent
z y
ĠL et
Ġbuild ing
Ġm et
Ġunk now
Ġb ur
Ġbl oom
Ġin d
Ġmov ie
Ġl ooked
Ġchild ren
Ġsw im
ĠSh aring
Ġunknow n
h ips
Ġun set
Ġd am
ll ow
Ġqu ality
Ġle ft
o pe
Ġap pe
an ds
Ġm ark
Ġs ch
pp ing
Ġm ed
Ġun der
Ġgrow th
Ġshad ows
Ġproper ly
Ġt all
Ġwant ed
Ġal ive
Ġt e
Ġc her
ĠSom e
Ġbright ly
Ġval ue
t ling
Ġco zy
Ġs pe
Ġre act
Ġdelic ious
Ġexpl oring
Ġdelight ful
cess ary
Ġclear ly
iz ed
Ġconnect ion
Ġrec ently
Ġlea ves
Ġun s
Ġsh ake
Ġbehavi or
Ġlon ely
Ġrespon sible
Ġrelax ing
Ġo pp
Ġunset tling
ul es
Ġpoin t
Ġpro cess
Ġun in
Ġam ong
Ġf oods
Ġtou ch
Ġmix ed
Ġconvers ation
ou se
c in
v el
Ġfas cin
Ġcommunic ation
i ke
Ġf re
Ġan other
ast ic
al e
Ġbook s
Ġfascin ating
e el
Ġh ouse
Ġcher ish
n ed
u ri
led ge
Ġchang ing
it ion
Ġs now
Ġro ad
Ġh um
on s
Ġto ol
ot iv
Ġd et
Ġdri ving
Ġre ce
Ġri ver
Ġb other
appe aling
Ġs ong
el ess
Ġun appealing
Ġmean ing
Ġco ver
w e
Ġf ast
Ġtea ch
Ġtr ust
Ġbring ing
is s
Ġconf id
Ġdecis ions
Ġcur ren
en e
Ġb as
Ġnear by
Ġbeh ind
Ġhe at
Ġs ign
Ġcolor ful
Ġg ather
Ġr ules
Ġsnack s
Ġcurren t
Ġl ack
Ġmo on
Ġe duc
Ġyour self
we en
Ġbet ween
Ġp ay
ĠN ature
d d
Ġcreat es
Ġmist akes
Ġsu gg
Ġpicn ic
Ġth ing
Ġm oods
Ġin doors
Ġplan ned
av el
Ġplan et
Ġsec ret
Ġaware ness
Ġnot hing
Ġexpect ed
Ġch ance
Ġs y
Ġimag in
ail s
Ġt y
Ġevery day
Ġclean er
ang ing
Ġhappen ed
Ġunw ell
Ġg ives
Ġg ener
iz ing
Ġman ag
Ġre ward
Ġr ather
Ġpol it
Ġcr u
Ġiss ue
b or
Ġc ut
Ġthou gh
at h
Ġun p
Ġact ion
ct ion
el f
Ġtr avel
Ġre d
Ġmatter s
rat e
l iness
v iting
o ke
Ġmon th
Ġmed ical
Ġvi ol
b t
Ġdiscuss ions
Ġj ump
Ġcl ose
Ġlov ed
Ġdep end
Ġknow ledge
Ġto wn
Ġbig ger
Ġwind ow
Ġn ic
Ġ G
ĠTr ue
il es
d den
l ess
Ġeffort s
Ġh ist
Ġcon d
Ġhealth ier
Ġpati ence
Ġbit ter
Ġt ell
Ġsu dden
Ġunin viting
Ġr is
be ing
Ġdr aw
Ġcommun ities
r ess
Ġsmell s
Ġout door
Ġfam il
Ġt w
Ġun t
Ġh ot
Ġsoci ety
Ġsun light
r o
en s
Ġmat ch
Ġst ar
ful ly
Ġsp ot
Ġr oo
Ġdanger ous
Ġclean liness
Ġen g
Ġbod ies
Ġv o
Ġcreat ivity
Ġpro du
w ork
Ġh omes
Ġc ool
Ġcloth es
Ġpolit ical
Ġgu ide
n am
Ġpark s
Ġc uri
Ġadvent ure
Ġh or
Ġc or
Ġad ds
Ġl osing
Ġpr esent
Ġgam e
Ġtrou ble
Ġo ven
Ġstrugg le
est s
Ġdelic ate
Ġfru it
Ġeduc ation
ri es
y ing
Ġfil led
Ġtool s
an ces
ne e
el e
iv id
er ve
Ġhist ory
Ġinform ation
Ġsch ool
Ġconfus ing
Ġst y
Ġmateri als
ĠH ope
l if
Ġfl at
Ġre t
em ent
Ġre ach
Ġoff er
Ġfe w
Ġre ci
Ġup lif
s w
Ġhid den
z e
Ġd ust
Ġor nam
Ġval u
Ġare as
Ġr out
Ġch ea
Ġke y
Ġne cessary
Ġret urn
ĠL ife
ir ing
ĠW ould
Ġp ap
Ġdrink s
Ġsm iles
Ġfl av
it ions
Ġbad ness
Ġlo ad
Ġappe ar
Ġse a
Ġfin ish
Ġfrustrat ed
Ġst ore
Ġs and
Ġpro v
Ġthem selves
Ġ U
ou ght
m ed
Ġdiscuss ing
red ict
Ġd ull
Ġgr oss
Ġsk in
Ġsol id
Ġflav ors
Ġapp ro
Ġem p
Ġunp redict
Ġwho le
f l
Ġtop ics
Ġ K
Ġde ad
Ġf ul
Ġmiss ing
Ġpri v
Ġe qu
Ġj ud
ĠP eople
Ġperson al
Ġho p
Ġth in
l ook
Ġbl ack
al se
Ġcreat ive
Ġt ree
Ġe y
Ġp ets
Ġsur ely
Ġcru el
Ġlit ter
Ġchea p
an s
Ġs erv
l ike
o ck
Ġf alse
Ġgr ass
Ġrespon sibil
Ġun ders
Ġsy st
Ġrain y
t ain
Ġpract ice
Ġ ill
Ġf ool
ĠThe y
Ġf ight
ag es
Ġb er
n er
Ġnegat ive
Ġcar eless
Ġf arm
Ġposit ively
Ġfool ish
Ġan sw
Ġgre y
ch n
ap t
Ġj o
Ġslow ly
Ġgr oup
Ġhe aring
Ġwork s
Ġh on
e ing
at s
Ġind ivid
Ġshin es
is hing
Ġde ar
hy s
Ġimag ine
i al
ele b
Ġpriv ate
Ġunt il
Ġsolut ion
Ġst ret
Ġactiv ity
Ġmark et
Ġte chn
Ġf ore
r u
Ġst iff
Ġl im
Ġtr ain
c le
Ġsk ills
Ġd ig
Ġwe ar
Ġsh ine
Ġenjoy ed
d le
Ġs ci
Ġp hys
Ġl ose
Ġpain ting
Ġwalk s
Ġl oose
Ġs ight
Ġop in
Ġwh ite
Ġfl o
u als
Ġdet ails
Ġdis tract
arn ing
Ġst re
Ġunpredict able
e w
Ġpain t
Ġclos er
Ġs et
Ġc eleb
Ġre co
Ġstress ful
Ġcomplet e
Ġto y
Ġun us
Ġfa ir
Ġth ri
Ġbe ach
Ġn ar
Ġsp o
Ġindivid uals
Ġinc re
otiv ated
Ġma ch
Ġplan ning
an c
Ġ ice
il ar
Ġs oup
Ġaw ake
Ġnar row
Ġc ake
ag ing
Ġconcern s
app y
v ely
a f
Ġphys ical
ult s
Ġs ing
Ġli ve
Ġdam age
Ġexc ite
ĠR em
i el
Ġm il
Ġsim ilar
Ġbur den
Ġmeaning ful
Ġf ish
Ġviol ent
Ġd ream
ĠRem ember
Ġdir t
Ġle ather
Ġli vely
Ġb ent
Ġsugg est
Ġtast es
Ġh ands
Ġexcite ment
Ġw ide
Ġoverwhel med
Ġp ush
Ġpower ful
Ġtrick y
Ġfru its
Ġlead s
Ġtri p
Ġb urn
Ġhon est
Ġacc id
ir es
Ġsee k
Ġpap er
Ġsk ies
n ight
Ġab le
m ore
Ġany more
Ġcomp any
Ġwas h
Ġeffect s
ell ow
Ġpr ess
Ġout c
Ġunus ual
Ġm id
Ġpict ures
Ġdis like
Ġpr om
Ġcuri ous
at ic
Ġfearful ness
Ġbr ave
as ure
Ġth en
ĠB eing
ĠT o
Ġre p
Ġcloud y
Ġl oss
Ġf iel
ĠTh is
Ġrel ations
Ġpict ure
Ġtea ching
t ime
Ġdr ess
Ġpre v
Ġp en
Ġless en
Ġun app
Ġh im
Ġwind s
Ġuns ure
id s
Ġfamil ies
Ġbreak s
b ject
is on
ci ous
ĠM e
Ġdis t
Ġmid dle
Ġal ong
Ġfo llow
Ġadvent ures
Ġsm oke
am p
Ġfe e
Ġunh elp
Ġp ur
e ep
Ġteam work
Ġcertain ly
t on
Ġwe igh
Ġto night
Ġcaus ing
p ar
Ġless ons
Ġy ellow
Ġbod y
Ġfee ble
f it
ĠS o
Ġre qu
Ġunhelp ful
Ġac ce
Ġg ent
Ġd ou
Ġs ide
Ġwe aring
Ġl ing
Ġsp ade
Ġsh ap
Ġear th
ir t
Ġmov ies
Ġun m
Ġg ot
Ġse par
Ġpro g
Ġprep ared
Ġdish es
Ġsm art
Ġprep are
Ġtroub les
Ġgent le
Ġhid ing
ĠHope fully
as ures
Ġpath s
Ġcareful ly
s ing
Ġfly ing
Ġsu c
Ġp ull
Ġon to
Ġel astic
Ġsh ape
Ġhe ad
Ġf at
Ġfre qu
om atic
Ġcreat ures
Ġt al
ert ile
Ġcons cious
Ġbus iness
Ġsci ence
Ġgrow ing
Ġwor th
Ġha ir
Ġpers pect
Ġho b
Ġc ity
Ġpro b
Ġb ene
Ġsho es
Ġover c
Ġf ertile
Ġaut omatic
Ġsp ark
Ġdark ness
ew el
Ġemp ty
h ip
Ġfe m
Ġcond itions
Ġle vel
Ġknow ing
or ry
Ġopen ly
Ġj ewel
Ġcont in
h o
Ġlo c
Ġb ag
Ġh anging
Ġst ud
e e
Ġswim ming
Ġclear er
Ġin se
Ġm in
Ġres ults
Ġfriend ly
Ġproject s
Ġs ick
un der
Ġne igh
Ġas k
Ġagain st
Ġprev ent
as ing
Ġo dd
ol o
Ġgener al
g n
Ġneed ed
end ing
Ġcomp an
Ġt able
ust om
Ġroo f
Ġsepar ate
Ġpr ices
Ġexpect ations
Ġd ire
Ġin s
is ts
ent ial
Ġspir it
in der
Ġreflect ion
Ġp ie
t ood
Ġfem ale
Ġadv ice
Ġs al
Ġf ire
l ier
Ġb oo
Ġprov ide
Ġfore ver
Ġbloom ing
Ġc ustom
Ġunh appy
Ġact ually
Ġs tand
Ġl and
Ġbelie f
Ġst om
Ġc ount
er ves
Ġstom ach
Ġl ar
Ġappro ach
our ces
c ape
Ġp ar
Ġbre ad
Ġreward ing
Ġequ al
Ġheal ing
Ġimp ul
ut e
Ġsec ond
g in
ĠTo gether
Ġinv iting
Ġview s
Ġsit ting
ut ion
Ġfa cts
Ġs nee
Ġk not
Ġmet ho
Ġmis un
Ġseason s
Ġtechn olo
Ġfocus ed
Ġdeep er
Ġbe gin
Ġt iring
Ġh ate
Ġresponsibil ity
Ġsyst em
Ġthr ow
Ġb all
Ġstret ch
Ġro ll
as ting
Ġfriends hips
Ġ ve
Ġbl ow
Ġnic er
Ġopin ions
Ġk ids
Ġopp os
Ġth under
red i
Ġaw ful
Ġd one
Ġwa ves
Ġn ut
Ġover look
Ġli f
o cking
Ġcat ch
Ġoppos ite
Ġm ar
Ġst ea
Ġus ual
Ġat tract
Ġsudden ly
Ġcol lect
Ġuse ful
Ġt est
Ġrece ip
Ġuncertain ty
Ġw ild
Ġch a
Ġear lier
Ġtrick s
Ġdepend ent
at es
Ġunders tood
Ġfix ed
Ġtr an
ook ing
Ġshap es
Ġor ange
Ġar m
s ter
Ġfall ing
Ġbreath e
Ġincre ase
Ġp ot
Ġtechnolo gy
all el
Ġdou bt
Ġpar allel
Ġs orry
Ġin fl
Ġc up
Ġal m
Ġtran sp
Ġp ick
n o
Ġsil ly
Ġunw elc
Ġdifferent ly
Ġso ck
Ġle ast
d ge
Ġinfl u
Ġvis iting
en c
Ġreci pes
bject s
Ġsho pping
Ġh our
ĠL e
ang u
Ġthought ful
Ġr ub
ort un
Ġuplif ting
Ġanim al
Ġar ri
Ġma p
Ġtroub ling
Ġacce pt
Ġli qu
Ġpur p
Ġshow ing
Ġrelations hips
if ic
Ġopp ortun
Ġalm ost
Ġsong s
Ġbo iling
et izing
Ġmisun derstand
Ġche ese
b ing
Ġdr ain
Ġty pes
rate ful
Ġconfid ent
f its
Ġpro duce
Ġl angu
Ġdec or
Ġstart s
ĠK eep
r up
Ġact ive
Ġstrugg les
Ġes cape
Ġunwelc oming
Ġcompan ies
Ġdo or
Ġcl ar
Ġfrequ ent
Ġtransp ort
Ġh ide
Ġinform ed
if t
Ġv ar
Ġeffect ively
Ġdis c
Ġc aut
pp er
Ġvo ices
Ġlift s
Ġprog ress
Ġful ly
Ġar g
Ġt ips
Ġornam ent
Ġmind ful
Ġprob able
Ġinc l
Ġdr op
Ġprodu cts
Ġunm otivated
Ġadd ing
Ġb ab
ĠKeep ing
Ġma in
Ġb el
Ġorgan ized
Ġunapp etizing
Ġreason s
ĠLe arning
g s
Ġcommunic ate
Ġr elie
Ġg rateful
Ġstar ting
Ġb ree
Ġse ar
ri ed
Ġdis tance
Ġsol ve
Ġch ar
Ġval id
Ġfo ld
Ġpo ll
Ġpress ure
Ġcom ple
il ity
Ġreco gn
Ġd in
Ġto ward
Ġjud ge
Ġma g
Ġpart s
Ġclar ity
Ġbl ank
Ġremember ing
Ġnot e
Ġimagin ation
ĠF o
Ġcomple x
Ġyear s
Ġtas k
Ġbother ing
Ġcalm ness
Ġr a
Ġlet ter
Ġdog s
ĠS un
Ġc re
Ġdesign s
Ġtreat s
Ġoutc omes
Ġta x
Ġaccid ents
Ġimpul se
Ġneigh bor
Ġmy ster
Ġchang ed
Ġrem inding
Ġbir d
fort un
Ġmetho ds
Ġst ays
Ġbelief s
Ġb ath
Ġh is
Ġdream s
Ġinse cts
Ġflo or
Ġ ess
Ġf ill
Ġliqu id
Ġho llow
Ġimpr o
Ġve get
Ġact s
Ġbu y
Ġpurp ose
Ġoverc ome
Ġopportun ities
Ġbe d
Ġm ount
Ġbuild ings
ter n
Ġdisappoin t
Ġrun ning
is f
at isf
ver t
Ġtr ay
Ġseem ed
Ġpr ose
Ġhor n
e ver
Ġsh op
ĠC lean
Ġla w
Ġess ential
Ġbut ter
Ġex ch
Ġsuc cess
Ġfa ct
Ġoff ice
vert is
Ġpos sibil
Ġtw ist
Ġcaut ious
a vor
Ġbree ze
Ġl in
Ġgreat ly
Ġl asting
Ġgre en
ver se
Ġc ry
n ings
Ġw all
Ġpri or
Ġconfid ence
Ġfl avor
Ġall ows
ĠP l
Ġdist ur
Ġgo als
Ġad vertis
ĠU n
ĠE very
ent ions
Ġad apt
Ġsa il
Ġch il
Ġeven ing
Ġnegat ivity
Ġcomp et
Ġfiel d
Ġtoy s
Ġhapp ily
ut h
Ġvalu able
Ġdecis ion
Ġp h
Ġcaus es
Ġchil ly
Ġbr a
Ġch alk
Ġr ice
Ġun fortun
Ġbo at
Ġsa iling
Ġreceip t
Ġlearn ed
Ġb aking
al th
Ġsmooth ly
Ġs end
Ġtop ic
Ġlight s
Ġunh e
Ġcr ow
Ġho pes
Ġor der
Ġdes erve
Ġling er
Ġchalleng e
Ġa ch
Ġs elf
Ġc ost
Ġ ing
Ġcons tant
Ġhop ing
ab les
ĠI s
ĠF eel
an ch
Ġr ange
Ġing redi
u de
Ġfl ight
Ġf aces
Ġcustom ers
b ies
Ġlangu age
Ġc ult
g ing
it al
Ġspe ak
Ġcom b
Ġcl ock
Ġo ce
Ġcontin ue
Ġworry ing
Ġfor m
Ġc our
tr a
Ġtr uth
Ġk ick
Ġbo x
Ġex tra
Ġfriends hip
Ġk iss
Ġmem ory
Ġsaf ely
Ġmin ute
Ġstea m
Ġbel ong
Ġkind s
Ġch ances
ck et
Ġbr anch
Ġs atisf
ĠFo cus
ri b
Ġto oth
Ġpro p
Ġhob bies
Ġveget ables
Ġdang ers
j ust
Ġab ove
Ġmar ried
Ġf it
Ġsh irt
Ġcr ack
Ġmisunderstand ings
Ġsh ut
Ġrec ent
Ġserv ice
Ġis l
Ġp op
Ġcre ep
f ic
Ġp ump
ag ed
a fe
eav ing
Ġs oo
ĠFocus ing
Ġbec omes
id es
Ġt ick
ĠC ooking
ĠL osing
Ġst amp
Ġsu g
i ety
Ġt em
Ġmil k
Ġspread ing
Ġfas ter
Ġloc al
Ġey es
e ase
Ġgarden s
c c
Ġen s
Ġlim it
Ġimprove ments
Ġgl ass
Ġorgan iz
iv ing
Ġposit ivity
vel op
Ġprop ert
oun ds
Ġw ent
ot ton
Ġall ow
Ġw ine
Ġwarm er
Ġrelie f
ĠFeel ing
Ġingredi ents
Ġhum an
Ġbur st
Ġp et
Ġmach ines
or es
Ġp in
Ġharm on
Ġde velop
h ood
Ġhar bor
Ġprom ot
Ġd ue
Ġgarden ing
Ġturn s
ke y
Ġceleb rat
Ġheav ier
Ġl eaving
Ġstru ct
Ġc ir
Ġd est
Ġl ate
Ġsmall er
Ġw ool
Ġdiscover ies
Ġt er
d y
Ġres ources
Ġw ood
Ġb ite
a u
alth y
Ġo bjects
Ġber ry
ĠH i
Ġrout ine
Ġsupp ose
Ġc ream
Ġdisc omfort
Ġansw ers
Ġmet al
Ġinflu ence
Ġhold ing
Ġad just
Ġacc ount
on t
Ġach ie
Ġ er
Ġsh ade
Ġb on
Ġdiscuss ion
Ġregular ly
il led
Ġb ot
y cle
Ġdeal ing
ea ble
Ġjo b
l ine
Ġcr ush
er c
Ġcompl ic
Ġcount ry
Ġconfus ion
Ġcomm it
ru ction
Ġcl im
read y
Ġpossibil ities
Ġh osp
Ġse ed
Ġst ocking
Ġhum or
um ents
ĠW alking
Ġfl ag
Ġsug ar
Ġo il
Ġconnect ing
Ġinv entions
Ġstre ets
Ġe gg
Ġpol ish
Ġsign s
Ġber ries
Ġisl and
Ġpoll ution
Ġpat tern
Ġey e
Ġty pe
Ġmeet ings
ict ion
Ġunple asing
Ġansw er
Ġdig estion
Ġc otton
Ġsh elf
Ġro le
Ġw ound
Ġharmon y
Ġgo ld
Ġg one
Ġr ing
Ġex erc
Ġunfortun ate
Ġde bt
Ġtoo k
Ġlif ting
re ts
Ġbeautiful ly
us hing
Ġsim pl
c les
Ġun b
er ms
ead y
Ġaffect ing
Ġexch ange
Ġfix ing
Ġso ap
Ġsho cking
z z
Ġinter est
Ġsp ong
Ġlead ers
Ġlevel s
Ġcrow d
Ġbrighten s
ook y
Ġplay ful
Ġcour age
Ġk inder
ur ance
Ġvi br
f f
Ġsp ooky
Ġo bs
Ġco ll
Ġtalk s
Ġpro fit
Ġdes erves
Ġuns afe
Ġmon key
Ġr ound
Ġl ist
Ġsty les
Ġwas hing
Ġw is
Ġk n
Ġvibr ant
Ġsm ash
Ġco al
Ġafter no
Ġg erms
Ġem br
ĠF ear
Ġper form
Ġgr ay
Ġcalm er
Ġap art
Ġso il
Ġer r
ĠB ut
Ġsa ve
ci l
Ġchar act
ed ay
Ġsom eday
ink ing
Ġwon ders
Ġun st
Ġrout ines
Ġin k
Ġh at
Ġrain s
i ar
Ġimpr ess
Ġme at
Ġp u
Ġh y
or ter
Ġshe ep
Ġcomplic ated
ĠClean ing
f fer
Ġnic ely
ab ly
c ol
Ġwr ite
or able
Ġsh ift
Ġens ure
Ġvo ice
Ġqu est
en ds
Ġri d
Ġf iction
ri ble
Ġsil ver
Ġdire ction
Ġstre et
Ġquest ions
Ġo cc
is ion
Ġsec rets
Ġunhe althy
Ġb and
Ġreact ions
Ġjourney s
Ġbab y
anc ed
Ġcook ies
Ġcr ime
Ġru le
Ġmonth s
Ġrefr esh
ac ed
Ġp aste
oun ts
Ġhur ts
Ġst em
Ġshin y
Ġvalu ed
Ġsil k
Ġcompet ition
Ġsty le
col ate
oo sing
Ġpen cil
Ġtr ade
Ġoce an
Ġsh ip
Ġbother s
Ġc ush
Ġlin en
Ġr ay
le ar
Ġgather ing
Ġar ch
Ġwor m
Ġnight s
Ġris ks
Ġcha os
Ġperspect ive
Ġflow er
Ġsp ent
ci al
Ġincl ud
Ġhopeful ly
Ġk et
Ġm ine
Ġsal t
Ġbra ver
Ġins urance
Ġav ail
Ġstar s
k ely
Ġachie ve
Ġthri ll
Ġus es
Ġsu bs
Ġsu ffer
out h
em ents
oo t
Ġfr ont
Ġl uck
Ġhold s
Ġte xt
Ġstrugg ling
p or
at ching
ĠA n
Ġafterno on
Ġornam ents
Ġpr in
Ġenjoy ment
Ġmateri al
Ġm outh
Ġconnect s
or d
Ġruin ed
Ġun ne
ry ing
Ġt in
Ġcaus ed
s es
Ġceleb rate
ĠW ith
ir r
Ġw ar
' m
Ġavail able
Ġmain tain
ĠS m
Ġharm ful
Ġsnee ze
Ġfinish ed
ill ing
iss ors
Ġthri ve
Ġconcer ning
Ġpre t
ur ch
um n
Ġmount ain
Ġr hy
Ġinter ests
Ġdown s
Ġbreath s
ĠW r
Ġup s
Ġmind set
Ġrhy th
Ġch urch
ver n
Ġsl i
Ġop er
Ġgo vern
Ġlo ck
Ġdiscover ing
un ch
Ġrep air
Ġst ation
Ġsc issors
Ġexpress ing
Ġbir th
Ġre pr
Ġmem orable
Ġr esting
Ġs ize
Ġind ust
Ġcar es
ee king
a ving
tan ds
Ġtin y
Ġpattern s
Ġaut h
Ġdin ner
o ld
ĠWr iting
Ġblank et
Ġwelc oming
Ġc art
Ġal ready
Ġn um
Ġcl ass
Ġbene fits
Ġchat ting
Ġbo ard
Ġgo al
Ġmanag er
g i
Ġpropert y
Ġde ath
Ġdraw er
ĠS eeking
Ġon line
Ġmag ical
b ers
Ġbreat hing
Ġho le
Ġturn ed
Ġket tle
u ff
Ġc am
Ġb ought
Ġr ace
ĠUn derstand
Ġdis appe
Ġpret ty
Ġin ten
Ġlar ge
Ġc ard
Ġunst eady
in s
p ut
Ġgovern ment
Ġstud ents
Ġcam er
Ġsupport ive
Ġear ly
Ġc apt
Ġrequ ires
Ġcho colate
Ġc ough
ĠSh ould
ish ment
Ġam ount
Ġsur f
Ġp un
id ing
Ġexpl ain
Ġfor g
Ġhar sh
Ġdes ire
Ġpl ate
v al
Ġuplif t
Ġco pper
c ked
Ġdraw ing
Ġst itch
Ġreci pe
Ġsun set
Ġmach ine
ous ers
Ġbas k
ile d
Ġf ing
Ġrel ig
Ġc ase
Ġemot ion
Ġf oot
Ġexp ert
Ġli kely
Ġaut umn
Ġc red
Ġpr ice
Ġpass es
Ġm otiv
Ġd iv
Ġtr ousers
ĠW ell
an ting
Ġdel ays
Ġfrighten ed
b o
as es
ĠM aking
Ġspot s
Ġcred it
Ġbr ain
Ġcare d
pl ace
Ġful f
pp ed
ic ing
ĠUnderstand ing
Ġdec ide
f fe
Ġsing ing
Ġdecor ations
Ġam us
ffe e
h ow
Ġatt it
i verse
Ġsome how
Ġprodu ct
ct ly
Ġwith in
Ġstress ed
Ġgather ings
Ġter rible
Ġbe ar
it ary
Ġst eel
ess el
Ġdest ruction
Ġv essel
Ġpromot e
Ġforg ot
Ġhour s
Ġwant s
Ġrhyth m
Ġheav iness
Ġbelong ings
Ġb ell
Ġd istant
Ġdis rup
ort s
Ġrespect ful
Ġ iron
Ġt ren
Ġbon ds
Ġserious ly
Ġturn ing
Ġindust ry
om m
Ġwor d
Ġcoll ar
i ed
f ter
Ġwhen ever
Ġbright ness
Ġbot tle
ang es
arm ing
Ġcond ition
Ġco ffee
Ġl ine
Ġch est
ĠT rying
Ġperfect ly
Ġpu zz
ne w
Ġcommit t
Ġri de
Ġoff ers
Ġstart ed
Ġl ying
Ġw ax
Ġcan v
Ġsh ame
Ġinten se
Ġin door
ĠW atching
Ġris k
Ġperspect ives
Ġcult ures
Ġtem per
Ġb ake
ot hing
l ies
Ġs el
Ġteach es
Ġcamer a
Ġorganiz ation
Ġpart y
Ġrem ain
Ġcar ri
Ġignore d
ĠE ating
Ġrepr esent
Ġg ri
Ġsoo thing
Ġbask et
Ġsch ed
Ġcanv as
Ġgener ations
Ġmil itary
Ġwh eel
Ġroad s
Ġinst ru
Ġne at
ĠEx pl
Ġche cking
Ġtal ked
Ġbr ought
Ġal ert
Ġsupp orting
Ġpie ce
Ġg ar
ĠE n
Ġenviron ments
ĠExpl oring
ĠG ood
n ers
i ence
Ġdiffer ences
Ġdrink ing
on es
Ġr ely
Ġvar ious
Ġlet ting
Ġpain ful
Ġdo ors
on nect
reci ous
Ġbr ush
Ġp recious
Ġspe aking
Ġnat ion
Ġco p
Ġunne cessary
Ġsl ope
Ġpati ent
Ġtr ack
Ġcl othing
Ġclos ely
Ġaffect ed
Ġbr ass
is ing
Ġadd ress
Ġthr o
Ġeng ine
Ġfl ame
Ġsupp lies
Ġg ently
a ur
ĠR ight
anc ing
ĠRemember ing
Ġsock s
ĠH aving
ĠW h
Ġkn ife
Ġauth or
Ġra ise
Ġen ds
Ġimagin ations
Ġst at
Ġhor se
Ġe dge
Ġpun ishment
Ġcarry ing
Ġwor ms
Ġple asures
ĠF r
Ġmean s
ĠY our
Ġmu d
Ġspo on
Ġpie ces
Ġpract ices
Ġsear ching
Ġspong e
ĠB right
ĠU sing
Ġex am
Ġmess ages
Ġf ade
aur ant
Ġcommitt ee
Ġwor ked
Ġrest aurant
Ġmanag eable
Ġplan e
ear ten
au ght
Ġdish earten
it es
Ġun im
Ġple asure
Ġwork ers
Ġp i
Ġreact ion
ĠW a
por tant
isten ce
Ġfre ely
enc y
Ġsugg estion
Ġlot s
Ġlar ger
Ġta il
Ġg iving
Ġsho e
Ġpop ular
put ting
Ġreal ity
ri dge
Ġevent ually
Ġsight s
Ġlead ing
Ġunim portant
Ġjud g
Ġboo st
Ġen ter
Ġc aught
Ġb ond
Ġcost s
Ġwor st
at ive
Ġris ing
Ġdark er
Ġremind ed
Ġth read
Ġr at
Ġrecogn ize
Ġanx iety
Ġcomp ared
Ġtr ains
Ġneighbor hood
Ġf ig
Ġfe et
Ġsl ip
Ġsoci al
Ġdisappe ar
Ġsn akes
r es
Ġcush ion
r oss
Ġunc lear
ĠWa iting
Ġr ail
Ġdishearten ing
Ġc ycle
Ġdri ve
Ġmess es
Ġac ross
Ġph ot
a ft
Ġbec oming
Ġbr other
ĠO ne
iv ed
Ġdiv ision
Ġstorm y
Ġprior it
Ġimprove ment
Ġth eo
Ġhosp ital
ĠS p
Ġsimpl er
y c
Ġconsider ate
Ġj u
Ġcr aft
Ġsign ific
Ġsc ar
Ġbr ick
Ġex h
Ġdisappoint ment
Ġwis ely
Ġt ens
tan ces
Ġimpact s
Ġapp le
Ġrespon d
Ġhab it
Ġthro at
Ġn et
Ġin t
Ġf ur
Ġdis ease
Ġarg u
Ġex istence
Ġexam ple
ĠI f
Ġh u
Ġsel ect
Ġfind s
Ġtre asures
Ġeng aging
Ġarri ve
Ġsur v
Ġres ol
ĠW or
Ġbl ood
Ġbusiness es
Ġval ues
Ġstrength en
Ġamaz ed
c ast
ck now
Ġfo g
Ġthrough out
Ġconfus ed
Ġsnee z
Ġc ow
Ġre pe
Ġne ck
Ġhop ed
ad ays
Ġnow adays
Ġunders tands
Ġbas ed
ĠS im
Ġstruct ure
Ġst age
Ġpi pe
Ġc ounts
Ġunw ise
Ġrelig ion
Ġrece ived
Ġsim p
Ġown ers
ĠFr esh
ast ed
f ast
Ġam id
Ġha mmer
en se
Ġpicn ics
Ġcarri age
Ġplan ting
Ġcle ver
se qu
Ġcharact ers
Ġsing le
Ġcon sequ
ĠA s
Ġfor k
Ġp age
Ġpr ison
Ġembr ace
Ġl ake
ir l
Ġeffect ive
Ġmess age
Ġsome where
Ġoper ation
Ġm other
Ġta ken
Ġf ishing
b age
is ter
Ġch oosing
Ġconsequ ences
Ġfamil iar
at ures
Ġgar bage
Ġinter act
Ġcor re
Ġst one
Ġun th
Ġbre aking
Ġpo ison
Ġbreak fast
os ity
Ġt eet
Ġk new
at ely
Ġ J
Ġmor nings
Ġ irr
Ġfa br
ash ion
Ġteet h
Ġw arning
Ġc ork
Ġl unch
am es
Ġpow der
ut ter
Ġex actly
Ġfil ms
Ġdisco very
Ġbehavi ors
bo dy
Ġwind ows
Ġbu gs
oun ter
Ġdistur bing
Ġch ase
Ġstamp s
Ġcalm ly
Ġcir cle
Ġsear ch
Ġinstru ment
ant ed
Ġbu cket
Ġsm iling
Ġs ister
Ġinsp ired
Ġse at
Ġd ance
Ġbut ton
Ġbas in
Ġdevelop ment
Ġst ores
Ġcur tain
ab ility
Ġch ain
ort h
Ġamus ement
Ġsn ake
Ġset ting
ĠS tr
Ġneg lect
Ġcomp ar
Ġseed s
Ġimpro ving
Ġtreat ed
Ġsignific ant
Ġw ave
Ġsee king
Ġapp les
dd y
ust ing
ĠN o
Ġauthor ity
Ġcar s
Ġp orter
Ġpay ment
Ġhy gi
Ġf aced
Ġst ate
Ġappear ance
Ġspe c
Ġwatch ed
Ġinsp iring
Ġab s
Ġspec ific
ĠO ur
Ġprot est
Ġtens ion
Ġcrowd ed
Ġfor ce
Ġspring time
Ġorgan ize
ĠT ea
Ġw asted
Ġm ot
Ġsyst ems
Ġup d
Ġcont rib
Ġresponsibil ities
Ġnum ber
Ġch arm
Ġjo bs
Ġmu ddy
Ġc all
Ġs on
Ġpl ays
Ġrem inder
Ġsho ck
Ġexperi enc
Ġappro val
ac king
Ġgr ain
g ies
at us
Ġact ing
Ġapp ar
Ġappar atus
Ġt end
Ġhygi ene
Ġpoor ly
Ġreason able
Ġafter ward
Ġbad ly
Ġcover ed
yc ling
Ġart ists
Ġg irl
Ġbegin nings
Ġda u
Ġout look
Ġreg ard
Ġpick ing
ead ing
Ġpriorit ize
Ġbranch es
Ġex ist
Ġfulf illing
er y
Ġto ng
Ġprin t
ten d
Ġdam aged
Ġg un
Ġreach ing
ĠPl aying
Ġfiel ds
Ġn orth
Ġadvertis ements
Ġ ent
Ġhelp ed
Ġatt em
ĠWor king
Ġv id
Ġarm y
Ġf ine
Ġfr ame
Ġown er
Ġac id
Ġinclud ing
u ild
ĠR eading
Ġf ant
b ack
Ġgri p
Ġtr ad
Ġm otivated
Ġlo ves
Ġrelax ation
Ġquiet er
Ġwe ak
it ching
Ġc ame
ri er
Ġpuzz ling
Ġappe aling
Ġno body
Ġprefer ences
Ġadvertis ement
Ġaccid ent
ĠH elp
ors es
ot ic
Ġreal ized
Ġc ows
app ed
i ent
Ġsk irt
s istant
Ġsuggest ions
Ġdau ghter
Ġa cknow
Ġfa il
Ġboo t
Ġmist ake
Ġdistract ions
Ġtre asure
ĠHelp ing
Ġenjoy s
Ġrem in
Ġknow s
Ġburden s
Ġtal es
ĠM us
Ġselect ion
Ġstop s
Ġf le
Ġsil ence
Ġcha otic
Ġinter rup
Ġgl ove
Ġopen ing
w ich
if ts
Ġtick et
Ġexp ens
Ġdistur b
Ġw om
Ġf ashion
ĠSim ple
Ġling ers
ig ate
Ġn ame
flect ion
Ġconc l
Ġpart ic
Ġn av
ĠMus ic
ĠC reat
Ġsmoo ther
Ġsand wich
Ġmyster ious
Ġbu d
as hing
ĠH e
Ġfe ed
Ġenter tain
Ġbud get
Ġcor ner
get ic
Ġlaw s
ĠC an
Ġend less
Ġm el
Ġpr es
Ġsh el
ĠK ind
Ġth um
l ife
ic y
Ġbr ains
Ġneed le
Ġtax es
Ġdo ct
Ġoutc ome
Ġthrill ing
Ġfight ing
Ġexerc ise
Ġremin ders
Ġm ass
Ġloud ly
o king
ĠS u
Ġhonest y
Ġexp ans
it her
Ġpre d
Ġw anting
Ġserv ant
Ġirr it
Ġk nee
Ġl ur
Ġign oring
Ġfant astic
en ing
Ġsecret ary
Ġcool er
Ġli p
Ġpo cket
Ġviol ence
Ġdet ail
Ġcut ting
Ġappreci ating
Ġobs erv
Ġle g
Ġto e
Ġspo iled
Ġro d
Ġlaugh ing
Ġexpans ion
Ġblow ing
Ġhob by
Ġp ushing
ĠSm all
it ness
Ġke pt
Ġg ain
Ġw itness
re p
Ġposit ion
un ning
Ġmo ves
w ay
Ġemotion al
Ġstret ching
Ġal arming
ĠSun shine
Ġconcl us
Ġme asure
Ġr ich
Ġmot ion
u le
ie f
ĠS pe
Ġcuri osity
l ict
Ġconf lict
Ġnut s
Ġst uff
ir d
Ġcold er
ic ation
Ġcor d
Ġgrow s
Ġfact ors
ch ar
c her
Ġsatisf ying
Ġnotic ing
Ġunw ind
Ġput ting
ĠSpe aking
Ġw ire
Ġpl astic
Ġrefresh ed
oo per
ĠKind ness
Ġen h
ies t
ĠAs sistant
Ġb oring
Ġre char
Ġlim its
Ġbro ke
Ġexh a
Ġf ills
ass ion
Ġsc en
Ġdr o
Ġbal anced
Ġfall s
Ġf ol
r ounds
Ġarg uments
y ond
Ġcat s
Ġruin ing
Ġrel i
Ġimpress ive
Ġbe yond
ess ert
Ġgroup s
pr o
Ġmem bers
Ġatt ack
Ġgreat er
Ġencour aging
ĠWh en
Ġrepair s
Ġfol ks
Ġsimp ly
Ġn ose
ĠRe flection
Ġb ase
Ġheav ily
Ġn erves
Ġegg s
Ġunth ought
Ġar ise
ĠSun ny
Ġs ell
Ġlur king
ĠO h
Ġe er
Ġannoy ed
Ġfil m
Ġtheo ry
Ġbeh ave
Ġdist rib
Ġtext ure
Ġd essert
Ġerr ors
Ġun iverse
Ġsched ule
Ġeer ie
are n
Ġdisrup t
ĠT ime
Ġwe ird
Ġch ief
ĠA fter
Ġstrong ly
Ġang rier
Ġprotect ing
Ġarri ves
Ġtr apped
Ġcompar ison
Ġnav igate
Ġimag es
Ġres pected
Ġvisit ors
Ġrec ycling
Ġs our
Ġtong ue
Ġdiscover ed
Ġbag s
Ġpred ict
Ġopin ion
Ġcomp assion
Ġcl utter
Ġrec ord
ĠSt ar
Ġtren ds
Ġocc as
Ġs ources
Ġcover ing
Ġinv ention
Ġrel ation
Ġfin an
Ġfl ies
Ġh un
os es
c oming
ct ions
Ġrechar ge
Ġunthought ful
ar ies
Ġh orses
Ġpass ing
Ġun it
Ġfold ing
Ġtechn iqu
Ġh ook
Ġtou ching
duc ing
er ving
Ġmus cles
Ġdistrib ution
Ġsa id
Ġnot es
Ġrece ive
Ġcop y
Ġen c
Ġri vers
Ġwall s
Ġargu ment
Ġener getic
Ġvis its
' re
ow ers
Ġr ush
it ive
isten ing
Ġattract ion
in ation
Ġenc ounter
Ġc ooper
Ġimpro ves
ĠI m
Ġpract icing
Ġroll ing
Ġattit ude
Ġburn ing
Ġdid n
Ġho l
Ġforgot ten
Ġde m
Ġhol id
Ġquiet ly
Ġst ones
ĠStar ting
ce ed
Ġcur ve
ĠO f
Ġupd ates
Ġsp illed
ĠL istening
Ġpeaceful ly
ĠTh inking
Ġbl ade
Ġsc ale
sib ly
Ġup coming
Ġdifficult ies
Ġbu ying
Ġfinan cial
Ġspo il
Ġtr ans
ĠP ain
Ġcompl ain
Ġst ri
Ġsupport ed
Ġresol ve
Ġsc ents
i ble
Ġfl ash
Ġsuffer ing
Ġwh ip
Ġju ice
Ġscen es
Ġef fic
d les
ĠCreat ing
Ġproduct ive
Ġsurv ive
el iness
af fic
Ġtr affic
Ġclim ate
Ġre place
Ġme ant
Ġsurf ace
Ġse x
Ġtravel ing
Ġsomet ime
Ġtea cher
Ġst itching
Ġadd ition
Ġletter s
Ġrisk y
Ġconsider ing
Ġ V
Ġreflect s
Ġcraft s
Ġexha usting
Ġfur ther
Ġsuc ceed
Ġreli able
Ġkind ly
Ġdri vers
Ġs erve
Ġrel ease
Ġsubs tances
Ġallow ing
Ġout ing
pper y
Ġr ise
Ġde g
ener y
Ġfor ms
Ġit self
Ġab ility
Ġbas ic
Ġsubs tance
Ġcapt ure
Ġf ell
ĠF acing
Ġvisit ed
Ġf ad
Ġmanag ing
Ġwas ting
Ġnegat ively
Ġend ing
Ġshad ow
Ġjewel s
Ġbl ows
Ġhur ting
Ġencour ages
Ġr ate
ed om
Ġopen s
Ġhonest ly
o g
ĠE ven
Ġsandwich es
Ġserv ices
ight s
Ġsli ppery
Ġg en
Ġmag ic
Ġfig ure
Ġplay ed
Ġagree ment
w ing
Ġphot os
Ġsleep ing
Ġmiss ed
r am
Ġcreep y
Ġstruct ures
Ġtechniqu es
Ġst e
Ġdep ends
Ġsad der
cour aging
Ġfre edom
Ġocc ur
Ġsp ills
Ġany way
Ġmove ment
Ġr ol
ĠP r
Ġwild life
Ġo d
Ġunapp reci
Ġpull ing
Ġdig ging
Ġstr ate
Ġp ile
Ġbothers ome
Ġmyster y
Ġfeed back
Ġtemper ature
Ġ verse
Ġschool s
ĠEvery one
ĠSp ending
ĠS w
ĠCh anging
Ġre v
Ġwom an
p ting
Ġmove ments
Ġmean ings
Ġun tr
ĠDo es
Ġgu id
Ġmotiv ation
Ġag o
Ġdisappoint ed
Ġin j
Ġcont ent
Ġst ains
Ġener g
ter s
Ġ z
Ġp aren
ĠN ot
Ġfore cast
Ġerr or
Ġvar iety
Ġc af
Ġun ch
Ġtast ed
Ġfing er
Ġsy m
Ġconc ert
Ġspread s
Ġlea f
other ed
Ġhurt ful
f ree
Ġeng aged
Ġunb othered
Ġunappreci ated
Ġcollect ion
Ġbab ies
Ġhelp less
Ġtend ency
Ġbl ock
Ġrepresent ative
Ġpr oud
ĠO ver
Ġamid st
Ġconclus ion
Ġe ither
Ġfin ally
Ġbr ake
Ġunex c
Ġfrustrat ions
om pl
Ġdis ag
Ġit em
Ġhum ans
Ġorgan izing
g round
ĠThank s
Ġjump ing
Ġp aying
Ġruin s
ĠM em
Ġmonkey s
Ġadd ed
ĠAn im
Ġsk ill
Ġspe ed
t les
Ġre ducing
ĠE ach
ĠPain ting
Ġsc enery
Ġpast a
Ġdis res
Ġbene fit
lic ts
it als
in ary
Ġn ails
Ġtrain ing
Ġattem pt
os sible
ĠEn joy
Ġdark est
Ġe c
Ġtreat ment
Ġn ail
Ġshop s
Ġenh ance
ĠMem ories
uild ing
ĠO p
Ġroo ts
Ġl ands
Ġweek s
Ġhigh er
i b
Ġt ense
Ġimp ossible
Ġdam p
Ġcru cial
Ġadjust ment
Ġre wards
Ġj ack
Ġabs olutely
el s
Ġto t
Ġuneas e
Ġdis pl
Ġreco ver
Ġtrans form
Ġres il
Ġconf licts
Ġfing ers
ĠOf ten
Ġsc ene
Ġfarm s
Ġcorre ctly
Ġflash light
Ġf est
l i
Ġperform ance
Ġposit ives
ĠAnim als
Ġsp orts
Ġb one
Ġhu ge
ĠTea ching
Ġdisag ree
il t
Ġinv ite
Ġany where
ĠF rien
Ġp iling
Ġcut e
Ġrub b
id ed
Ġat tend
Ġthum b
Ġfair ness
Ġfabr ic
r uments
Ġv ital
Ġlitter ing
act ion
Ġg ifts
Ġinst ruments
Ġover l
Ġw ings
Ġru de
Ġafter wards
Ġrid ing
o ver
c ri
app iness
Ġsm oking
Ġsur rounds
Ġf ridge
Ġfarm ers
Ġth reat
ĠPl an
i a
Ġrequ est
Ġunin ter
Ġdin ing
Ġstat ement
Ġprep aring
Ġfr ag
ess ion
Ġbo ats
Ġche cked
Ġcr aw
Ġprior ity
Ġincl ude
er im
Ġexp erim
Ġcount ries
b ol
Ġappear s
un ting
Ġy ard
Ġin no
Ġr ust
Ġmount ains
Ġopen ed
Ġsym bol
Ġhid es
Ġdel ay
ĠFrien ds
ĠPlan ning
Ġsal ad
ĠW ow
Ġdepend ing
Ġclean ed
Ġblank ets
ĠE ar
Ġvid eo
Ġsa ving
Ġun re
Ġdisres pect
ĠF l
Ġdoct or
Ġpap ers
Ġdeg ree
Ġbuild s
Ġcelebrat ions
Ġneed ing
omm un
Ġdire ctly
Ġjo kes
iv al
Ġb ike
Ġsay ing
Ġcustom er
Ġun aw
Ġst unning
Ġprog ram
Ġcon st
Ġtrip s
Ġsurprising ly
op s
i king
Ġsoo th
Ġconcern ed
Ġrubb ish
Ġchild hood
ic ed
Ġhosp itals
Ġprom ises
Ġsmall est
Ġcareless ly
Ġoverl ooked
Ġsh out
Ġregard ing
Ġmed ia
Ġrem ove
Ġtot ally
Ġaccident ally
Ġpot ential
ĠA ng
Ġst o
Ġlisten s
Ġp ack
ĠEar th
Ġsen ses
Ġrec omm
Ġsurf aces
l ish
Ġrol es
Ġfavor ites
Ġhand ling
ĠOver all
Ġrecomm end
Ġr ic
ĠL au
Ġg ift
m iss
ĠSu pp
Ġric her
Ġreflect ive
Ġre ve
Ġem er
Ġsooth e
or gan
ĠAng er
Ġplan es
Ġgu ard
Ġrespon se
Ġas s
Ã ©
ĠS e
Ġch air
ĠR ain
t ed
il ities
Ġad m
Ġsneez ing
Ġcontin ues
orm s
Ġtw ists
ell ing
Ġsatisf action
Ġneigh b
Ġsli pping
Ġgl o
ĠC ommun
am il
Ġdress ing
Ġobserv ation
h oods
Ġworld s
d inary
Ġb ound
Ġw oods
Ġsen s
Ġor dinary
Ġexpert s
Ġal right
Ġmus cle
Ġd iet
Ġtext ures
Ġo b
Ġc ities
Ġm ale
Ġop t
Ġold er
Ġsurround ed
Ġcelebrat ing
ĠCh anges
Ġfor est
ĠF or
Ġcr af
Ġwould n
Ġunb al
Ġt im
Ġlon eliness
d rat
Ġd re
Ġinteract ions
Ġr are
Ġbound aries
Ġtight ly
Ġcaf Ã©
Ġt ang
Ġrep ort
Ġcraf ting
at hy
Ġconsider ed
Ġs ort
Ġsc are
ĠB uilding
Ġdem and
ud es
Ġjoin ing
Ġli kes
Ġappreci ation
Ġtas ting
Ġdro pped
Ġcollect ing
Ġuninter esting
Ġ gh
Ġgh ost
Ġweek ends
Ġjudg ment
Ġclos ed
Ġchat s
Ġco vers
Ġab ilities
ir ation
Ġrequ ire
Ġparen ts
organ ized
ad ows
Ġn erve
ct ive
Ġhy drat
Ġmo ved
Ġme asures
Ġflag s
Ġunbal anced
Ġh it
Ġsty lish
h e
un d
Ġun ited
Ġfew er
Ġunaw are
g es
Ġlike d
Ġlast s
m on
o ing
Ġsu bjects
Ġany time
Ġfle x
Ġflo ating
ĠA r
Ġneighb ors
Ġcir cles
Ġsh orter
Ġdec ided
Ġch ill
Ġout fit
Ġfrag ile
Ġemp athy
Ġattit udes
Ġun pro
Ġteacher s
Ġra ising
Ġcharact er
Ġthem es
ter m
Ġroo t
Ġprob ably
Ġgr ab
Ġac cess
est y
Ġreturn s
Ġgood by
Ġdre ary
Ġp air
Ġwonder ing
ĠA re
et ting
Ġunexc iting
or ation
ĠL ooking
ĠG reat
Ġlim ited
Ġstrate gies
Ġl ines
Ġw ounds
Ġconstant ly
Ġb at
Ġinse ct
Ġembr acing
Ġf urn
Ġsignificant ly
amil iar
Ġg est
os ed
Ġimagin ing
Ġneighbor hoods
Ġb ar
is y
Ġtemper atures
Ġs ides
it ure
Ġfurn iture
b all
Ġda unting
Ġoverc oming
Ġlow er
l ines
o ll
Ġnow here
Ġmix ing
Ġloc ked
ĠCh e
Ġto ld
ort hy
Ġequ ally
Ġexperienc ing
Ġsec ur
Ġsci ent
Ġthrow ing
Ġlet s
Ġinc redi
at er
Ġun ful
fl ies
Ġdes cri
ĠEnjoy ing
Ġunf amiliar
Ġsc re
Ġfl uff
Ġinst in
Ġb ridge
Ġb es
Ġst eep
Ġunful f
Ġno isy
ut es
Ġgr anted
Ġr acing
Ġmo der
Ġfrequ ently
Ġt esting
Ġt ests
amp les
at ives
Ġun ity
Ġex amples
ves t
Ġl ay
Ġsad ly
ĠC l
dd ing
Ġfe atures
Ġrid es
Ġacknow ledge
Ġexpens ive
Ġpartic ip
Ġhydrat ed
Ġfun ction
Ġappreci ated
ent al
Ġavoid ing
ĠN ow
Ġcult ure
Ġsol ving
Ġhop eless
Ġmyster ies
Ġrestaurant s
f ession
Ġprotect ion
Ġb ins
Ġprogram s
Ġbirth day
Ġcelebrat ion
Ġr ats
Ġstand ing
to gether
Ġsh ips
Ġjack et
Ġdispl ay
rep ared
Ġflow ing
Ġtw o
old ing
Ġtrad itions
Ġfluff y
Ġbrighten ing
Ġph one
Ġrev iew
Ġas pect
Ġim age
Ġmotiv ate
m y
Ġv ary
Ġrep orts
Ġinsp iration
Ġs qu
Ġh ous
Ġirrit ating
ĠC aring
Ġd ed
iz es
Ġquick er
onnect ed
Ġreflect ions
Ġunw anted
Ġd iverse
Ġtogether ness
Ġboo ts
Ġcar ds
Ġa im
Ġst ir
Ġart work
Ġorganiz ations
ĠSh adows
Ġt un
b les
Ġwa ke
Ġreg ain
Ġh ats
ĠE duc
Ġart ist
Ġmanag ement
o c
Ġshow ed
Ġm ention
it ude
Ġbe ings
Ġfresh ness
al ked
ĠCh oosing
Ġpoin ts
ĠH appiness
ber ries
Ġsurround ing
Ġsw e
Ġhead s
Ġemer g
Ġh iking
Ġdes ires
e ases
ĠG arden
Ġflight s
Ġexerc ises
Ġsecur ity
ĠW arm
Ġbl ocking
Ġread ers
Ġs ore
b ts
Ġdel i
ĠB aking
Ġgoodby e
Ġdescri be
iz z
Ġweigh ing
Ġw ires
ĠAr t
Ġtang led
r inking
Ġdrain ing
Ġr ays
Ġcomb in
im ming
Ġprep ar
z ing
Ġtri es
Ġguid ance
um my
Ġsh ore
Ġhigh light
Ġunp repared
und ry
Ġ vers
Ġpay ments
Ġd ancing
Ġlov ing
Ġoccas ions
ĠM o
Ġwind y
Ġsw ay
Ġspong es
Ġcontrib ute
Ġfin ances
Ġnut r
u g
Ġaf f
Ġins ights
ĠH olding
Ġinvol ve
Ġle mon
Ġla undry
Ġknot s
Ġwonderful ly
af f
Ġde v
Ġa ud
ir ts
if y
Ġal together
ish ed
Ġli es
Ġdraw ings
ĠIm ag
Ġtravel s
Ġattract ions
Ġbutter flies
Ġch ores
Ġr ot
Ġpro fits
ag ement
Ġen r
ĠA t
Ġstud y
Ġstick ing
Ġhous es
Ġenerg ized
Ġend ed
Ġreceip ts
Ġexperienc ed
ĠSupp orting
Ġaff ord
Ġsh aking
Ġopt ion
m p
Ġcr oss
Ġc ooked
Ġdr ag
Ġman ners
Ġbra very
Ġwat ers
Ġste pping
iss ing
Ġw ing
Ġcor ners
ĠD rinking
Ġself ish
Ġover sh
Ġun not
Ġmaintain ing
Ġless on
Ġstr ang
Ġs ays
ot s
Ġclear s
Ġso fter
Ġd im
ĠDo gs
ant s
Ġmouth s
Ġwor n
Ġfollow ing
Ġeffic i
uri es
Ġhapp iest
ur t
Ġdis eases
Ġfrustrat es
Ġclim b
Ġw arn
Ġher bs
Ġod ors
ĠFl owers
Ġpol ishing
Ġun ending
ip es
Ġlaugh ed
ost al
Ġst ub
iv en
r oom
Ġunch anging
rat itude
d ing
Ġthr own
Ġprov ides
Ġexperim ent
Ġaspect s
Ġtell s
Ġle gs
izz a
as ed
Ġout fits
Ġrespon sibly
Ġill ness
Ġw alked
Ġor anges
Ġrain ing
Ġsho cked
Ġsweet ness
Ġplay time
Ġunf old
Ġf os
Ġbon es
Ġthank ful
Ġn ames
Ġun ite
ore d
ĠM issing
Ġwarm s
Ġclim bing
Ġcan dles
Ġmetho d
Ġunnot iced
Ġv ast
Ġcons um
Ġflo at
Ġgr ace
Ġincredi ble
us e
Ġp ud
ĠF ood
Ġstea ming
Ġtired ness
pr ing
ĠTr ust
Ġtren d
ĠSw imming
un k
Ġwill ing
ĠOp en
d ges
Ġdis miss
Ġp ipes
p ts
ĠS pring
art ed
Ġadjust ments
Ġglo ves
Ġeng ines
Ġrub bing
Ġis ol
ese ar
Ġt ied
Ġy ummy
Ġharm s
t ains
ed s
ou der
Ġl ouder
Ġstomach s
Ġro ck
Ġcreat ed
Ġmoder n
Ġsp ices
led ging
Ġeng age
Ġinj uries
Ġhur ry
Ġinflu ences
Ġinclud ed
Ġb ands
Ġag e
Ġsupp osed
he arted
Ġholid ay
Ġgen u
g est
Ġc akes
Ġsimpl est
Ġhun g
ĠC ol
Ġlong ing
Ġshel ves
re ed
ck ets
Ġball o
Ġdis as
Ġpur ch
Ġpropert ies
ĠCommun ication
Ġdistract ing
er ing
Ġbu ilt
Ġt ack
Ġw an
Ġg all
Ġbu b
ĠLau ghter
Ġun able
ĠIs n
Ġcur tains
ĠC ats
Ġacc ompl
Ġresil ience
ĠD is
Ġscar es
Ġsc ent
Ġcraw ling
Ġconst ruction
Ġwork place
Ġscient ists
c u
Ġun ke
ĠSe eing
Ġinstin cts
Ġhe ight
Ġcooper ate
Ġstick s
Ġp ause
Ġr ushing
Ġpoint less
Ġded ication
ĠLet ting
Ġflex ible
Ġexpect ing
Ġfill ing
Ġreve al
c are
Ġw ore
Ġoce ans
Ġcare free
Ġexpens es
Ġtal ent
Ġhung ry
Ġrem ains
Ġpass ion
Ġun l
Ġnum bers
ac ked
Ġstr aw
al es
Ġdisrespect ful
Ġwr it
ĠPr act
Ġobs erve
Ġ ur
Ġob st
Ġbene ath
Ġwaste ful
al ities
du ctive
Ġinsp ires
o d
Ġ Q
Ġobst ac
Ġp ool
Ġsh all
Ġst ock
ĠW ishing
Ġh ill
ad ow
Ġplay ground
Ġs ust
Ġscar ier
Ġinterest ed
Ġg ave
Ġshel ter
Ġto ast
Ġst able
Ġho les
Ġcomfort s
Ġwan der
Ġunpro ductive
Ġp izza
Ġreview s
Ġcreat ions
Ġdr am
Ġpres ence
Ġreco very
Ġrepe ating
Ġfabr ics
Ġb ri
Ġz oo
Ġsust ain
Ġma d
Ġpresent ation
oin t
Ġshould ers
Ġbrighten ed
im y
Ġsens itive
Ġsour ce
Ġoversh adow
Ġneglect ed
fession al
Ġpass ed
Ġbes ides
c ap
ĠTo day
Ġfos ter
Ġqu alities
ĠS n
ĠS ad
Ġcr it
Ġin vest
ĠSt ories
ĠAn d
w orthy
Ġconc ent
Ġcareless ness
Ġimpul ses
Ġcontrib ut
Ġforget ting
ele v
Ġr esear
Ġstud ies
Ġnut ri
ic ally
Ġst aff
Ġobstac les
Ġcush ions
ĠC lear
Ġcorre ct
Ġm elt
ĠH appy
Ġad ults
ĠC onnect
Ġunfair ly
Ġbal ancing
Ġfir es
Ġsoft ly
Ġsuccess ful
Ġsched ules
Ġp ests
Ġar ching
elev ision
Ġp our
ĠB ir
Ġj unk
Ġbu ds
d ly
Ġt elevision
ĠA g
Ġtail s
Ġp ages
qu ality
Ġde als
Ġstand ards
Ġinvol ves
Ġcon ven
t ings
Ġnutri ents
Ġbig gest
Ġview ers
ĠEduc ation
Ġenr ich
Ġpati ents
Ġsatisf ied
Ġstri ve
Ġlangu ages
r ap
Ġthought less
Ġper ce
Ġrecogn ition
Ġcr ops
co gn
a ight
i der
ir ely
Ġstr aight
Ġent irely
Ġadm ire
Ġem pt
Ġdire ctions
Ġaud ience
Ġmark s
Ġh ang
m pt
Ġgl ow
Ġstrength s
Ġdisrup ts
Ġse ver
Ġsp l
Ġgu ests
t ies
ĠA l
Ġunke mpt
as y
Ġacce pting
i pping
Ġsn ea
Ġreg ret
Ġun organized
Ġset tings
Ġfears ome
Ġbot tles
Ġfig ures
Ġdisagree ments
Ġpromot ing
Ġpl ates
Ġex ists
ul ner
Ġcapt uring
ar r
ĠStr ange
Ġh ass
Ġp eri
Ġv ulner
Ġtreat ing
Ġfad ing
Ġeven ings
Ġhu g
ĠThe ir
Ġlight ness
Ġtick ing
in ing
Ġdou bts
Ġunc over
Ġlight ning
Ġto es
Ġinno v
Ġmin utes
Ġsm el
ĠW orry
Ġwis er
Ġgest ures
Ġpass eng
Ġhass le
Ġg iven
Ġchar ge
ĠEn couraging
ĠQ u
Ġdis couraging
ĠV ery
Ġcont ain
Ġholid ays
Ġare n
Ġj oke
Ġunhe ard
Ġprov iding
Ġtick ets
Ġpo ckets
Ġrest ore
Ġconsider ation
Ġslow er
Ġ ug
Ġvi b
Ġfl ames
Ġgenu ine
ĠT om
Ġsp ill
Ġprot ests
Ġimpress ion
Ġencour agement
Ġpaint ed
Ġcreep ing
Ġuncertain ties
Ġyour s
Ġbegin s
os y
Ġev ol
Ġincre asing
ĠChe cking
Ġg ratitude
Ġv an
Ġend ings
Ġre b
ĠS nee
Ġmo ld
Ġhum id
Ġrespon ses
Ġstud ying
Ġhabit ats
Ġdev ices
ĠG etting
Ġst ain
ĠB ad
et ing
Ġrun s
Ġeduc ate
Ġs ending
Ġprepar ation
Ġbrick s
Ġs tands
Ġtell ing
Ġsand cast
Ġs orrow
ad es
Ġec osy
ĠGarden ing
Ġecosy st
Ġout ings
Ġrespect ing
Ġset tle
er ies
ĠAg reed
Ġun n
Ġroom s
ĠPract icing
Ġug ly
Ġdistract ed
Ġse ats
ĠM ost
Ġgun s
Ġpull s
Ġbu mp
Ġunkind ness
Ġb ow
Ġoccas ion
h ic
Ġcat ching
Ġbake d
Ġso ld
Ġr aces
Ġdessert s
Ġkey s
Ġlisten ed
Ġeffici ently
Ġring ing
Ġvid eos
Ġcompan ions
Ġinterrup tions
Ġcontribut ions
Ġapp oint
Ġmention ed
Ġrepe ated
Ġwhat ever
Ġb ills
Ġsa u
Ġfight s
Ġdelay ed
Ġhard ly
p h
Ġbus h
u ing
Ġempt iness
Ġsweet er
ĠN ew
rien dly
Ġbow l
Ġcor ds
Ġpress ing
Ġunfulf illed
o es
ast y
Ġimagin ed
Ġvessel s
Ġbl end
Ġbec ame
ĠP rep
Ġrot ten
ĠPrep aring
ip ment
Ġrelations hip
Ġcreep s
Ġpartic ular
Ġpasseng ers
Ġequ ipment
ĠSnee zing
or n
Ġvib es
ĠTom orrow
re es
Ġd ur
Ġhard est
Ġcomfort ably
Ġoffer ing
Ġshar es
Ġas ide
Ġr ates
Ġdis tr
Ġplay ers
Ġdecor ation
Ġsc ream
Ġrecogn ized
Ġprin ts
Ġrest less
Ġkitchen s
Ġrecogn izing
Ġwarn ings
Ġal tern
Ġlemon ade
Ġall er
ic ycle
Ġtouch es
Ġf ans
Ġb icycle
Ġreturn ing
Ġex cus
is ons
ri ving
Ġent ire
Ġcan dy
is ting
op ing
ĠWe ather
Ġlaugh s
Ġse wing
Ġentertain ing
es her
ĠStr ong
u ed
Ġfr esher
Ġfl our
Ġp ond
Ġatt ach
Ġli br
Ġpossibil ity
iff er
Ġcreat ure
ĠCh ild
Ġsupport s
ress ing
Ġ user
or ds
Ġtack le
Ġch ore
ĠO n
Ġmatch es
Ġcrow ds
Ġcooper ation
Ġthink s
af ety
Ġp ace
Ġwonder ed
ul pt
ĠO r
Ġdust y
is iting
ix ing
ĠS afety
Ġannoy ances
Ġsnow m
Ġlearn s
Ġn urt
Ġdri ves
Ġregard less
on om
Ġbeach es
st orm
Ġins tant
ĠImag ining
t elling
Ġsc ulpt
an ic
Ġs ink
ĠConnect ing
Ġw ag
Ġdes k
Ġche f
Ġg oods
ĠS ounds
Ġannoy s
Ġprocess es
Ġdead lines
Ġneed les
Ġdep th
Ġunfortun ately
Ġmo ist
Ġconcent rate
Ġexpl an
ĠBir ds
fl owers
Ġgu iding
lic ity
ad ing
az y
br ell
Ġmap s
Ġinc on
Ġweigh s
Ġeffic ient
Ġn asty
Ġo bject
Ġec onom
Ġstraw berries
Ġmus e
Ġcombin ations
ĠB l
Ġfarm ing
Ġs er
ĠR es
Ġri pp
Ġfor ming
Ġfair ly
Ġt ear
ĠD riving
Ġthan ks
Ġmis le
Ġcr unch
Ġel ect
ib ility
Ġvulner able
Ġf ence
Ġsh irts
ĠR esting
Ġlif esty
Ġthreat ening
Ġsick ness
e g
k ward
it ting
ĠD ark
Ġres ult
Ġstory telling
Ġdesign ed
Ġ um
Ġgross ed
Ġobs erving
Ġum brell
Ġev oke
Ġfin ishing
Ġresear ch
ĠW ashing
l s
Ġfest ival
Ġsl imy
Ġtw ice
Ġagree ments
Ġp ens
Ġse es
Ġcontr ast
Ġwe eds
Ġachieve ments
oo p
ind ed
Ġvi be
Ġkick ing
Ġst ability
Ġch ose
Ġmisunderstand ing
ell s
Ġput s
at ter
Ġaw kward
Ġbu zz
on f
Ġunfair ness
ĠWorry ing
Ġpri de
ĠMo ving
Ġmoon light
Ġcop ing
Ġsl ips
Ġmark ets
Ġdec iding
Ġm ental
Ġgr ime
m inded
Ġrepe at
Ġb an
Ġexerc ising
Ġun ready
Ġdisgust s
Ġnight time
Ġburn t
Ġgr ains
Ġarg ue
Ġal ike
app ing
ring ing
ch es
Ġad ap
fic ial
ĠC old
Ġuncomfort ably
Ġt ie
Ġmost ly
Ġs izes
ĠC omfort
Ġstat ements
Ġb oun
Ġburn ed
Ġargu ing
ĠP os
ĠO ld
Ġcherish ed
Ġpu pp
k y
Ġch alking
Ġwarm ly
Ġrec ords
Ġb oss
ĠJ ust
Ġjudg ed
Ġre pl
ĠA dding
Ġentertain ment
Ġconf r
Ġpic ked
ci es
Ġrem ark
it iz
Ġun like
Ġpud dles
Ġpl ain
Ġcatch es
Ġtem por
Ġmel ting
ĠChild ren
Ġsurv ival
Ġk ites
ĠC ertain
Ġluck y
ick ing
ĠE m
Ġpaint ings
d ays
Ġrel ate
Ġcut s
Ġfl ood
Ġapproach es
Ġshad es
ist ic
ĠSh e
o vers
Ġple asing
Ġcry ing
Ġlibr ary
Ġf its
pl an
Ġcomb ination
Ġcan c
ist ent
g le
Ġtheo ries
Ġar ms
Ġbelie ving
Ġdistract ion
Ġint entions
Ġlands cape
Ġgr own
Ġafford able
Ġfulf illed
an ag
Ġperform ances
is ed
Ġunknown s
Ġpump ing
ent y
Ġbene ficial
Ġgall ery
ten ance
Ġamus ing
Ġaccept able
Ġlo cking
i vers
en cies
Ġhand led
Ġlinger ing
Ġacknow ledging
Ġbear able
Ġcomm ents
gg y
Ġimpro ved
Ġdoct ors
th ink
Ġreal izing
Ġcompet itions
Ġoper ations
ĠF un
Ġunm anag
Ġprior ities
Ġunmanag eable
Ġem b
Ġuntr ust
Ġl acking
Ġwish es
Ġrec ycle
Ġint im
Ġur g
ĠH oping
Ġunkind ly
Ġcoll ab
Ġsto pped
up s
Ġbush es
arr ass
iffer ent
Ġtri gg
ĠSt orms
Ġcommit ment
Ġcollar s
ĠRes pect
ow er
ĠV isiting
Ġcom ed
Ġpot s
ĠB ringing
Ġrec onnect
Ġright s
Ġwheel s
Ġw ishing
ĠC om
Ġpart ies
Ġemb arrass
Ġelect r
Ġm en
Ġd ut
Ġp ill
et ter
Ġh oney
Ġch ick
Ġexpl oration
Ġjour n
Ġghost s
en ess
Ġadv ance
Ġjoyful ly
Ġattach ed
et her
Ġmain tenance
w alk
Ġex t
Ġthr ows
ĠP ol
ĠB etter
Ġobserv ations
f or
Ġlip s
Ġreb uild
Ġun res
Ġbit es
Ġmed ic
Ġwh ether
a im
Ġk ite
Ġtempor ary
Ġcreat ively
id ent
ĠW anting
Ġattem pts
Ġsupp ly
Ġhorn s
Ġtruth s
Ġguess ing
Ġclass ic
Ġtun es
Ġbub bles
Ġsp r
Ġyoung er
ind ful
ur ally
or age
co ver
Ġdet er
Ġst orage
Ġr ings
Ġcher ishing
Ġdrop s
Ġconven ience
ĠB y
Ġco ins
Ġclass es
w or
ed ed
Ġsneez ed
Ġsto pping
ĠWe aring
Ġmess iness
Ġbr ands
Ġrequ ests
Ġve hic
Ġc itiz
Ġnat urally
Ġpract ical
Ġbit s
Ġharm less
ĠHe aring
Ġsh akes
Ġbloom s
Ġleft overs
Ġt ire
Ġstr ict
Ġunset tle
Ġexcus es
Ġballo on
Ġbe es
Ġfut ures
Ġstay ed
Ġrelig ions
Ġinno c
Ġaltern atives
Ġuntrust worthy
Ġst ems
Ġfa v
Ġincre ases
Ġju icy
Ġext re
ĠM eet
Ġunt ie
Ġunl ock
Ġtea ms
med i
Ġbudget s
Ġtw isting
Ġd ial
Ġim medi
Ġfin al
Ġrain b
Ġpour ing
Ġs erving
Ġcrack s
Ġaller gies
Ġun af
ur y
Ġag es
Ġwish ed
is p
ĠR unning
Ġsustain able
Ġcitiz ens
Ġaw a
Ġgr oc
Ġenvironment al
Ġtrust ed
Ġbat tle
Ġfav our
Ġdro pping
Ġst eady
Ġpre tend
Ġla b
wh ile
Ġdial og
ight ly
Ġsymbol ize
o ds
ĠC o
ĠSw eet
Ġperi ods
Ġdistr ess
Ġcanc el
Ġcup s
Ġfail s
Ġe ag
il s
uck y
pp ings
ak ers
Ġcar ries
ĠB oth
Ġemerg encies
Ġban an
uck s
ĠSu ch
Ġclean up
Ġmanag ed
Ġjourn al
Ġworth while
b ook
Ġun se
Ġcl aim
Ġexh ib
Ġstrength ens
Ġhor rible
Ġprom ise
Ġtrad ition
Ġscre en
Ġsandcast les
Ġsau ce
e f
Ġtouch ed
Ġfavour ite
Ġtough er
Ġannoy ance
g oing
Ġdis li
Ġfad es
Ġvers at
Ġsp in
if ting
Ġwork out
Ġwin ning
Ġsu bject
Ġnutr ition
Ġunf un
Ġharsh ly
Ġthum bs
ĠA d
Ġsoon er
ĠRe g
Ġb en
Ġd ent
Ġground ed
Ġswe at
Ġc amp
id ence
Ġstr oll
Ġres ist
Ġwell being
Ġfoot ball
ac y
gi a
ostal gia
Ġsal es
Ġstretch es
g ic
Ġbr av
Ġod or
Ġmisle ading
Ġsmash ed
val ued
re aking
Ġcream y
Ġbrav ely
Ġn oses
Ġin ner
Ġpro fessional
Ġfix es
Ġh es
Ġopportun ity
Ġre new
Ġsh ifts
Ġunaf raid
re g
v ings
ĠW ill
orm al
Ġprotect ed
Ġha un
Ġshout ing
Ġrec all
Ġpos sibly
Ġharm ing
Ġunb right
Ġintim id
Ġscre ens
Ġdisas ters
Ġsa ke
Ġhow ling
p tance
id ents
Ġbo ld
Ġfall en
as p
in ter
Ġcr acking
Ġresil ient
Ġeag er
ble d
Ġlat est
Ġpencil s
Ġremark able
Ġunre cogn
ĠD ifferent
Ġwas n
Ġsever al
Ġintimid ating
c orn
Ġlight ing
Ġon going
f riendly
Ġside walk
Ġsuccess es
w arming
Ġsweet s
anc y
Ġas ked
Ġsa vings
ĠM ist
Ġparticip ate
Ġappoint ment
Ġc ounter
Ġacc ur
Ġtravel ers
Ġumbrell a
Ġview p
Ġmet als
ĠG oing
Ġsp icy
Ġun tan
Ġche w
w hat
Ġroof s
Ġtrigg er
Ġgr and
Ġwa king
Ġtrouble d
Ġto w
ĠD ressing
Ġdis reg
Ġheart warming
Ġpolit ics
Ġhe ated
Ġdeli ver
Ġroll s
ĠSad ness
Ġhumid ity
Ġcan dle
Ġch em
Ġv ivid
Ġunf or
Ġfle eting
Ġsome what
Ġmon ster
our s
sw eet
Ġdisreg ard
Ġsun flowers
Ġpurp oses
Ġlifesty le
Ġbit ing
Ġv ol
Ġquiet ness
Ġliqu ids
ĠMist akes
Ġmuse um
Ġversat ile
ic ies
Ġtal ents
Ġpol icies
Ġdecor ating
Ġunsettle d
Ġspark le
ĠH on
Ġgr ad
Ġinv ade
ĠS leep
Ġclutter ed
Ġones elf
Ġw id
Ġdiscuss ed
Ġser ved
Ġc y
Ġor ig
ĠS ci
Ġlea king
og rap
ĠOp ening
Ġcrunch y
Ġbuzz ing
Ġflour ish
Ġappe aring
Ġrece iving
Ġs us
Ġbitter sweet
Ġburn s
Ġc ou
Ġd ucks
Ġhe ights
Ġam ounts
Ġflow s
Ġf ond
oin ing
Ġdisc onnected
ĠJ oining
Ġw ider
Ġm end
Ġjewel ry
Ġsneez es
Ġmel od
i ers
Ġy ucky
bor n
Ġprodu ction
Ġcy cles
Ġpop corn
Ġrock s
Ġinnoc ent
Ġb are
Ġso f
Ġjud ging
Ġapp et
Ġpin ning
c ed
Ġp a
Ġover head
Ġlea ks
Ġdent ist
Ġso aking
Ġr ises
Ġappear ances
Ġshap ed
Ġdeli very
Ġinj ury
Ġstock ings
v able
w ise
en ed
Ġdiet s
Ġmelod ies
Ġrelie ve
Ġwound ed
Ġbegin ning
Ġcrush ed
Ġbe at
Ġp e
Ġcomp are
Ġperson ality
Ġdialog ue
ĠE ng
Ġphot ograp
Ġmedic ine
Ġsus p
Ġto ppings
Ġjump y
Ġmel ts
Ġs ipping
Ġb end
al f
Ġe ch
ly ing
Ġsimp licity
Ġcl osing
Ġunm indful
ĠSun light
Ġchick en
Ġdis p
Ġcur ves
r or
Ġsqu irr
Ġarri ved
Ġre ass
Ġrel ated
Ġspark s
ar ter
ri g
ĠL oud
Ġdecor ate
Ġco at
Ġbr own
Ġcomf y
Ġcross ed
ĠSn akes
ĠTh under
Ġh its
ĠStr ess
Ġdeter m
Ġemerg ency
Ġripp le
Ġfl ick
Ġm as
Ġexpress ion
ĠSt ill
cap es
ĠPos itive
Ġsunset s
be at
Ġspeci es
Ġcr um
Ġisol ated
Ġappet ite
Ġb le
Ġre think
Ġpre c
Ġunt idy
Ġshap ing
Ġwrit ers
Ġart ic
Ġwash ed
u ms
Ġw oke
et e
ĠS ear
Ġsk illed
Ġel eg
Ġrepeated ly
Ġstub born
ĠSear ching
ĠL it
Ġmat ching
Ġproduct ivity
Ġb ark
Ġgood ness
ap id
az ing
Ġmisun ders
g ed
Ġextre me
ĠS ure
Ġbu g
ĠSt ret
Ġbanan as
it ious
Ġdisli kes
ĠD ra
Ġinstru ctions
Ġr apid
Ġwater ing
Ġsymbol s
ĠStret ching
el ines
ch ed
Ġf ancy
Ġtwist ed
t e
ĠDra wing
c ing
Ġfit ness
Ġhor ror
l o
Ġst ur
Ġr um
ĠR el
Ġint rig
Ġb ored
Ġdur able
Ġmisunders tood
ĠQu iet
Ġunrecogn ized
Ġset back
ĠCertain ly
Ġre du
ĠRe ally
Ġpush ed
Ġnutr itious
Ġhappen ings
Ġsw aying
Ġchef s
l ph
Ġfree ing
ĠSo ft
Ġbri dges
c y
Ġcaut ion
Ġwom en
Ġconfus e
Ġsmooth ies
Ġinterrup t
Ġsnowm en
Ġsm arter
Ġcr acked
Ġthri ving
Ġdec re
Ġcomplain ts
Ġdram a
Ġjump s
Ġb orrow
at ural
Ġwid ely
Ġhow ls
Ġharm ed
Ġple ase
Ġlif eless
Ġuntr ue
Ġfor ces
Ġlay er
t able
ĠW inter
Ġhit ting
Ġconfr ont
g rounds
u ch
Ġh ike
Ġsal ty
Ġentertain ed
Ġin put
Ġbr akes
Ġstart le
Ġspo ons
f ting
Ġgu ides
Ġsl ightly
Ġsalad s
Ġsc rat
Ġcart s
r oy
t ons
Ġback ground
Ġear s
Ġcruel ty
Ġattend ing
cu ment
Ġtem pting
Ġdest roy
Ġb in
Ġh el
Ġdr ains
pp ers
ĠOn ly
Ġawa it
Ġcr ash
ĠS il
Ġexperiment ing
atter ed
Ġpres ents
Ġparticular ly
Ġgrad ually
ĠI ce
Ġde f
Ġsnea k
i ans
ll ows
Ġother wise
Ġknow n
Ġlack s
Ġeconom y
Ġ icy
Ġbut tons
Ġens uring
Ġwork sp
Ġdisappear s
Ġc ast
Ġat e
Ġlin ing
Ġbox es
Ġfo llows
ĠPol ishing
Ġunfor get
ĠS ail
ĠP ets
Ġs ale
ce pt
Ġsell ing
Ġbel ow
Ġtim ing
Ġadvance ments
e es
Ġour s
Ġadvent ur
ĠO uch
Ġrush ed
Ġswe ater
Ġpurch ases
Ġs ent
Ġus eless
Ġpl enty
Ġv ac
Ġgrace fully
ĠMeet ing
Ġt ires
Ġflood ing
ĠReg ular
oin ts
Ġgre asy
Ġwag ging
Ġstur dy
Ġuser s
Ġcollab oration
Ġviewp oints
Ġwhere ver
Ġcor ks
Ġcarri ages
Ġunforget table
z es
Ġt ale
Ġbrain storm
Ġs ets
Ġun valued
ĠU s
l it
Ġcal led
Ġsm ashing
Ġintrig uing
Ġp iles
Ġdis tances
Ġra ises
ĠP ic
Ġh alf
Ġrout e
ĠEm ot
Ġch asing
Ġar r
Ġsound ed
Ġfest ive
ĠPic n
Ġdo cument
Ġcook s
Ġapproach ing
Ġspl ash
Ġunse en
Ġbo il
ump ing
Ġtrack s
w r
Ġco in
s ive
op es
Ġrepresent atives
m aking
Ġexch anges
Ġmoist ure
Ġexp and
Ġcow ork
Ġrust y
ic als
Ġpupp y
Ġsusp ense
Ġg ap
Ġday light
Ġthread s
i kes
is tance
Ġsold iers
Ġhel d
Ġeduc ating
Ġlay ers
Ġchem icals
un ders
Ġman ner
Ġloss es
ĠPicn ics
Ġb ak
im ate
Ġph ones
Ġup beat
Ġstill ness
Ġpoll ut
is ies
Ġm ult
Ġtast ier
Ġcollect ive
Ġmo d
Ġwarm ing
Ġtom at
Ġguid elines
Ġadventur ous
u gg
Ġm irr
Ġm ales
Ġweight s
ompl ete
ostal gic
pon sible
Ġadv ant
Ġlighten s
Ġres olut
Ġdri ft
Ġcall s
Ġass ist
b ling
Ġinflu enc
ri age
Ġback y
ĠWh ile
ĠEmot ions
a wn
Ġb ank
Ġcr ashing
Ġg aps
Ġk ne
Ġuplift ed
Ġredu ces
Ġlif et
Ġtear s
d om
ow ing
Ġboun ce
Ġgroc eries
c uments
Ġdo cuments
Ġauth ors
Ġattack s
Ġimmedi ately
Ġuntan gle
Ġindivid ual
Ġdest ination
Ġgr asp
Ġdevelop ments
Ġcheck s
Ġecosyst ems
u ly
Ġc en
Ġcalm s
ake d
Ġcour se
Ġburdens ome
lph ins
b al
ĠWould n
ivers ity
Ġ ut
urn ing
Ġe dges
Ġpl ot
ĠS ur
ag ious
Ġv ent
Ġcont agious
Ġlifet ime
Ġhow ever
ĠTea m
Ġel ements
Ġlands capes
ĠL on
Ġjudg ments
Ġirrit ation
Ġtight ness
Ġbother ed
ut ting
Ġisl ands
Ġinterrup ts
Ġexperim ents
Ġpurch ase
Ġpol ite
ĠLon eliness
Ġinstant ly
Ġhaun ted
Ġdr awn
ess ions
Ġemotion ally
Ġinter n
Ġunne eded
Ġc afe
oun ting
ĠC her
Ġleft over
Ġadap ting
m akers
Ġsculpt ures
Ġfrighten s
ĠHe aling
Ġmold y
um mer
Ġaddress ing
Ġhighlight s
Ġincon ven
for ward
ĠL ight
Ġref use
Ġdrain ed
Ġlab els
Ġan t
Ġp ul
Ġde b
ĠSail ing
Ġdeep en
Ġmus ical
Ġpush es
ĠD ust
ĠS ummer
Ġtown s
Ġpress ures
Ġdress ed
Ġvan ish
Ġnorm ally
Ġsmel ly
ĠTr uly
Ġstraight forward
Ġwe dding
Ġacce ptance
Ġstuff y
d own
Ġfriend lier
Ġcont act
Ġkne es
oy al
ĠH iding
ĠM om
Ġstat ue
ĠRain y
ri ers
ĠF ixing
ĠCh o
ĠMom ents
Ġbed time
Ġclaim s
Ġut ens
Ġv it
ach e
Ġcollect s
Ġmen u
Ġbar riers
i ant
Ġfearful ly
Ġty ing
ĠEng aging
Ġsu it
Ġsmel led
Ġun r
Ġtr ails
Ġlock s
Ġrainb ow
Ġcomp ut
Ġatt ic
Ġcrum bs
ĠS etting
Ġy og
Ġsc r
Ġinc omplete
Ġpolish ed
Ġphot o
Ġbacky ard
Ġun li
Ġexch anging
Ġporter s
Ġabs or
ĠCher ishing
unders t
Ġd iversity
Ġdown t
ĠTeam work
in al
ĠT rees
Ġtr a
Ġcompar isons
Ġvit am
Ġchea per
Ġkn ives
Ġworksp ace
Ġid ent
ĠHow ever
Ġopen ness
Ġeat en
Ġdream ing
gh ing
ld ing
Ġdut ies
Ġth ree
Ġmis pl
ĠLau ghing
Ġstrang ely
Ġpul led
Ġdownt own
ĠCom p
Ġme ch
Ġthem e
ĠIm pro
Ġunfold s
Ġsh eet
Ġfair er
Ġsoup s
ĠFo lding
Ġrecommend ations
Ġcol le
Ġbehavi our
Ġshut ting
Ġunn ormal
Ġelectr ic
Ġvehic les
Ġutens ils
Ġsh ifting
ĠAs king
Ġbe ds
Ġg ems
ĠC uri
Ġaccept ed
Ġbirth days
Ġclass room
ĠS c
Ġl oyal
Ġg ear
Ġtr ays
qu al
Ġbl ades
Ġsnow y
Ġunfulf illing
ot e
Ġconclus ions
ĠSci ence
Ġgest ure
Ġcen ter
Ġburden ed
Ġintern et
Ġevol ve
Ġstore d
Ġbath s
Ġl akes
Ġtreat ments
Ġoffer ed
Ġcraw l
pl oy
Ġlin ked
wor ks
Ġsp illing
Ġfa ke
Ġinv ent
Ġvalu ing
Ġp anic
Ġveget able
Ġa ds
ĠM on
ĠM ore
Ġgl ue
e xt
Ġe co
Ġma pping
Ġso ak
Ġsel ves
Ġdisas ter
ĠCuri osity
Ġst ove
Ġact ual
Ġem ploy
Ġda isies
Ġcons istent
Ġt ip
Ġsc attered
Ġcl ash
Ġneck s
c ons
at able
ell ent
ĠS itting
Ġsign als
Ġstrate gy
Ġnurt uring
ot ect
ĠS oup
Ġfollow ed
Ġforecast s
Ġcolle ag
b reaking
Ġtrust ing
bo ard
Ġcompanions hip
Ġpa id
Ġre us
Ġcr azy
Ġacc ounts
Ġthick er
Ġloc ation
m an
Ġd w
Ġdis organized
Ġplan ets
ĠTh ese
ĠF lying
ĠR est
Ġconsum e
er ful
Ġwin s
Ġspark ling
Ġpuzz le
Ġl y
ĠUn c
Ġunst able
Ġass istance
Ġch arming
ĠPer fect
Ġunder est
Ġcir cu
Ġl oses
Ġbrush es
Ġunth inking
Ġrust ling
ĠAl so
r ics
Ġrem ed
ĠC on
ĠN ostalgia
Ġachie ving
Ġleaders hip
Ġtra its
Ġfor ests
Ġemp ower
Ġwander ing
Ġsh own
ĠF am
Ġneat ly
Ġgreat est
Ġri pe
Ġconsum ers
Ġdram atic
Ġexplan ation
all ow
Ġwa ving
Ġsil ent
Ġbitter ness
ĠFam ily
Ġcheerful ness
Ġdig ital
Ġpill ows
ic ked
Ġfil th
Ġsmooth ie
ĠTr usting
Ġscar f
Ġso aked
ĠR ed
Ġdem ands
Ġsetback s
Ġsho ppers
Ġsnow ball
Ġincre ased
Ġj am
Ġmis use
Ġmar riage
ep end
ĠA c
ick y
Ġbl ame
ĠL iving
Ġfur ry
Ġsp oke
Ġrem o
Ġdisturb ed
Ġunch e
ĠOr gan
b ed
p tions
ep h
ack s
Ġvis ibility
Ġconst ru
Ġphys ically
Ġachieve ment
ĠHon esty
Ġly rics
Ġback up
Ġstart led
Ġstri kes
Ġmispl aced
Ġair p
Ġd ental
ĠImpro ving
Ġf u
Ġweigh ed
plan ned
Ġtr ap
Ġtight er
Ġpoll en
Ġecosyst em
Ġcomed y
Ġresolut ion
Ġsheet s
Ġsad d
Ġpriv acy
ĠJ oy
Ġprec aut
Ġexc ellent
ĠEn ding
Ġsadd est
m ade
es ents
Ġhe ating
ub bing
Ġadvant age
Ġc ases
Ġune qual
Ġresol ved
Ġaccompl ishment
Ġh ills
Ġdead line
Ġrepr esents
Ġgrace ful
Ġcircu ms
Ġth underst
Ġfun ctions
ĠEvery thing
Ġpuzz les
ri f
Ġfocus es
Ġtradition al
Ġpl aced
Ġta g
Ġwa ited
Ġdisappoint ments
miss ion
Ġunderest imate
lect ing
Ġapp li
Ġsoft ness
Ġcall ing
Ġunpredict ability
ĠSm iling
Ġfright ful
Ġhist ories
Ġjack ets
u ght
on ds
Ġun ener
Ġta ught
Ġsc ore
Ġconfid ently
press ing
ĠG l
Ġbak ery
Ġha ven
os ting
Ġrel atable
Ġreact ing
ĠBl ue
Ġprecaut ions
Ġsh ells
Ġpresent ed
Ġr ar
Ġbr ushing
all ing
Ġcircums tances
Ġn ostalgic
l et
Ġgen res
Ġunre al
at ience
ĠEx pressing
Ġvis ible
Ġreact s
ĠRespect ing
Ġt ies
ĠYes terday
th ough
iet ies
ĠSt itching
Ġrest ful
ci ent
Ġover ly
Ġlift ed
Ġign ores
Ġeducation al
Ġballo ons
lo ad
r op
Ġtru ck
Ġcr isp
Ġpleasant ly
ĠG row
Ġflo ors
re en
Ġunpredict ably
Ġsquirr els
p ing
eri a
Ġunc onnected
Ġpower less
Ġmindful ness
s ting
Ġsh y
Ġtong ues
Ġexplan ations
st y
Ġhon or
m ers
w ater
Ġwork load
cap ing
Ġh om
en ic
Ġter rif
Ġservant s
Ġinnov ation
c l
Ġb ending
Ġg iant
Ġal arm
Ġheart breaking
Ġstart ling
Ġback grounds
Ġthought fully
Ġnat ions
Ġhead ing
Ġsug ary
Ġl oop
Ġper mission
Ġfail ure
v ent
v ious
Ġto s
Ġmem ber
Ġjoin ed
Ġob vious
Ġresol ving
Ġeleg ant
Ġf ier
Ġp asting
Ġfr ames
ook s
Ġbl oss
Ġdraw ers
Ġcomput er
h us
Ġma il
ĠCol lecting
Ġun planned
Ġfa iling
Ġact ed
ĠB al
Ġquestion ing
ĠCho colate
Ġdeterm ination
h appy
Ġd ivid
ĠHe althy
Ġfond ly
n el
ĠS ending
ĠA cknow
ark s
Ġplant ed
Ġstrang ers
Ġaccompl ished
Ġinconven ient
i ders
Ġcould n
Ġpresent ing
Ġbath room
Ġsail ors
Ġdisappe aring
Ġunche erful
Ġcon ce
Ġbus es
ĠDe ep
Ġind epend
Ġpersonal ities
Ġfest iv
Ġso ar
Ġco z
ain ing
Ġmirr or
n ier
Ġsaf est
Ġz ones
hus i
Ġl azy
Ġendless ly
Ġdisagree ment
b ly
Ġan cient
Ġspoil s
Ġdecre ase
Ġpl um
Ġthou s
Ġcomfort ed
Ġprom ised
key s
Ġnurt ure
Ġunli kely
Ġconce pts
a ves
Ġeas ing
Ġdirt iness
Ġdistress ing
h and
ad get
ĠH um
Ġexpress ions
Ġmother s
Ġcrit ical
in form
Ġc ap
Ġe arn
Ġg adget
Ġunc onf
Ġembarrass ed
ĠMon keys
Ġdo lphins
Ġr an
um e
ĠL ast
' ve
ĠC ould
Ġrelie ved
Ġaccur ate
Ġvitam ins
Ġlearn ers
ĠPl ants
ĠJ umping
Ġdrag ging
Ġfoster ing
Ġt en
Ġlisten ers
o cked
Ġsh ak
Ġad orable
Ġprotect ive
ĠSt icky
Ġpet als
Ġurg ent
ĠA ut
Ġsl opes
ĠB ooks
Ġwis dom
Ġirr es
Ġfa ith
ĠC ar
Ġrespect fully
anc akes
Ġbree zes
Ġfit ting
cover ing
ul ations
wr acking
Ġto ne
Ġfor ks
Ġsk irts
Ġcover age
Ġwar s
Ġunexc ited
Ġstain ed
Ġscrat ch
et ry
Ġal though
Ġappli ances
it ar
ĠM ixing
Ġreward ed
ĠK now
Ġter m
Ġcough s
Ġunn atural
ĠW ool
Ġcommunic ating
Ġdam aging
ĠSn acks
Ġunconf ident
Ġp iled
Ġunw orthy
Ġtrain ed
Ġthreat ened
ĠCol or
Ġoil s
Ġrhyth ms
Ġacknow led
Ġben ch
ĠAcknow ledging
c atching
Ġspark les
Ġcancel ed
is m
Ġach e
Ġsort ed
Ġn ets
ĠC otton
Ġwr app
oup les
ĠH ot
Ġbr and
em ade
ĠL ocking
Ġenrich es
Ġsun r
Ġdesign ers
Ġs erves
Ġgr ap
ĠB reat
Ġadv oc
Ġcomplain ing
Ġgrand m
Ġche es
ĠC onf
Ġvar ied
Ġgre ed
Ġsleep y
Ġthoughtful ness
ĠClean liness
Ġunpro fessional
Ġn ap
Ġslow ing
Ġterrif ying
Ġt ends
Ġc ouples
Ġst ood
ĠS at
Ġta bles
Ġposit ions
Ġfru ity
Ġcapt iv
Ġhes it
ĠBreat hing
ĠD ancing
Ġtall er
ĠFeel ings
Ġgar age
ĠM apping
Ġsk ip
Ġgu itar
Ġball s
Ġsmell ing
ĠTr avel
Ġrout es
Ġchair s
Ġpollut ed
Ġingredi ent
ĠGl oom
Ġro b
Ġcough ing
Ġsculpt ure
om s
ĠB o
Ġoven s
ful ness
Ġavoid ed
Ġcountry side
Ġgold en
Ġflex ibility
Ġmech anic
ĠUnc ertain
b elie
et h
Ġsun nier
oll ing
Ġrar ely
ĠD ream
Ġafterno ons
Ġpres erving
Ġarr ange
ĠSat ur
ĠGloom y
Ġs its
Ġcr ushing
less ly
Ġenerg izing
Ġble w
ĠSur pris
i an
Ġch ip
Ġmin or
Ġtest ed
Ġsuccess fully
Ġhuman ity
Ġcompassion ate
Ġinclud es
ĠMo v
Ġt ur
oo s
ĠD on
Ġfo ggy
Ġsw ing
Ġcloth s
Ġjump ed
Ġorder ed
Ġr oses
Ġbudget ing
Ġdec ides
sider ate
ĠBal ancing
ĠW ater
Ġbes ide
r ance
Ġmess ed
Ġburst s
Ġt id
Ġday time
ĠFriends hips
Ġcol ours
Ġw elf
Ġel eph
Ġemploy ees
Ġwelf are
Ġpass ions
Ġcult ural
ĠSatur day
un te
Ġsa vor
Ġhand y
Ġperce ive
f ly
Ġwh is
ot ally
ĠT otally
ĠW ho
Ġarch ite
r ops
Ġc ere
Ġh ello
Ġp ink
ĠY et
Ġso d
Ġunus ed
Ġgain ing
Ġli e
Ġoverwhel m
Ġvis ion
Ġlim iting
Ġbutter fly
ĠMov ies
s c
w are
Ġcold ness
Ġdispl ays
Ġthreat s
ĠSupp ort
Ġtim ely
pr ove
dd ings
Ġfilm makers
Ġcoz ier
Ġwe ddings
Ġsw ings
Ġindust ries
Ġupd ated
Ġartist ic
l asting
Ġun g
Ġprom ising
Ġcapt ures
Ġattend ed
Ġmonster s
Ġb ikes
Ġen light
Ġenh ances
Ġcowork ers
inform ation
Ġfind ings
Ġwin es
Ġcomplex ity
Ġra ind
Ġstri king
Ġc ounting
oo th
ĠH orses
ĠC ows
Ġhun d
Ġp ancakes
Ġch ills
ĠB er
pt ion
Ġfestiv als
i o
Ġsli pped
Ġheight en
ĠUncertain ty
Ġp eel
ves ting
Ġgl ance
Ġair plan
Ġhang s
ĠUs er
Ġairp ort
Ġhom emade
a ising
Ġwr ap
Ġexplore d
Ġunh appiness
Ġech o
e en
on der
Ġp ort
ut s
Ġv et
Ġpos t
ĠRe cogn
Ġgener ally
Ġbelong ing
Ġcou ch
ĠOrgan izing
Ġraind rops
o ken
le x
ĠLe ather
ĠSm oking
ĠAd vent
Ġvol unte
ĠAc ce
e x
Ġair lines
Ġins ight
Ġbri ef
Ġorig inal
Ġsod a
g ress
Ġfe ather
Ġun ac
ĠT esting
Ġso ggy
ĠBright er
h ill
le y
Ġbe ats
os al
Ġor ders
Ġback s
Ġmat h
Ġrec yc
Ġrest r
Ġboost s
Ġthoughtless ly
Ġn ests
os en
ĠR aising
Ġappe al
Ġsearch ed
Ġincon siderate
Ġs ou
Ġremember ed
Ġvast ness
Ġhealth care
Ġtick s
Ġcamer as
Ġdemand ing
ĠRel ax
ing e
Ġsign al
Ġtechnolo gies
Ġaffect ion
ĠP ro
Ġnotic eable
Ġfle w
Ġdeg rees
Ġche wing
ĠDis covering
Ġartic le
ĠLit tle
ĠP atience
Ġfam ous
Ġharmon ious
Ġimpress ions
Ġenlight ening
Ġse as
Ġwr ote
ĠPl anting
cc er
hy gi
Ġshow er
aw s
belie f
hygi enic
ĠM oney
Ġlight hearted
Ġmis information
Ġcook ie
ĠO ut
Ġmin ing
Ġspin ning
ir ty
all s
Ġinc ident
Ġarri ving
Ġchees es
ĠP o
Ġsl ice
Ġcost ly
Ġn est
Ġun at
Ġappe ared
Ġfoolish ly
Ġperce ptions
Ġun pr
Ġch osen
ĠM ess
Ġrol led
Ġtun e
Ġcrit ically
Ġs ip
Ġd ate
Ġst ale
Ġwilling ness
ĠColor ful
Ġamaz e
eleb rat
Ġdismiss ed
Ġp ave
Ġli ved
ĠP eace
Ġpo etry
Ġsnow fl
Ġrapid ly
ĠHum or
Ġd y
Ġp acked
ĠY ellow
Ġpr isons
Ġcl ing
Ġfl utter
Ġillness es
Ġrecyc led
Ġwe alth
Ġun hygienic
Ġsu ff
Ġdis belief
Ġmis ty
ĠC elebrat
Ġconcert s
Ġstub bed
Ġsof a
Ġremed ies
Ġat h
Ġgre ener
Ġblock s
Ġgrandm other
Ġk icked
Ġrel e
Ġselfish ly
Ġup on
ĠP arks
Ġperform ers
Ġovershadow ed
Ġwrapp ers
Ġs ession
Ġn on
Ġshow c
Ġcheer ing
Ġmelt ed
Ġhar ds
Ġfem ales
Ġwrit ten
Ġwork sh
Ġres on
Ġsever e
Ġunreal istic
i tant
Ġc as
Ġl ists
Ġcan d
Ġus age
Ġperform ing
ĠCol ors
Ġrepl aced
Ġflick ering
Ġsunr ise
Ġm ild
ne ath
ĠSt ea
Ġunder neath
Ġcontrib utes
ell ig
ĠS now
Ġco co
Ġsol ved
Ġhist or
Ġarch es
Ġint ellig
Ġaccess ible
Ġcr inge
as uring
ĠR ubbing
Ġhair sty
ĠChe ese
Ġdeb ates
Ġb iking
Ġar om
Ġlea k
ab b
Ġtrust worthy
Ġmanag ers
Ġstiff ness
Ġstretch ed
Ġattract s
Ġter ms
Ġdire ct
Ġk it
il ots
Ġsw itch
Ġcomplet ed
Ġopt im
Ġst aring
ĠF ru
ĠIm prove
Ġadap ts
Ġd ates
Ġl oos
Ġso ccer
sh ip
ump y
u ous
Ġd ough
Ġv ict
Ġpos s
Ġwell ness
Ġfair y
Ġautomatic ally
Ġfold ed
Ġdisappe ared
ĠSe c
Ġfilth y
Ġfor t
Ġtr ail
il ty
Ġgu ilty
ĠEduc ating
Ġelectric ity
ĠRecogn izing
act ive
az e
Ġamaz es
Ġrub ber
Ġdur ability
Ġb ay
Ġin tr
Ġune ven
Ġcomplet ing
Ġfu el
rop ri
l er
Ġche ers
ĠL ong
Ġpo pping
Ġbelong s
Ġphotograp h
Ġpave ment
Ġ '
ink le
Ġcle aring
Ġinvol ving
Ġdear ly
Ġadjust ing
Ġaddress ed
Ġgadget s
Ġr ad
Ġpro fession
Ġclos et
l led
Ġac ids
Ġserious ness
Ġdress es
Ġdiv is
Ġabs ence
Ġinfluenc ed
Ġsa cri
Ġpro ducing
Ġres et
Ġwa its
ens ive
Ġprodu ces
Ġoccur s
Ġinnov ations
Ġunderstand ings
Ġbl ind
Ġdri fting
Ġpati ently
Ġhes itant
Ġpl ots
ĠIn se
Ġcre w
Ġben ches
Ġabsor b
Ġd read
ar i
act eria
Ġfir m
Ġirrit ated
Ġdisp osal
Ġr abb
Ġhome work
Ġuns atisf
Ġisol ating
Ġunres pon
Ġsl ows
Ġclar ify
Ġcaptiv ating
ĠOut door
Ġc ycling
Ġb acteria
Ġfr o
Ġfull er
Ġve gg
ĠInse cts
v oking
Ġal ign
Ġcollect ed
Ġnote book
ĠTravel ing
c onnected
i ver
Ġl ed
Ġover fl
Ġide al
Ġpo ems
Ġsecret aries
Ġexplain ing
Ġent husi
pro voking
Ġvers es
Ġtomat o
Ġsnowfl akes
at ors
ĠA lex
ĠC utting
Ġcatch y
Ġpill ow
Ġtos s
a ign
Ġch ains
Ġgloom ier
Ġdry ing
Ġsail s
ĠNew s
ĠM an
Ġinter connected
Ġheal s
Ġprevent ing
re ak
ĠC ra
Ġbar be
Ġl amp
Ġfl oods
Ġreal ities
Ġthro ats
Ġsnowm an
o dy
or re
ĠL ately
Ġgloom iness
Ġrest ed
Ġprotect s
Ġspe e
Ġspo ken
ĠShould n
Ġreve als
Ġworkout s
is be
sh m
Ġbur sting
Ġfact ories
Ġgirl s
ĠGarden s
Ġcamp aign
Ġrestr ict
Ġfe es
Ġgr umpy
Ġbl ocked
Ġto r
Ġhar vest
c ue
ct ure
ĠN ight
Ġdiv ide
Ġent rance
Ġweak er
Ġc ave
ber ry
Ġeffici ency
Ġperi od
Ġsof ten
Ġma j
Ġsp iders
il ting
Ġexhib it
Ġin it
ĠA pp
Ġcontin uous
ĠUn fortun
Ġtalent ed
Ġcontain ers
Ġbump s
ĠSil k
Ġdw ell
Ġconstru ctive
ĠRelax ing
Ġd ances
Ġdish on
Ġmult ip
Ġadvoc ate
g ar
Ġth or
Ġtough est
Ġrely ing
Ġoccur ring
Ġs at
us ive
Ġsu per
Ġag gress
Ġsl ither
Ġru bs
Ġtroubles ome
Ġmel ody
Ġreplace ment
Ġembarrass ing
Ġunener getic
isbe e
Ġtheir s
Ġapp etizing
um ing
olo gy
Ġaccess ories
Ġreass uring
Ġ om
Ġfad ed
Ġcomed ies
Ġthunderst orm
sc reen
ĠMan aging
Ġn one
Ġpast ed
Ġmix es
Ġbro ad
Ġneck l
Ġirres ponsible
Ġtor n
Ġun sp
ĠH allow
all ows
ĠPl us
ĠHallow een
Ġli king
Ġgener ation
Ġloc ations
Ġch ir
ĠTh ings
Ġhon king
Ġdig est
Ġinterrup ted
i xt
Ġn our
Ġsa ved
ĠTh en
Ġmar shm
Ġhesit ate
Ġsacri f
if ying
ĠR iding
ash ed
Ġart works
Ġselect ions
Ġvegg ies
ar ily
oo f
ĠT urning
Ġsm o
Ġar ises
ĠR ea
Ġmusic ians
Ġst ream
Ġcollect ions
Ġwall et
Ġtooth ache
ĠAut umn
Ġs orting
our ce
Ġlight ly
Ġfl u
Ġres ource
Ġbl and
Ġbat ter
Ġunrespon sive
Ġthor ough
Ġw ilt
Ġnot ed
Ġfr isbee
Ġwr aps
Ġro am
ĠG iving
Ġequ ality
Ġroll er
Ġbuy ers
Ġpres erve
Ġdisrupt ed
Ġdamp en
Ġprofession als
i ences
ter ing
Ġsp ell
Ġfact ory
Ġsc rap
Ġgr azing
Ġste pped
Ġinstin ct
Ġdev ice
ĠUnfortun ately
Ġrespect s
Ġaccompl ish
Ġconven ient
isp ers
Ġcoco a
as ter
Ġes caping
Ġpro ced
look ing
Ġadapt able
Ġtens ions
Ġperce ption
ĠPo or
Ġun d
Ġsun screen
Ġhar b
Ġgall eries
Ġdut y
Ġhund red
in t
as hy
Ġwe bs
Ġdou ble
Ġround ing
b ul
ch e
Ġpro active
Ġrel ive
Ġunre ason
ĠCl ouds
ĠA cc
ĠC al
Ġend ure
Ġgather s
Ġviol ently
Ġdull ness
Ġkiss ing
Ġpromot es
Ġdivis ions
Ġw ilting
Ġp ilots
ĠD ig
Ġadv anced
Ġcool s
Ġacknowled ged
Ġl ink
Ġprev ious
ĠRea ching
s tand
Ġt it
Ġtidy ing
ĠG old
Ġmarshm allows
ar s
Ġde br
Ġmor ale
Ġwet ness
Ġath let
Ġneckl ace
Ġdebr is
in ed
us ed
Ġme asuring
ill a
Ġde bts
Ġfrustrat e
ĠF alling
ĠB ab
Ġelse where
Ġer ase
ffer ing
Ġcrit ic
Ġfier ce
Ġd ying
Ġun less
Ġsu m
Ġsp ider
Ġvar ies
Ġket tles
Ġweak ness
Ġcou ple
Ġmod els
f illed
Ġr aw
Ġpers istent
ĠIn viting
Ġattract ive
ĠFr ustrat
Ġhistor ical
Ġposs essions
Ġst ack
ll ing
ĠB r
Ġprocess ed
Ġpur s
Ġcount less
Ġsustain ability
Ġoptim istic
Ġwh ispers
ĠA ct
Ġcreat ion
Ġdifficult y
Ġuniqu eness
Ġpin ned
Ġappoint ments
Ġvac ation
Ġgl ide
ĠO ffering
Ġartic les
Ġunac cept
as m
Ġsound ing
duc ed
Ġlin ings
Ġsignific ance
Ġexha ust
Ġphotograp hy
ĠCelebrat ing
Ġathlet es
Ġc ud
Ġnot ices
ĠD el
ĠC r
Ġdec ay
ĠB ea
Ġrep et
Ġpretend ing
man ship
Ġw inding
est ed
Ġriver b
ĠBut ter
Ġcop ies
Ġshadow y
Ġscient ific
Ġ eth
Ġs le
ing ly
on ting
Ġjust ice
Ġcold est
Ġcurrent ly
Ġtruth ful
Ġdisturb ances
Ġunpr otect
Ġf us
Ġb ill
Ġun be
Ġdam per
Ġbark ing
ĠImprove ment
ed d
Ġam pl
Ġcast les
Ġunsp oken
Ġdis cour
Ġsw ift
Ġmeet s
Ġpart ners
Ġeleph ants
ĠQu ick
Ġunbe ar
Ġp ea
Ġpart ner
Ġwood en
Ġpair s
Ġriverb ank
Ġunprotect ed
Ġs orts
Ġn ons
Ġinc orre
tract ive
ĠU ne
Ġcombin ing
c al
ct ic
Ġmis place
ĠRe c
Ġadvertis ing
Ġcross ing
Ġpud dle
Ġdramatic ally
ĠDream s
ĠFrustrat ion
Ġunbear able
o ved
Ġha unting
Ġde ce
Ġunf riendly
Ġpast ries
Ġwinter time
Ġpun ish
Ġparticip ants
Ġspee ch
Ġout d
erv ation
Ġeat s
ĠDark ness
o b
Ġad op
Ġshar per
Ġbat tles
Ġinvest igate
Ġvan illa
Ġfeather s
Ġnons ense
Ġoutd ated
m ates
t es
oom ing
ist ently
Ġforget s
Ġreturn ed
Ġaccount able
Ġsandcast le
Ġcolleag ues
l ets
Ġp ure
ĠY oun
ĠH ist
Ġunpleasant ness
Ġencour aged
Ġsens ation
ow ering
ot ing
Ġwith stand
Ġfear ing
Ġanger ing
ner ving
Ġindepend ent
Ġdy nam
Ġst alls
ĠW orms
Ġbright est
ĠL ove
Ġpeaceful ness
Ġsimpl ify
Ġparen t
Ġflashlight s
Ġvehic le
Ġdocument ary
Ġtid iness
ĠCra fting
Ġbe gan
ĠSp ace
Ġtim er
ĠAcce pting
ĠAcc idents
at a
Ġche ek
Ġpain ts
Ġincredi bly
ĠCon vers
Ġunat tractive
Ġcand ies
ĠHist ory
l ist
en der
ĠM ed
ĠF ashion
and on
Ġrep ut
Ġbored om
Ġyog a
om ile
am omile
Ġgather ed
Ġmarket ing
ĠSim p
ĠAl right
Ġevol ves
ĠYoun g
Ġin vesting
Ġg ate
Ġclean s
Ġbeh aves
Ġcons istently
Ġcomb ine
Ġcommit ments
Ġmot ions
Ġpack age
Ġmoder ation
Ġfus s
y m
Ġab andon
Ġeas es
Ġbl own
Ġpredict able
Ġbub ble
Ġdeliver ies
Ġempower ed
ĠSurpris es
u gs
Ġcl ub
Ġdri ver
Ġmist reat
Ġdam ages
Ġload s
Ġurg ency
Ġt ank
Ġp onder
ĠS aving
Ġcol our
Ġcas ual
ĠUne x
i pped
Ġit ch
rat ion
Ġsc ores
Ġcr ave
Ġsweat y
Ġun nerving
Ġas leep
ĠN ext
Ġfree zing
Ġpassion ate
ĠGrow ing
ĠUnex pected
Ġplay er
Ġfresh ly
Ġvar ieties
Ġcelebrat ed
Ġstitch ed
Ġspl ashing
Ġmultip ly
Ġchir ping
re h
Ġhelp ers
Ġwor s
Ġstr ain
Ġglass es
o pping
Ġstrong est
Ġbuild ers
ope ful
ĠG ratitude
Ġspeak s
cher s
ĠSc ary
Ġsuff ers
ĠSimp licity
Ġcomp aring
Ġcol ored
Ġreal izes
Ġloud ness
Ġbel oved
Ġengine ers
Ġtrad ing
Ġshel ters
Ġhun t
ĠImag ination
Ġscr aps
ĠBab ies
Ġfor med
Ġhe ctic
Ġpr a
ĠA ll
Ġsun down
Ġsnea ky
Ġripp les
Ġsh ed
Ġch ips
Ġhand made
ĠCreat ivity
ĠCl oud
im ately
Ġun its
Ġfun ding
Ġexpl ains
Ġsn ap
Ġsatisf y
Ġnav ig
Ġfeed ing
cons uming
Ġenthusi asm
f ires
Ġm ines
at ient
Ġstick ers
Ġprov oke
Ġbask ets
Ġstrang er
Ġisol ation
ic hing
ic ate
Ġover p
Ġmus hy
Ġenr iching
Ġarchite cture
Ġrad io
Ġin fect
ul ips
Ġgri lled
ram bled
Ġse ating
Ġhot ter
Ġtrad es
ĠMess y
e asy
r ots
is cover
Ġn ostalgia
ic ter
Ġre ck
ple asant
Ġrepl acing
Ġarom a
u c
Ġcar p
Ġtri pped
Ġyog urt
Ġreput ation
Ġg ym
ol ved
ĠF ishing
Ġdisc ard
Ġaud iences
ĠMed ical
a iled
Ġto n
Ġsa ves
Ġv ine
ĠF arm
Ġhas n
Ġrain storm
Ġnear ly
Ġsweet ly
Ġgre w
Ġalong side
Ġmar ine
Ġbot t
Ġhun ger
ĠCo pper
Ġhards hips
an o
ĠBl ack
Ġshak y
ĠConvers ations
ĠW et
Ġas sistant
Ġup hill
Ġpark ing
Ġpupp ies
Ġm ixt
Ġdeep est
Ġinc idents
Ġbell s
Ġtechniqu e
Ġcr amp
Ġgre eting
Ġhook s
Ġconfr onting
Ġabandon ed
Ġm ish
ĠI gn
Ġg ains
Ġsnow s
iel d
Ġsuggest ed
Ġshut s
iven ess
Ġunr el
Ġsavor y
Ġs essions
ul ate
Ġbott om
Ġa id
ĠT ry
Ġimp atient
Ġsp ort
Ġann oun
Ġz one
Ġwasteful ness
Ġmod el
' ll
am ed
Ġvis ual
Ġpo em
Ġsimilar ly
Ġcre ak
Ġadapt ations
Ġfail ures
Ġsau ces
Ġrainb ows
Ġtomat oes
Ġso aps
Ġal b
Ġup side
ĠSh opping
Ġrecall ing
ĠCloud y
ĠIgn oring
t aking
Ġout ages
Ġta pe
iz ation
fin ished
pl aces
Ġcreep ier
r ay
ĠL ack
Ġtransp aren
Ġsacrif ices
Ġh ers
Ġcl ums
Ġunh opeful
Ġinse c
Ġdistur bs
Ġreport ed
Ġdivid ed
Ġampl ify
d ed
Ġd ie
ang ed
Ġshould n
Ġco ast
Ġfresh en
ĠThank fully
Ġwash es
Ġemer ge
ĠCommun ity
Ġrum bling
ĠA ware
Ġgr imy
ĠC rying
Ġsl ices
Ġcheerful ly
Ġview ing
Ġcomplic ate
Ġstitch es
Ġplum ber
ĠAware ness
Ġy ell
cons cious
Ġairplan e
Ġf ive
ic ip
ĠC ake
Ġinform ative
ĠSm iles
ĠAl ways
ĠEm br
Ġtow els
Ġmas ks
Ġunaccept able
Ġs inking
Ġm ent
Ġsp are
Ġappreci ates
Ġerr ands
Ġmaj or
ĠEmbr acing
Ġc ash
Ġwork places
Ġapp ly
um es
ĠL eaving
ĠP icking
Ġborrow ed
Ġto ler
Ġst ages
um bled
av ender
Ġsell ers
Ġung rateful
Ġreson ate
f ire
Ġpl us
Ġsu its
Ġdet ailed
Ġuseful ness
Ġpump s
Ġinterrup ting
f all
k ind
Ġcar rots
Ġro pe
Ġprev ention
Ġenerg ize
Ġcoin c
Ġthorough ly
g r
ĠF iction
Ġhim self
Ġcrush es
Ġunfun ny
Ġloos en
a ired
Ġp ays
Ġfa iled
Ġv ase
Ġunc on
Ġspot ted
Ġcollect ors
Ġkn ock
ĠSm ooth
Ġcollab or
Ġwhis per
bul ence
Ġdr own
Ġsen sible
Ġwr apped
Ġpressure d
Ġmaintain ed
ĠCal m
Ġun finished
ĠH igh
ĠW ine
Ġrem em
ĠB reaking
Ġtransport ation
Ġtow er
ĠStea ming
ĠBea ut
Ġcoinc idence
om ed
ĠDo ing
Ġstick iness
ĠWh ich
ĠConf idence
Ġf i
Ġfe t
Ġev idence
Ġrep aired
icy cles
Ġident ity
Ġrain ed
Ġher bal
Ġgot ten
ĠCo zy
Ġant ics
f oot
s m
Ġbu ried
Ġsl ugg
av ings
Ġred iscover
ĠK icking
Ġinvolve ment
Ġcontain er
ĠKnow ing
Ġsou l
Ġinit i
Ġslugg ish
Ġp acking
Ġexp osed
Ġclean ers
av ity
aw ay
Ġcustom s
Ġflavor ful
Ġpriorit izing
Ġar ming
ĠM is
ĠC ool
Ġbreath taking
Ġpi ano
Ġprepar ations
Ġton es
Ġfr ost
Ġag end
Ġsun b
Ġencounter s
Ġphotograph s
Ġharb oring
i als
u is
Ġt ulips
ĠH ard
Ġk no
Ġexc ess
Ġactiv ely
Ġchar ges
Ġinfluenc ing
Ġrepet itive
ea p
Ġact ors
Ġang le
Ġbl ending
Ġset tles
Ġincl usive
Ġfulf ill
Ġcrafts manship
Ġmuse ums
Ġcolleag ue
Ġalarm s
Ġsc rambled
Ġcont ext
Ġset tling
ĠDis appoin
Ġsweat ers
Ġinvent ors
Ġh all
Ġd i
th inking
ĠA v
Ġfa ult
Ġsk ating
and om
Ġmeaning fully
Ġbegin ners
Ġspecific ally
Ġstraw berry
Ġswift ly
u pp
Ġh ays
ink les
Ġr ounds
Ġr andom
ure d
ĠS l
Ġkiss ed
Ġhays t
Ġfe ature
Ġqu easy
Ġsol ar
ĠCh alk
Ġpol icy
ĠO ct
Ġhelpless ness
Ġtack ling
Ġhayst ack
Ġpath ways
Ġhor iz
Ġstea med
Ġshall ow
Ġdistr ust
Ġant icip
o ber
Ġt ides
Ġmak ers
ach ie
Ġnervous ness
omm on
Ġdestroy ed
Ġthous ands
ĠBo iling
Ġpunish ments
Ġcramp ed
ĠAv oid
c er
Ġf ount
im ent
oo ses
Ġun achie
Ġch ooses
Ġsur ger
Ġstr icter
Ġexpl or
op er
Ġfound ation
Ġpract iced
Ġpoin ting
Ġcup board
Ġdamp ness
ĠSad ly
Ġkno cked
ĠOct ober
at ched
Ġlo vers
Ġdr oop
Ġbl ess
ĠSun flowers
Ġsquirr el
Ġmult i
Ġhers elf
Ġha z
Ġch an
Ġtr aps
ain tain
Ġher o
Ġodd ly
Ġas h
ne eded
Ġbus ier
Ġmiss ions
Ġtw enty
Ġglow ing
Ġinnov ative
Ġlifesty les
ĠUs ually
Ġremo ving
ĠCar eless
che ck
ĠDisappoin t
Ġd ata
Ġst ew
Ġch amomile
ĠE s
Ġher oes
Ġclos eness
ĠStr aw
Ġupd ate
Ġdisrupt ive
re flection
Ġcan s
Ġo x
ĠT all
ĠSh all
ĠPr om
Ġparticip ating
Ġdisplay ed
Ġrenew al
Ġvine gar
o ving
Ġgr avity
Ġpopular ity
Ġreve aling
Ġsidewalk s
Ġflick er
ĠBer ry
Ġproced ures
Ġremem bers
Ġs ib
Ġto ll
et ic
Ġsh iver
ĠW here
cess arily
Ġsil ently
Ġtransform s
Ġoccasion ally
Ġeconom ic
Ġimmedi ate
Ġtires ome
Ġthous and
Ġexhaust ed
ĠAvoid ing
er ved
Ġfr own
Ġfl ashy
Ġsepar ation
Ġbond ing
Ġitch y
Ġmulti ple
m el
Ġb icycles
Ġst ations
ir ling
Ġrenew able
Ġgrap hic
Ġscrap book
Ġunachie vable
s ol
Ġwe ap
ĠT e
Ġoff ices
ĠL ike
ĠTr ains
Ġarri val
Ġeleg ance
Ġcap able
Ġfet ch
Ġun if
Ġta p
ĠC ook
Ġunw ashed
Ġhand les
Ġreg ions
Ġsoci et
Ġprev ents
Ġstud ied
ĠWor ries
Ġstir ring
ĠHon est
Ġshowc ase
Ġw ard
Ġl ugg
Ġdon ate
Ġsl ide
Ġpoll ute
Ġcapture d
Ġuntr usting
Ġdisp ose
Ġlugg age
i able
k in
l and
in ning
us es
ĠT ou
ĠC over
Ġimpact ful
Ġunin v
ĠPr otect
Ġded ic
Ġsettle d
Ġworksh ops
Ġbarbe cue
Ġclums y
ĠCook ies
Ġfor ced
Ġevery body
Ġcom bs
Ġcon qu
ĠS to
Ġtri pping
Ġrev is
Ġselfish ness
ĠTe chn
ĠCover ing
Ġsc ales
Ġpack ages
wor king
Ġble ak
ĠProtect ing
Ġnew er
eav y
Ġres idents
Ġvis uals
br ush
Ġpaper work
Ġcrack ers
Ġprin ter
Ġjudg es
Ġuntr ou
Ġtun nel
ĠOn ce
ĠProm oting
Ġm ut
Ġapp ropri
Ġmess ing
Ġprocess ing
Ġstud ent
Ġprin ting
Ġunres ponsible
Ġund one
Ġrevis it
c ooked
g azing
l t
m ar
Ġc ried
Ġl avender
Ġsp a
ag ger
Ġgre enery
ĠU lt
Ġglo bal
Ġgroc ery
Ġreass urance
ĠDel ays
Ġment ally
ĠUlt imately
f orting
es ky
Ġp esky
Ġsh r
Ġgr aze
Ġmess ier
Ġcr avings
Ġattract ing
Ġowners hip
Ġward ro
Ġuninv ited
c on
Ġt arn
or der
Ġre ject
Ġex agger
ig gle
Ġcurren ts
Ġcontin uing
Ġpoison ous
Ġloyal ty
Ġaggress ive
Ġdedic ated
g en
ĠS al
Ġgu m
Ġpow ders
Ġdevelop ing
Ġadm it
Ġmas k
Ġcowork er
Ġsuit able
ĠTou ching
us ion
Ġc in
Ġun just
Ġbl ues
Ġbefore hand
iel ding
ĠH osp
Ġsand y
Ġenter ing
Ġhabit at
Ġboun cing
Ġhoriz on
Ġfount ain
Ġuntrou bled
in ate
Ġch illing
Ġnegat ives
Ġbas ement
Ġdistract s
Ġunne cessarily
Ġdef ine
Ġm iles
Ġeven ly
Ġmis m
Ġeffort lessly
ĠCh eap
Ġearth qu
ĠNight time
ĠR olling
Ġwr apping
Ġinv ites
Ġperson s
Ġra ised
ord inary
Ġscen ari
Ġcombin ed
Ġvict ories
Ġscenari os
c ul
z en
z ed
it ation
Ġcompet e
Ġgen re
Ġvan ished
Ġumbrell as
Ġcarp et
Ġchan nel
Ġg as
ic ul
Ġsh ot
Ġexpect s
Ġbeh aving
ĠG ames
Ġcaf es
Ġsqu ee
Ġstub bing
Ġbloss oms
Ġdiscour aged
b an
n ormal
Ġo l
ch ool
Ġch ests
Ġjoy ous
ĠR ice
Ġbl ur
Ġgre et
Ġeng agement
Ġcour tes
Ġkn itting
Ġcommitt ed
ĠSim pl
Ġuninter ested
Ġbar rier
Ġexhib ition
Ġcamp ing
ĠTechn ology
y ielding
in ely
Ġun yielding
Ġcomp reh
Ġtravel ed
Ġorganiz ers
Ġmotiv ates
Ġauthor ities
Ġexcus e
ĠHosp itals
Ġre tr
ea h
ol es
Ġaw e
am ing
ĠP ast
Ġdep ressing
Ġlif el
Ġconsum ing
Ġaccur ately
m in
y gen
Ġt our
Ġsw irling
ho ld
Ġdisc ounts
Ġexist ed
Ġgen der
Ġgenu inely
Ġur ban
Ġclassroom s
Ġconqu er
f ers
ent ists
Ġfr osting
Ġsu p
Ġout lets
Ġkiss es
Ġg ust
ĠY eah
ul ing
ĠS chool
Ġar ts
Ġmis used
Ġlet down
Ġpers istence
Ġanx ieties
Ġblue berries
Ġpress ed
Ġins pect
Ġkn ocking
Ġevol ving
Ġan ts
oo ting
ve y
ĠT ake
Ġcreat ors
Ġbelie ved
llow ing
Ġpartic les
ĠBir th
Ġbloss om
Ġcourtes y
Ġm er
Ġb oy
Ġd ive
Ġmiss es
Ġunf ree
Ġspo iling
Ġneglect ing
Ġaltern ative
Ġcere mon
Ġhairsty le
Ġox ygen
Ġqu ilt
Ġbal m
Ġreach ed
Ġhair c
Ġallow ed
ĠGrow th
ĠKnow ledge
ĠStraw berries
r is
Ġr ow
iv ities
ĠF ish
isten cy
Ġpre fers
Ġgarden ers
Ġpolit ic
Ġrepair ing
Ġfant asy
Ġunres olved
Ġreus able
ĠDig ging
Ġnavig ating
Ġp an
os ure
ĠW ind
Ġle an
Ġgr ooming
Ġsen ds
ĠP aying
Ġcontr olling
ĠO ther
Ġbas ins
Ġsugg ests
Ġcool ing
Ġoverc ooked
Ġoper ate
Ġflash es
Ġadm iring
Ġoversh adows
ĠPol it
Ġrob ots
Ġoverfl owing
ĠR ep
Ġpain s
Ġdet ect
Ġdirt ier
Ġdin ners
Ġengine ering
ĠSil ver
ĠAdvent ure
ĠAdvent ures
u ying
ĠY uck
ang eable
Ġdiffer ing
Ġacc ord
Ġph ases
Ġreb uilding
Ġalb um
l ings
w ide
ke pt
ĠH eavy
ĠM ud
Ġhealth ily
Ġbo ating
Ġdri ed
Ġreg ulations
Ġdraw s
Ġlitter ed
Ġcompet itive
Ġaccount ability
k ins
Ġt ide
Ġal ley
Ġgr ades
Ġdes ert
Ġunder ground
Ġspark ing
Ġsell s
ĠCl im
Ġcast le
Ġadop t
Ġtransparen cy
u x
gg ing
ĠB uying
Ġperfect ion
Ġfree ze
Ġtall est
Ġach es
Ġbelong ed
Ġbar ely
Ġdrag s
Ġbank s
ĠComp an
Ġcompreh end
f r
g ling
o kes
Ġth irty
Ġlead er
Ġworld wide
Ġbu ckets
Ġacc um
ĠK ids
Ġgoodby es
Ġport ions
ĠClim bing
Ġw akes
Ġn ause
Ġdis order
Ġprot e
Ġdesp air
Ġris king
Ġorder ing
ĠSci entists
Ġdeterm ined
Ġcere al
Ġmixt ure
mel on
Ġmism atched
Ġj umbled
Ġout we
ĠM il
Ġfl aws
Ġatt ent
Ġperson ally
Ġdisrup tions
Ġunch angeable
ĠMeet ings
Ġfro zen
icul ous
Ġoutwe igh
Ġaf ar
Ġco aster
Ġgre ens
Ġrid iculous
Ġmisle ad
ĠBeaut iful
in en
Ġs ite
Ġst are
Ġpl at
Ġag reed
Ġcl iff
Ġmis er
Ġreal istic
ĠL inen
Ġtri v
Ġavoid s
Ġunder water
ĠWh ite
Ġrich ness
Ġplum bing
Ġweap ons
d es
Ġsu b
Ġsp ice
Ġpr icing
ĠO bs
Ġgre ase
Ġser ene
Ġvol ume
Ġwardro be
b ased
in ous
Ġme ats
Ġen ch
ĠD irty
Ġunc ommon
Ġclim ates
Ġpra ise
ic ating
Ġexp osure
uri ous
Ġunb elie
Ġintellig ence
ĠSec rets
Ġslither ing
Ġ "
Ġb ul
Ġst oring
Ġover think
Ġunt ou
Ġstar gazing
Ġwear s
bo x
Ġspeed s
Ġdw elling
Ġpolitic ians
Ġunbelie vable
Ġt el
Ġl ux
Ġso aring
Ġim m
Ġas tr
Ġexpect ation
ĠSh ort
Ġprov ided
hys ical
Ġland ing
Ġchurch es
Ġunr est
Ġtur bulence
Ġom inous
it ter
Ġsp ine
th s
ĠEx p
ĠO kay
a bs
e v
Ġcons ervation
Ġfire place
Ġdisturb ance
Ġtot al
ĠCommun icating
Ġrot ting
Ġdeb ate
ĠCool er
Ġt iss
Ġst ink
Ġfun ds
Ġover night
op ening
Ġrespon ds
Ġdry ness
Ġpick s
Ġhun ting
Ġcontent ment
Ġexpand ing
Ġreus ed
f ace
Ġt ed
Ġb arn
ĠP hysical
Ġdri es
Ġdull est
Ġhu gs
Ġench anting
g ized
o cus
u f
on aut
ĠT ax
Ġse al
Ġch ap
Ġcon vey
Ġas so
ĠSh eep
Ġwinter s
Ġset up
Ġens ures
Ġexhib its
Ġmas ter
Ġtruck s
cl oth
Ġunrel iable
ĠCompan ies
Ġasso ci
p ret
Ġf ate
Ġto x
Ġstr ing
ach es
Ġprefer ence
Ġhead ache
Ġfold s
Ġclock s
ĠUnderstand ably
Ġbasket ball
he althy
Ġpollut ing
Ġrabb it
ĠTh ick
Ġad ult
Ġplay grounds
ĠG r
Ġscratch y
Ġintellig ent
et t
Ġtr acking
Ġbas is
ific ial
ĠDis cuss
ĠPast a
Ġuntou ched
c or
p s
el et
Ġb i
Ġwork er
Ġsec onds
Ġart ificial
Ġign or
ĠCh r
Ġsy n
Ġextra ordinary
Ġdevelop s
Ġtransform ing
Ġunl o
Ġdef ensive
ĠApp les
Ġdishon esty
ĠCareless ness
ĠDisappoint ment
Ġcom ment
Ġpro duced
ach able
Ġcl in
Ġcl ues
Ġrel ates
Ġdon ating
ĠP re
Ġeffect iveness
Ġimpact ing
Ġass ume
Ġconcent ration
Ġpour s
ĠCo al
Ġcampaign s
Ġplat form
in ations
Ġf ried
Ġm ill
read ing
Ġcontrol led
Ġunus ually
Ġmin t
Ġunwelc ome
Ġkick s
Ġremain ing
Ġgar lic
Ġpriorit ized
Ġint ention
Ġenh ancing
Ġspr ays
ĠBer ries
ĠPeace ful
ĠFru it
sol ving
ĠObs erving
ĠChr ist
p aced
u cing
Ġf ences
Ġfor th
Ġunex pl
co very
ĠSh owing
Ġrep ly
Ġpar ked
Ġwild fires
ĠSun day
Ġflutter ing
Ġfort un
Ġreck less
it ivity
Ġh ost
Ġsh ield
ĠEx erc
Ġhear s
Ġbo ards
Ġshort ly
Ġhouse hold
Ġtable cloth
Ġgri ef
Ġneat ness
Ġint ake
ĠCreat ive
Ġpack aging
Ġdismiss ive
ĠPract ice
Ġinvest ments
Ġident ify
Ġmiser able
Ġb aff
Ġj ar
Ġlo g
ers on
Ġrel ies
Ġupset s
Ġprom pt
ĠLit tering
cl ock
Ġcontinuous ly
min ute
Ġbe ans
get ting
Ġpro f
Ġover thinking
eri er
Ġapp s
Ġrain water
Ġsen sing
Ġform al
Ġcomplain t
ĠFor getting
Ġrenew ed
ett i
e em
ĠM ar
ĠM ach
est eem
Ġdr astic
ĠL ifting
Ġsw allow
Ġmatch ed
ĠFear s
Ġrespond ing
m as
ke ep
Ġes cal
Ġcl ay
ĠC ompl
Ġsho el
Ġple ased
Ġjoin s
Ġph ase
Ġinten ded
Ġpredict ions
Ġdisres pected
ph ones
Ġelectr on
Ġrabb its
ĠPolit ical
ĠMach ines
ed uc
ĠA ny
Ġsol ves
ĠTr aining
Ġsy rup
Ġass ign
Ġspr out
Ġpa ired
Ġintr o
Ġattent ive
ri pe
Ġpat ches
ĠSt icking
ĠN atural
Ġthin ner
Ġrep orting
Ġfat ig
Ġunreason ably
onaut s
a h
Ġst ing
ĠW asting
Ġsa iled
Ġdes c
Ġimpul sive
Ġur ge
Ġpe ek
Ġech oing
Ġsib lings
educ ated
Ġm ang
Ġp or
Ġforget ful
Ġprefer red
Ġpar ade
Ġdisc onnect
Ġeth ical
Ġignor ance
Ġp ies
un derstand
Ġdo ck
Ġunc om
Ġcont ains
Ġcruel ly
Ġpot at
Ġexplain ed
Ġsuspense ful
Ġthunderst orms
Ġgrap es
Ġunif orms
ĠSal t
Ġol ive
ĠChrist mas
Ġcare ers
Ġche erier
Ġcr ust
Ġcool ness
Ġfair s
Ġcompet ing
Ġinteract ive
Ġencounter ing
Ġlay out
ĠCl osing
Ġparticip ation
Ġmoist uri
edd ar
gh etti
are ful
Ġsm ud
Ġkindness es
ĠO bjects
ĠG aining
Ġland f
Ġtreasure d
Ġrev ive
Ġtim eless
Ġsle pt
Ġhaz ards
ĠMil k
b ally
i pe
Ġc uis
un ching
Ġbe ver
ĠHi king
Ġtren dy
Ġunaw ake
ĠOr ange
Ġpe pper
Ġmut ual
Ġdesc rib
Ġ icing
Ġb ends
Ġli vel
Ġre un
Ġr ails
Ġang les
Ġnorm s
ĠRe pe
Ġoff ic
Ġwater melon
Ġunple ased
Ġcloud ed
Ġsharp ness
Ġscar iest
Ġreli ability
Ġdocument aries
Ġnause ous
el ing
Ġun educated
ĠM or
Ġlit er
Ġco ex
Ġplay fully
gg ling
Ġbook sh
Ġshad y
Ġmin im
Ġthrill s
Ġinten s
Ġremo ved
Ġdivid es
ĠFru its
Ġc age
Ġy ards
Ġtr ace
Ġcon du
Ġwr ites
Ġexpl o
Ġsw irl
ĠCh alleng
Ġdest inations
Ġcourage ous
Ġinteract ion
Ġhaun t
f elt
Ġse ash
Ġbit ten
ĠTh ought
Ġexpress ed
ĠSt eel
Ġref und
ĠN e
Ġcommunic ated
Ġseason ing
Ġseason al
ual ity
olo g
Ġdevelop ed
Ġpred ators
Ġsymbol izes
Ġc ries
Ġse ven
Ġwonder land
Ġfl ashing
Ġcr imes
Ġlot ion
Ġimag ery
Ġpow ers
Ġweight y
Ġglo bally
ĠOr anges
Ġshak en
Ġhairsty les
Ġunsatisf ied
Ġtit les
Ġsum mers
Ġdynam ics
Ġfulfill ment
Ġre use
Ġsh ell
ĠS and
am s
ap ed
ĠC ons
Ġgarden er
Ġshort ages
Ġdepend able
Ġnar rat
Ġpret t
ĠSp reading
ĠWarm er
ĠArt ists
Ġvolunte ering
Ġincorre ctly
Ġhairc ut
f ry
at or
Ġsh ook
ll s
Ġsp ar
pr oof
Ġv end
Ġtre m
Ġpresent able
Ġschool work
Ġcart o
Ġcancel led
Ġbatter y
el ine
Ġun iting
ul ation
Ġsh ooting
Ġas ks
Ġwork day
iz zy
Ġno vel
Ġunf it
Ġro ds
Ġnervous ly
Ġbreath able
Ġunder valued
Ġgri lling
Ġfunction ing
ĠSleep ing
Ġtriv ial
ĠDiscuss ing
Ġlandf ills
ĠS ing
Ġgu est
Ġlast ed
Ġdec l
Ġpri ze
Ġuns ightly
Ġdishon est
ĠAct ivities
h ouse
o iled
Ġw ipe
Ġas ton
Ġco ats
Ġheart felt
Ġpo king
Ġcre aking
Ġplayful ness
for ce
Ġwebs ites
v in
im mer
arn ed
Ġsweet est
Ġcons istency
Ġteach ings
Ġph r
Ġrefresh es
Ġstat us
ĠWor ds
ĠHe alth
Ġinvest ment
Ġuncover ed
ĠJoy ful
Ġunener gized
Ġoverp owering
Ġearthqu akes
Ġseash ells
e y
ĠP utting
lic ations
Ġfire works
Ġfreedom s
Ġelectr ical
Ġfier c
Ġsociet ies
ĠSto cking
s afe
Ġc iv
il iz
st r
Ġgr abs
sh aped
Ġwelc omed
Ġwatch ful
Ġsn ug
Ġpol ice
Ġreact ed
Ġpresent ations
ĠFo llowing
Ġscar ves
Ġsym pt
Ġpurs ue
ĠButter flies
Ġexplor ers
ĠSing ing
Ġth er
Ġst ake
joy ful
ĠE ither
Ġro asted
Ġpol itely
aw are
Ġimagin ative
Ġattract ed
Ġachie ved
Ġanswer ing
Ġprepar es
room s
Ġnour ish
Ġwors en
Ġannoun ce
ĠEs caping
Ġsympt oms
Ġun or
Ġpr oof
ag ic
Ġrepe ats
Ġfos ters
Ġurg ently
Ġindepend ence
mar es
Ġceremon y
Ġpor ch
er ed
Ġl end
ĠIt al
ch anging
Ġimp er
Ġeas iest
Ġnormal cy
ĠB urning
Ġsugg esting
Ġfoolish ness
Ġdecor ated
Ġwitness ing
ĠDis tract
ĠConnect ion
Ġswing ing
Ġtoss ed
Ġsmo ky
Ġtit le
Ġmish aps
Ġdi am
Ġshr ink
Ġmer rier
Ġunexpl ain
Ġfierc ely
Ġunor ig
Ġch alked
ĠW ax
ĠC oll
Ġreg rets
Ġfil es
Ġmeant ime
ĠImag ine
Ġwilt ed
ĠChalleng es
g ment
Ġc ages
Ġmak er
Ġfull est
Ġstrugg led
Ġcur l
Ġknot ted
Ġbottle d
Ġvulner ability
Ġworksh op
Ġfro gs
ĠFarm ers
Ġprote in
c ere
Ġw ri
Ġw ob
Ġse ction
Ġwor ris
ĠF re
Ġmat es
air s
Ġrec on
Ġuniqu ely
Ġpicn icking
Ġspark led
Ġspin ach
Ġreus ing
Ġairplan es
Ġdece iving
Ġbless ings
Ġastr onauts
Ġunorig inal
Ġworris ome
Ġl ad
Ġout let
Ġlo oming
Ġde er
ĠF amil
Ġcar ried
Ġbo ils
Ġstress ing
Ġunclean liness
Ġsolid ly
Ġthri ves
Ġunm otiv
ĠUn t
Ġcomb at
Ġwrit er
Ġorig in
Ġech oes
Ġfi bers
ĠMis understand
Ġimper fect
ĠFamil ies
r el
s atisf
Ġh int
Ġl eng
Ġqu ir
Ġdon ations
ĠP izza
Ġbre wing
Ġvis ually
Ġwild ly
Ġcommitt ees
Ġfashion able
ĠCl othing
ĠCl utter
Ġcritic ism
Ġdiscard ed
f ood
w ear
Ġt ar
Ġb ang
re w
Ġy elling
Ġch eddar
ĠW ork
Ġle ash
Ġheart y
Ġread er
den ess
Ġmin er
Ġins ist
Ġuntr uth
Ġremed y
Ġunreason able
Ġcoex ist
is ible
as ters
Ġp aus
Ġst ead
Ġsp ades
Ġinv isible
Ġreach es
Ġcost umes
Ġjudg ement
Ġsocial izing
Ġtransform ation
ĠBr ass
ĠUnt il
w orms
Ġm ur
Ġwe ary
ĠF em
Ġnight light
Ġman uf
ĠN eg
iqu e
Ġdesign ing
Ġdelight s
Ġknot ting
Ġsecur ely
Ġfunction al
Ġbub bling
Ġtow el
Ġmanuf act
Ġa qu
ink ling
Ġpl acing
Ġex cept
ĠG reen
Ġspr inkle
Ġscr ub
Ġash amed
Ġspa ghetti
ĠFem ale
k ers
t ion
an itary
Ġf an
fin ed
Ġdisappoin ts
ĠN ice
Ġte as
Ġlar gest
Ġalm onds
Ġrust le
ĠPos sibly
ĠCar rying
Ġwhis tle
ĠColl ab
al ax
Ġg alax
Ġun sh
Ġse w
Ġmu g
Ġsc ur
set s
Ġbo iled
av elling
Ġunder foot
ĠG erms
Ġjo gging
Ġarm ies
Ġextre m
Ġbrief ly
Ġrele asing
aintain ing
Ġprof ound
Ġl un
ĠD ry
ĠDo lphins
ĠM aintaining
Ġty p
Ġunp ol
Ġcream s
Ġfoot wear
Ġsum m
Ġincorre ct
Ġinsec ure
Ġhall way
Ġtox ic
Ġdrastic ally
Ġrecon sider
t ention
Ġb akers
ch ie
Ġdis satisf
Ġcl i
Ġcomp ost
app ropri
Ġmid st
Ġrequ ired
Ġfact or
ĠSm oke
Ġstri ke
Ġjudgment al
Ġawa its
Ġnap kins
Ġarrange ments
Ġli d
ĠD ou
ci pl
Ġar ising
Ġang ers
ĠF in
ĠF ire
Ġsk et
ĠN uts
Ġcontrol s
Ġfar away
Ġmag az
Ġmirr ors
Ġpost ure
Ġchap ter
ĠD ays
ol i
ĠB elie
Ġhigh est
Ġcamp fire
Ġrum ors
Ġsurger y
ĠMisunderstand ings
Ġl ens
Ġp ant
ink led
ĠH anging
Ġdis cipl
Ġuns anitary
Ġharsh ness
Ġspoil age
Ġbump y
Ġcontrast s
Ġspr ay
Ġjam s
Ġexcess ive
ĠExerc ise
Ġbooksh elf
v ant
Ġw ast
Ġp est
ĠT V
if ied
ĠW edd
Ġlo af
Ġaf lo
Ġair line
Ġown ing
ĠSh aking
Ġdepend ence
Ġparen ting
Ġtransform ations
Ġrubb ed
Ġsou ls
ĠWedd ings
Ġaflo at
Ġf ats
Ġin f
ir able
Ġcon cept
th etic
st ep
Ġmark ing
Ġsty ling
Ġfarm er
ĠSo cial
Ġcontin ued
Ġchalk y
cc oli
Ġachie vable
Ġdisrup ting
Ġunaware ness
Ġsnea ks
Ġweakness es
ĠTax es
Ġunlo vely
b reak
Ġre in
ĠD es
Ġat ten
ĠM indful
Ġfa cil
az z
ĠL angu
Ġty ping
Ġhead lines
no v
Ġju ices
Ġunke pt
Ġconstru ct
ĠAct ually
Ġphr ases
Ġaqu ari
b b
Ġs ix
Ġd ump
Ġp itch
ĠH er
ĠWhat ever
Ġcl ocking
fect ive
Ġfl ock
Ġru deness
light s
Ġmeal time
Ġswim mers
Ġimpress ed
Ġmotiv ating
Ġfig uring
minded ness
ĠRel ig
Ġrestrict ed
Ġdynam ic
Ġf ri
at en
Ġn ur
Ġn ood
Ġin appropri
Ġr ang
Ġgo ats
ĠIn door
Ġsmooth ness
Ġcompan ion
Ġtem p
Ġresear chers
Ġminer als
n s
Ġ ver
Ġh ues
Ġnot ing
Ġtr avelling
ag s
ĠE le
Ġplay list
Ġtru mp
ĠC alling
Ġri p
Ġdrain age
Ġass ump
Ġpool s
Ġbump ed
Ġbark s
ĠSec ret
erson al
Ġs an
Ġg em
Ġus able
Ġinter fer
ert s
ĠP inning
ĠG ather
Ġboo sting
Ġpump ed
Ġcaf et
Ġspeed ing
Ġsubject ive
Ġvolunte ers
Ġyell ows
Ġfault y
ĠBirth days
Ġbaff ling
Ġelectron ics
Ġaston ishing
ĠRelig ion
in ts
im ents
Ġpro ve
ĠR ats
Ġdr ank
led g
Ġsound ly
ĠB e
Ġinc ome
Ġsing er
ĠTogether ness
Ġpick y
Ġghost ly
ĠSpring time
Ġspr inkles
ĠLit ter
upp ort
Ġmill ions
Ġvend ors
Ġun joyful
ap ting
Ġdown hill
Ġsin cer
Ġte aring
Ġsea food
Ġpop s
ĠAd apting
Ġviewp oint
ĠSimpl ifying
ĠLangu age
ar p
ur den
peci al
Ġstr okes
Ġco asters
ĠF oods
Ġsit es
ix ed
Ġbre ed
Ġexpress es
Ġbal ances
Ġtem pt
Ġgri ll
Ġirrit able
ph ants
atter ing
ĠAd just
Ġborrow ing
Ġrestrict ions
ĠAll er
Ġsup erv
Ġlun gs
ĠEle phants
ĠGather ing
an ish
ĠM et
st op
ĠF ing
Ġunc ooper
Ġunc areful
Ġsec uring
Ġsn acking
Ġcheck list
Ġcont est
ĠMy ster
Ġhor ned
Ġloc ate
Ġstand ard
Ġgri pping
Ġalert s
ĠSp anish
Ġsplash es
ĠDream ing
Ġpotat oes
Ġprett ier
ĠAller gies
Ġb iz
ar re
Ġo at
Ġover re
Ġbeaut ies
ĠR esear
Ġcold s
Ġwrong ly
Ġap olog
Ġpaint brush
Ġadapt ation
Ġclever ness
Ġaim ing
Ġpud ding
ĠFun ny
Ġtos sing
Ġcud dle
Ġpant ry
Ġdiscipl ine
ledg eable
Ġbiz arre
Ġth ir
Ġf our
Ġc ig
Ġh ilar
Ġg aze
Ġha m
ĠT reat
Ġk ing
Ġco de
Ġnight mares
me al
ĠB ra
Ġel ev
Ġtw inkling
Ġmid night
Ġconscious ly
Ġdishearten ed
Ġtrans ition
Ġinj ured
Ġclimb ed
iffer ence
Ġdeliver ed
Ġdef end
Ġmech an
ĠAut omatic
Ġpeel ing
Ġtoler ate
Ġagend a
Ġstink y
Ġted ious
Ġcli ents
t est
eo ff
Ġd om
Ġyou th
ght ers
Ġma gn
Ġr ose
Ġinter pret
Ġadv ances
Ġhot el
ĠSp oiled
Ġabs ent
Ġdau ghters
Ġvivid ly
Ġvac u
Ġsnowball s
Ġrele vant
Ġsunb urn
Ġappropri ately
Ġclin ic
Ġcuis ines
Ġcondu ct
Ġhilar ious
ĠBra very
h as
Ġm ural
Ġo ak
Ġsh ipping
ĠW ar
ig s
ĠP ri
Ġmus h
Ġchat ter
Ġreason ing
Ġbehavi ours
Ġind icate
Ġsilk worms
Ġshame ful
Ġgrip s
Ġmeasure ments
Ġmagic ally
Ġoccur red
Ġtransform ed
ĠAr g
Ġsqu ish
Ġmedic ines
ĠRec ently
Ġassump tions
Ġuncooper ative
Ġ iced
Ġth rew
Ġd anced
Ġd ied
ight ing
Ġdis ple
Ġcon g
Ġta ct
Ġheav iest
ĠE l
ert ime
Ġshow ers
Ġel ement
ĠN ostalgic
Ġdri er
Ġsharp ly
Ġsepar ated
Ġmindset s
Ġauth ent
Ġsqu are
Ġvers us
Ġeth ics
ĠSl ow
ĠHonest ly
Ġcin em
d ress
ain ed
ĠP umping
ush i
Ġtw inkle
Ġemp owering
Ġforg ive
ĠPr esent
ĠFriends hip
ĠSe ason
Ġdepth s
Ġbanan a
Ġretr acing
Ġexplo de
Ġunmotiv ating
Ġoverre act
w orth
z zy
el ly
Ġe ight
Ġwh ipped
ĠS am
rat ulations
Ġknow ledgeable
ĠP ict
Ġtran qu
Ġdecor ative
Ġunhe alth
Ġanswer ed
Ġinteract s
ĠNo ises
Ġrev isiting
Ġsqu ir
ĠQ uality
Ġaccum ulate
Ġsyn thetic
c ues
Ġun ent
Ġun ites
Ġag ile
Ġcare er
ĠRe al
Ġcr is
Ġsl iding
Ġstress es
press ion
Ġdep art
Ġind ifference
Ġbas il
Ġter r
Ġint eg
Ġmel anch
ĠPr oper
Ġunre achable
Ġpractical ity
Ġpeel s
Ġunsatisf ying
Ġinsec ur
Ġtarn ished
ĠRepe ating
Ġoffic ials
Ġdiam onds
Ġsumm ertime
Ġcafet eria
m ber
s ight
Ġd us
ic ious
ĠT oo
Ġjust ify
ĠF ighting
Ġres ched
Ġem ails
az iness
Ġsl ight
Ġthank fully
Ġhigh ly
Ġbro ccoli
Ġshort c
Ġemp has
Ġiron ing
Ġlunch es
Ġrecover ing
ĠRel ations
Ġcontact ing
Ġarchite cts
Ġsquee ze
Ġgust s
ĠCollab oration
Ġwast es
Ġtact ics
ĠPict ures
f y
k eoff
Ġb a
Ġun an
Ġal ter
ĠS li
Ġta pping
Ġta keoff
ĠF air
row ing
Ġpat ch
Ġtomorrow s
ab il
Ġtw itch
ru ctive
Ġunb urden
Ġclass mates
Ġprison ers
Ġabsor bs
Ġunexplain able
c ase
f ere
g u
Ġwh ips
ci ally
Ġpos ters
ap an
Ġgu ilt
Ġlisten er
Ġval ley
Ġsmile d
ĠIn s
Ġmark ers
Ġgrass y
Ġavail ability
ĠJ apan
Ġsorrow ful
Ġirres pon
Ġcolour ful
Ġiniti atives
ĠFing ers
Ġcris is
ĠRelations hips
Ġunan sw
c ost
g ood
r ity
Ġh inder
Ġin just
Ġse aling
ĠM old
Ġplan ners
Ġinter fere
Ġcomm ut
Ġcomp osting
Ġread iness
Ġbre w
ĠB ro
ĠB reak
Ġsugar s
Ġfinan cially
Ġhydrat ion
ĠCl oth
Ġinsight ful
Ġagend as
ĠMindful ness
ĠArg uments
ĠEl astic
Ġin e
os si
Ġmy ths
st orms
be h
am el
Ġunc aring
ĠWe eds
Ġhar ves
Ġrest oring
Ġstory line
Ġuns upport
Ġmanag es
Ġvo icing
Ġchar ging
Ġcomb ines
Ġtim eline
Ġdismiss ing
Ġbrainstorm ing
Ġcrisp y
Ġeleph ant
Ġshoel aces
Ġinteg rity
b uilding
f air
m oving
Ġe d
Ġg oo
are t
Ġk id
Ġfa ults
Ġcho pping
ĠC oping
Ġstory book
Ġunin sp
Ġhead phones
Ġgovern ments
Ġlibr aries
Ġrum or
husi astic
Ġvict ory
Ġbatter ies
Ġcollabor ate
Ġtar get
Ġcig aret
Ġking dom
Ġdus k
d ough
g o
r on
u ate
u bs
Ġan ew
Ġl aying
reat ive
Ġres cue
Ġdeep ens
Ġconc ret
ab l
ĠSh arp
Ġclos es
Ġflo ats
tend ed
Ġvers ions
Ġrepl ies
ex pression
Ġnour ishing
Ġauthent ic
Ġconcret e
Ġf er
Ġb un
it ten
Ġh i
Ġdis arr
ĠS ar
Ġexp ired
ĠE gg
ĠR et
Ġbl ends
Ġbuild up
ist ics
Ġdec ent
Ġrough ness
fl ower
Ġirrit ate
Ġtang y
Ġmen us
Ġchick ens
Ġbroad en
Ġbever ages
Ġliter ature
Ġapolog ize
Ġirrespon sibly
Ġs ushi
is her
Ġf ert
Ġwh ose
Ġre kind
ĠT ren
Ġr anges
Ġlo gic
ĠM ount
Ġreflect ed
Ġsol itude
ĠP ublic
Ġbre eds
ĠIn st
ĠDe cor
Ġfil ters
Ġhon k
Ġwall ets
ĠUn ique
Ġlimit ations
Ġcondition ing
Ġshock s
Ġste al
Ġstrain ed
ĠFarm s
Ġexagger ate
Ġescal ate
Ġextrem ely
Ġunansw ered
Ġdisarr ay
ĠTren ds
Ġp ans
Ġg iggle
Ġhow l
Ġqu ant
ort ion
Ġdon ation
ĠL uck
ĠP ersonal
Ġbas ics
Ġprop ortion
Ġdest ructive
Ġprint ed
ĠFl ood
Ġhighlight ing
Ġtrigg ers
Ġpe an
Ġarr anged
Ġtid ier
Ġkit ten
Ġresource ful
Ġpurs uing
ĠSmooth ies
sm elling
Ġlifel ong
Ġgalax ies
ĠIns urance
h or
in y
Ġw ages
us ing
Ġh ire
Ġo w
Ġtr unk
ĠA m
Ġfl own
Ġunc reative
Ġcloud iest
Ġind ifferent
ĠFear fulness
Ġconcl ude
Ġresear ching
ĠRec ycling
Ġinfect ions
Ġprompt ly
Ġmanufact ur
Ġunent husiastic
Ġba it
Ġt ummy
on st
ay ed
im ing
Ġre ds
Ġsh ots
Ġsun flower
Ġtake out
Ġres h
Ġmo ons
Ġla wn
Ġda wn
Ġunf olding
Ġfil ter
Ġdist aste
Ġcomplex ities
Ġselect ing
Ġdem onst
Ġoccur ren
Ġglo be
Ġuntan gling
Ġvent ure
ĠApp reci
Ġdecl utter
Ġunpol ished
Ġfacil ities
ĠSar ah
ĠFlood ing
an e
Ġs eries
Ġa is
Ġc oun
Ġst ates
Ġcon vin
Ġsa mp
Ġmiss ion
ĠB us
ĠSt ability
Ġconfus es
Ġdry er
Ġbloom ed
ĠSo ci
Ġstri ving
Ġzoo s
Ġrob ot
ĠAcce ptance
oles ome
Ġleng th
Ġoat meal
Ġcinem a
e arned
Ġg ossi
Ġj azz
ĠD a
Ġtr icked
qu ent
up ied
Ġde eds
si ders
si zed
ĠP upp
Ġsl ides
ĠSh ips
ump tion
ĠNo ise
Ġadvant ages
Ġten der
Ġvolunte er
Ġreson ates
Ġanticip ation
Ġplatform s
Ġmur ky
Ġdissatisf action
dress ed
ĠEgg s
ĠPupp ies
Ġ et
on y
Ġwh ist
ĠY ikes
Ġune aten
Ġwr inkled
ren ching
Ġper man
Ġref uses
ĠSh oes
Ġpri zes
Ġoffer ings
Ġtin iest
Ġunth ink
Ġste aling
Ġfrag ility
ĠComp aring
Ġmild er
Ġdread ful
Ġwebs ite
Ġpea ches
Ġaquari um
ĠSoci ety
Ġbe dding
ĠT aste
Ġj elly
Ġpos ter
Ġwarm est
ĠF ast
Ġres id
Ġlong est
um ble
ix able
Ġturn out
Ġri bb
Ġimpact ed
Ġcons umption
Ġencounter ed
Ġmagic ian
Ġste er
Ġste wards
ĠFl ags
Ġbar s
Ġparticip ates
Ġaccur acy
Ġpe ppers
Ġacknowled gment
ĠDistract ions
Ġinappropri ate
ĠSeason s
Ġf ou
Ġc e
ad ed
ir y
ell ations
Ġread s
row s
Ġexpress ive
Ġrec reat
Ġign ite
Ġorgan ic
Ġbat hing
Ġreconnect ing
Ġinnoc ence
Ġprec ise
Ġscr ubbing
Ġairp orts
Ġreject ion
Ġaccord ingly
rel ated
Ġsamp les
d rop
k now
s ided
w renching
tan e
Ġqu it
Ġbr ac
Ġes capes
Ġmu ck
Ġimpr oper
Ġchalleng ed
Ġri g
Ġdri lls
ĠTr ade
Ġunin tention
Ġunus able
Ġoverc ast
Ġlin ens
Ġspeak ers
ĠWa ves
Ġguid ed
oc ating
ef fective
Ġhards hip
Ġpea k
Ġuncon tr
Ġseal ed
ĠFre quent
ĠCloth es
Ġt art
Ġs led
Ġo ct
Ġin ks
Ġre arr
ot ion
se ver
Ġaw ak
Ġad ore
Ġper sever
Ġwater ed
cour agement
Ġsho vel
pl ugs
Ġroo ft
Ġemp ath
Ġchar ged
Ġcomplic ations
ĠEn couragement
Ġstrang est
Ġlab el
Ġresolut ions
Ġvitam in
Ġoverfl ow
Ġblur ry
Ġvacu um
Ġmanufactur ers
Ġoct op
f ight
it ives
Ġto pping
Ġl aziness
Ġp aws
Ġo ily
Ġbe ating
Ġun ivers
Ġpr ank
Ġgr im
am i
Ġrain co
Ġexc l
ĠP ushing
ĠP oll
Ġcook er
ĠWe ek
Ġunf ixable
Ġsin cere
Ġshad ed
ew ing
Ġhead aches
Ġstrengthen ing
Ġpres ervation
Ġhous ing
Ġdrag on
Ġwag s
Ġrele ased
Ġfirm ly
Ġdroop y
Ġlux urious
ĠMet al
Ġham mers
Ġquant ity
Ġrig id
h ost
v iding
Ġb orn
at ch
Ġfe d
ar ant
un ks
Ġg eo
Ġbet ray
Ġex tern
ĠS pecial
ig g
Ġco con
Ġfo x
Ġrel eases
Ġdr ove
Ġdes ired
Ġadd itives
Ġear plugs
Ġcheck up
Ġthick ness
ĠG host
Ġcup c
ĠSp icy
ĠChild hood
Ġbare foot
Ġmail box
ĠPro viding
Ġom elet
Ġlink s
Ġtiss ues
ĠBelie ving
Ġsquish y
Ġunthink able
Ġfou l
b ought
Ġc ab
et te
ĠH air
ac ce
ick s
Ġcl ings
Ġwork days
ĠE mp
Ġbl aming
Ġloud est
Ġadd itions
Ġbusy ness
Ġmet ap
Ġsnow fall
Ġremin is
Ġhopeless ness
orn s
Ġdisli ked
Ġorig ins
Ġmistreat ed
ĠItal ian
Ġextern al
d ling
Ġthe ater
ĠT w
Ġj un
Ġv ill
to p
ĠRe covery
Ġback drop
ĠL oose
ĠIn sp
Ġunw illing
Ġheat s
Ġspark ly
ĠSun sets
ĠFear ful
Ġlur ks
Ġproud ly
Ġsqu ea
ĠBo ard
Ġport ray
ĠDig estion
Ġfatig ue
Ġnarrat ives
Ġthir sty
ĠBro ken
Ġmetap hor
an sp
Ġw iggle
Ġa ching
ĠI ron
Ġh ikes
Ġp al
Ġre nov
Ġun ad
st ress
Ġche ated
Ġgu arant
Ġback p
ĠL ow
Ġspot ting
Ġpop ulations
bo ards
Ġdialog ues
ocus ed
Ġintens ity
Ġstead ily
ĠLuck ily
b l
l ig
Ġp ed
Ġun fe
ad s
ent ials
Ġr uling
Ġde fe
Ġexp ands
Ġover he
Ġcomm ands
ĠF alse
Ġsk ipping
Ġmis led
Ġem ail
ĠIn ter
Ġmust y
ĠTr ansp
Ġsnea king
Ġvac ations
ĠMud dy
ĠExp erts
Ġassign ments
Ġwri ggling
Ġrein force
ĠMount ains
Ġce iling
fight ers
Ġl ush
Ġp it
Ġfr ying
ong s
Ġcl ubs
Ġafter t
ĠEx per
Ġtight en
Ġamong st
nam on
Ġtechn ical
Ġpun ished
Ġobserv ant
Ġvary ing
Ġsent ences
Ġseas ide
Ġannoun ced
Ġrekind le
acce ptance
e ed
Ġm ic
Ġh osting
Ġd en
ĠY um
os aur
Ġtr op
ĠH ome
Ġho pping
Ġv en
Ġcl ips
Ġbelie ves
Ġsky line
Ġvisit or
Ġdelicious ly
we ight
Ġfruit ful
Ġsimilar ities
Ġsepar ately
Ġloc als
Ġdin ers
ĠTea chers
Ġweak en
Ġvers ion
Ġdim mer
wr itten
Ġident ities
Ġbroad er
Ġreck lessly
Ġsurger ies
Ġlad y
Ġquir ks
Ġresched ule
Ġpean ut
Ġgossi p
T he
e ve
Ġout break
ĠS ongs
Ġup keep
Ġexp ense
ĠTh in
Ġmind fully
ĠR out
ĠB itter
Ġrest s
ĠO il
ĠG re
Ġfinish es
Ġbird house
rib ly
Ġpin ch
Ġstat ues
Ġsens ations
Ġpair ing
ĠCom ed
Ġunr avel
Ġcenter ed
c ommun
Ġp uri
un ction
Ġun le
Ġtr agic
Ġal oud
Ġimp atience
Ġes t
ove mber
Ġgl im
ĠL ook
Ġro asting
ĠN ovember
Ġpur ple
Ġstea ms
Ġtruth fulness
Ġdisrupt ion
Ġaller gy
Ġremark s
Ġorig ami
Ġflick ers
Ġrum bles
ĠRed ucing
Ġarom as
Ġwors ens
Ġcreak s
Ġfi ber
ĠAdjust ing
Ġinjust ice
Ġresh ape
Ġs ank
at ters
al led
om p
Ġsh immer
ĠH ob
ast ics
rat ions
Ġco ord
ap er
Ġmis beh
Ġuneas iness
Ġdri pping
Ġpoint ed
Ġfast est
amp s
Ġunb reak
Ġwitness ed
ĠcafÃ© s
Ġbarbe cues
Ġinit ial
Ġinfect ious
Ġassoci ate
Ġciv iliz
Ġatten de
Ġconstruct ively
Ġver ify
Ġshortc uts
Ġunsupport ed
ĠRet urning
Ġaftert aste
Ġunbreak able
Ġciviliz ations
l ove
Ġc aves
Ġr om
ĠW onder
Ġv oid
am b
ĠC ounting
Ġrain fall
Ġcompl iments
Ġadv ancing
Ġbed room
Ġpin s
orter s
ĠSm ells
Ġmot ives
Ġstuff ed
Ġadm ired
Ġeconom ies
ĠCom forting
Ġproced ure
Ġaccord ing
Ġtel eph
Ġminim ize
Ġsled ding
Ġattende es
Ġs ill
Ġc ent
Ġc ells
ell ents
ree ing
Ġless ens
ĠB ig
Ġri ders
ĠG ifts
Ġflav ours
fl ow
ĠK n
Ġrep ellents
Ġdin osaur
Ġbirth s
Ġpun ishing
Ġdeter g
Ġappropri ate
Ġcin namon
Ġunfe eling
b ows
l ists
m en
Ġy arn
ĠIt s
os ion
Ġtr im
Ġho ver
ant ic
Ġcon siders
ĠM ark
iz able
ĠC ooper
Ġcheer ed
ĠL em
Ġatt acking
Ġunf l
Ġmatter ed
ĠSt ud
Ġrece ives
ens ely
Ġfire fighters
Ġmar ry
Ġtooth p
Ġeyes ore
aren ts
oop s
Ġdecre ases
Ġcomput ers
Ġadvoc ating
Ġsuff ocating
ĠStea m
Ġlifel ike
Ġcarto ons
Ġmush rooms
Ġtranqu ility
Ġcoun cil
Ġcocon ut
Ġbackp ack
ĠHob bies
m ons
p repared
ing er
eo p
im ental
ot es
Ġtr ashy
Ġex act
ĠW ise
Ġstr ings
Ġrem ote
Ġfl apping
Ġwr inkles
Ġhold er
Ġchar ger
Ġess entials
Ġadapt ability
Ġclass ical
Ġsour dough
ĠNot icing
Ġcontain ed
Ġunrecogn izable
Ġsusp icious
Ġworksp aces
Ġblind ly
Ġwhisper ing
aintain ed
Ġimm ensely
Ġfortun ate
Ġdescrib es
Ġnur ses
Ġcong ratulations
ĠComed ies
ĠCooper ation
i ally
v ous
w ashing
it r
re ds
Ġd ense
ent ing
Ġtr unks
Ġstr ay
Ġdown p
Ġbl aring
Ġmis chie
um in
Ġview er
Ġpar ades
Ġpoll ination
Ġunthought fully
ĠPr ose
Ġadm irable
ĠAg reeing
ex p
iment ing
Ġtel es
Ġspar ked
know n
Ġteleph one
Ġmischie vous
ut ure
Ġhelp er
Ġr opes
Ġhard working
Ġco des
ĠF uture
Ġgl iding
Ġrelax es
ĠC ustom
Ġro ars
Ġsleep less
br oken
Ġeduc ated
ĠG ri
Ġdust ing
Ġchar ity
ĠUn kind
Ġter ribly
ĠOver coming
cover ed
Ġchew ed
Ġroam ing
Ġanticip ate
ĠInst ead
Ġrecreat e
tane ous
ĠPoll ution
ĠRout ines
g ers
h appiness
r al
ar ity
ĠT oy
ell a
ol ic
ĠS elf
Ġapp lications
ĠL oss
Ġforget fulness
Ġcont ents
Ġsnow storm
ĠG ener
Ġins ens
Ġsimpl ifying
Ġshift ed
Ġfamiliar ity
Ġfrag r
Ġuncover ing
ĠReg ret
Ġtow ers
ĠSur ely
Ġarrange ment
Ġharmonious ly
Ġdisorder ed
ĠMar riage
Ġmang o
Ġinf uri
Ġharves ts
Ġgoo ey
ĠDecor ating
Ġunad dressed
Ġt ing
Ġf isher
Ġb ust
Ġp ose
Ġst acked
Ġsad den
ĠS k
ĠR ushing
ĠRe flect
Ġexpl ores
ĠB ugs
Ġsn iff
Ġrep ul
Ġsuc cul
Ġoverc ame
Ġbat tling
ĠComfort able
ĠPos itivity
Ġhund reds
Ġmoisturi z
ĠNeg ative
Ġdistaste ful
ĠAppreci ating
ĠLem on
Ġinfuri ating
c ure
l ived
v i
Ġw ired
Ġm alf
Ġg azing
Ġsh one
Ġch ess
ĠW inning
Ġag rees
Ġaw ard
Ġheal er
ĠF ree
Ġres ur
ĠC row
Ġenvironment ally
Ġsl ush
Ġman ual
Ġdisgusting ly
Ġgam ing
Ġsn apping
Ġru led
Ġdelight ed
Ġpump kin
Ġinteract ing
Ġacid ic
Ġswe ating
Ġcontribut ing
ĠAc id
ĠConf usion
Ġshowc asing
Ġcas ually
Ġintr icate
Ġresid ue
Ġpersever ance
ĠExper imenting
g iving
i um
r ough
u led
an es
et ics
ic ting
Ġun ripe
ple x
Ġmake up
Ġle mons
Ġshould er
ĠM ine
Ġwr est
ign s
Ġsw eep
Ġreg ion
Ġte ch
ĠG rateful
Ġgent ler
Ġmar gin
Ġmain ly
Ġbuy s
Ġfoot step
Ġaddition al
Ġrev ol
organ ization
Ġevol ved
Ġrepl aces
Ġvol c
ĠCho ices
ĠSl owing
Ġther ap
Ġscur rying
Ġtrump et
b ting
f ashion
o ly
v iew
in o
Ġm ouse
Ġin exp
out ing
Ġre h
id den
act ory
Ġrel ied
ĠEx c
Ġno on
Ġcr unching
Ġman ip
ĠIn k
Ġstick ier
Ġrest room
Ġsch em
Ġcomple ment
ĠUn pleasant
Ġoverl o
Ġpair ings
Ġreass ure
Ġarr anging
ĠSc issors
Ġsan itiz
Ġsincer ely
ĠMyster ies
fashion ed
Ġm ig
Ġp ity
Ġsom ber
Ġcle ared
em ed
Ġcare t
Ġinst all
ĠP le
Ġgloom iest
Ġwatch es
Ġfre er
Ġmar ching
Ġunwelc omed
Ġlaw makers
Ġcanv ases
ĠSu gar
Ġrequire ments
ĠDis gust
Ġunn ice
Ġdestroy ing
Ġindividual ity
ĠOrgan ization
aware ness
Ġjun gle
r icult
u ilt
Ġf if
Ġd iving
Ġag ricult
est ic
Ġcal ories
ĠSh outing
Ġmon it
Ġsleep s
Ġsepar ating
Ġexam s
Ġrechar ging
Ġspeed y
Ġsent imental
Ġtiss ue
Ġtablecloth s
ĠThought s
abl eness
Ġcab in
commun ication
Ġmargin s
n iest
Ġan al
Ġthe ft
im s
un e
pr om
act s
ĠSom eone
Ġchang eable
ĠF at
ĠR ising
Ġcho p
Ġexc ites
Ġpre y
Ġcompl ains
tr ess
Ġsw elling
Ġwater proof
ĠIn v
Ġuncomfort ableness
Ġsecure d
Ġpop ulation
Ġbear s
Ġscent ed
ĠStrong er
Ġexhib itions
Ġchew y
Ġunli k
Ġfu els
Ġunac c
Ġcritic ize
ĠPresent ing
Ġterr it
ĠGener ally
a ple
f s
f ish
m ath
t w
us hy
Ġd ip
Ġe arning
im age
oo led
Ġun eng
ind ucing
Ġr usting
ĠD ay
ĠH idden
Ġpl astics
Ġbr u
Ġseem ing
act ions
Ġafter math
ign ed
Ġcr op
Ġpoor er
Ġswim s
ock s
ont ent
Ġreveal ed
ĠCo ffee
lph in
Ġtur tles
Ġpra ised
Ġtarn ish
fr eshing
Ġdom inate
Ġunfl attering
b on
m aintained
n els
Ġ u
Ġt u
in ating
in ated
Ġin mates
Ġin effective
Ġg inger
Ġdo lphin
ĠD ead
ol id
Ġsp on
Ġle is
Ġget away
Ġapp lying
Ġres istance
Ġmat tress
ĠL iqu
Ġcar bon
Ġinv itation
ab ilities
Ġdepend ency
ĠSo ap
Ġmar ked
Ġlunch time
Ġunat tended
Ġmaj estic
Ġdece ive
Ġlog ical
Ġuncom fy
Ġimperfect ions
ĠBreak fast
Ġine quality
ĠLiqu id
m ark
er ence
Ġf urious
Ġf izzy
Ġg ir
Ġup gr
th rough
Ġsc oop
Ġgr ounds
Ġcare gi
Ġheal ed
ĠC oming
Ġla bor
Ġsweet en
Ġeat ers
Ġsecret ive
Ġdull er
Ġfiction al
Ġstreet lights
Ġstem med
Ġbrush ed
Ġbrother s
Ġint act
Ġreli ance
ĠStar s
Ġfrag rance
ĠRain bows
Ġcharacter istics
ĠCl arity
ĠDis tance
Ġempt ier
Ġsensation al
Ġexagger ated
ĠMor ning
ĠMor nings
Ġmagaz ines
ĠDes ign
Ġnood les
sight ed
ĠBus y
Ġperman ent
Ġcupc akes
Ġreinforce ment
Ġpuri f
Ġdownp our
v ate
Ġp ants
Ġma ze
Ġfr ayed
Ġgr it
head ed
ĠB an
Ġpo ke
Ġtast eless
lic ated
ĠSt orm
ĠSh utting
Ġdri ps
Ġfascin ated
Ġbas es
Ġreco vers
Ġland ed
Ġapproach ed
Ġsched uled
Ġhygi enic
Ġgain ed
Ġbowl s
Ġchem ical
Ġinconven ience
Ġgreed y
gr own
Ġlux ury
ĠPre par
Ġintro duce
Ġmang oes
Ġuntruth ful
Ġtemp ers
Ġunburden ed
ĠDa isies
Ġresur face
c r
g ens
Ġ ir
Ġc itr
Ġm im
Ġthe at
ul ting
ĠH as
Ġcom prom
Ġsp ins
Ġag ing
ĠS igns
th emed
ĠM atching
Ġexp iration
ĠTh rowing
olut ion
de f
ĠR ules
Ġspir al
Ġpo isons
Ġref ocus
Ġunh arm
Ġfar ther
Ġclos ure
Ġocc upied
ĠSm art
Ġmass ive
ĠFl at
ĠCl imate
Ġpasseng er
Ġoverp ower
sm ooth
Ġgreet ings
ĠSimpl er
Ġfortun e
Ġwob bly
ĠWeek ends
Ġfif ty
o ff
Ġre n
Ġun self
ĠT ests
ent ially
ves ted
il ts
Ġcal end
Ġdark en
Ġdr um
Ġcompl iment
Ġview ed
Ġpath way
Ġteam mates
Ġhot els
Ġpot entially
ĠEvery day
Ġadapt ed
Ġsail bo
ĠWith out
ĠSm ashing
Ġsched uling
Ġrat ings
Ġneighb our
Ġsqu ished
Ġaller gens
ĠAd vertis
Ġcounter act
Ġcrash es
ĠSil ence
Ġemploy ee
Ġflu ct
Ġaccomplish ments
Ġiniti ally
Ġuncom forting
Ġcourageous ly
Ġfri dges
Ġmelanch olic
Ġoctop uses
ĠInsp iration
ĠKn itting
ĠPle ase
ĠBan an
ĠPrepar ation
v als
Ġh iring
Ġun av
Ġsh or
ple d
Ġr asp
Ġgood ies
ain t
pr esent
ound ing
Ġfa me
now led
ack nowled
Ġbl ink
Ġwr inkle
av ored
Ġlea p
ĠB read
Ġrun ny
Ġmor als
Ġpower fully
Ġacc ounting
ĠTr ash
Ġrough er
Ġsnow ing
Ġround ed
Ġdro ppings
Ġattempt ed
Ġdispl aying
ĠCommun ities
Ġconsum er
Ġadop ting
Ġlivel ier
Ġais les
Ġconvin ce
Ġuncontr oll
ĠTransp ort
ĠToy s
Ġschem e
Ġunself ish
j ud
Ġc ul
Ġan ch
Ġd izzy
Ġwe ave
Ġdis organization
Ġover ripe
ace ful
Ġapp reh
Ġinv ited
Ġinv ading
ull ing
ĠSt amps
Ġcher ry
Ġcozy ing
Ġprov ider
Ġdream y
Ġtooth brush
Ġsmash es
Ġsurv iving
Ġz oom
ĠComp assion
Ġunthinking ly
Ġearn ings
ĠSurpris ing
Ġtank s
Ġmixt ures
Ġfreshen ers
Ġretr ace
Ġdescrib ed
ĠMold y
Ġrom antic
Ġmalf unction
Ġcaret akers
Ġagricult ure
Ġc ous
Ġh ates
Ġin vested
Ġre do
Ġst umble
ĠT ur
ir ations
Ġch art
Ġr in
ĠD ro
Ġfr y
pr ints
ĠM aps
Ġwish ful
ĠF ri
ĠP op
Ġanger ed
ĠDe aling
Ġcons ult
Ġshort age
Ġgray ness
ĠSmall er
Ġgrab bing
Ġbri ll
Ġunse cure
Ġredu ction
Ġaggress ively
Ġcontext s
ĠEs pecially
Ġoutweigh s
igg les
Ġven ue
ĠGre y
Ġtu cked
ĠBanan as
acknowled ged
[ /
Ġs ands
it age
Ġto il
Ġy e
Ġbe ak
Ġfor mer
id iness
Ġne cess
Ġne ither
Ġout er
ĠS ewing
pect ful
act ors
Ġwarm ed
Ġunc ons
Ġbu ddy
Ġcr ay
ĠP acking
Ġbreak through
Ġpo pped
Ġhand washing
iqu ette
Ġher itage
Ġuplif ts
Ġfat ter
Ġstretch y
Ġbree zy
Ġcontrib ution
Ġscrat ches
Ġunsatisf actory
Ġbul b
ĠSli pping
ĠFair ness
Ġet iquette
ĠWonder ful
Ġsanitiz er
def ense
ĠDro pping
Ġuncons cious
g l
n uts
Ġp ub
Ġo we
Ġy ield
Ġst up
Ġsh attered
Ġr it
ĠD ucks
ĠH ats
ĠW as
pr iced
Ġk its
Ġstr oke
ĠS tand
Ġlight weight
Ġsupp li
Ġsw am
ĠSt rength
Ġpass w
ener gy
Ġris en
Ġcontin ually
Ġoverlook s
Ġchar ities
ĠSun days
fic ient
Ġcir c
Ġinnov ate
Ġscrat ching
Ġcliff s
Ġpaus ing
Ġsket ch
Ġhover ing
Ġinsens itive
Ġstup id
Ġsuppli ers
' d
d ri
f fin
is cu
tant s
Ġun acknowledged
Ġst airs
Ġfear less
ĠM ixed
Ġde ck
Ġapp l
ĠP ulling
Ġopen ings
Ġrest ored
Ġprot esting
Ġsal on
Ġdisc ontent
Ġcult iv
Ġspeak er
Ġperform ed
Ġhat red
Ġattem pting
Ġsto cked
Ġrock y
Ġbump ing
Ġflood ed
Ġvet er
Ġlamp s
Ġtyp ical
Ġinsecur ities
Ġrooft ops
Ġtherap y
ino a
Ġterrit ory
Ġcul inary
ĠStand ing
d ra
e ves
w ill
is or
Ġl ap
ent le
ĠH oney
Ġex isting
ble ms
Ġclean ups
ead ers
ĠE v
Ġche at
Ġend ang
Ġstress ors
Ġpast s
ĠG entle
Ġspot light
Ġprov iders
Ġcrack ling
col ored
Ġpuzz led
Ġrecommend ation
Ġcross es
ĠOr nam
Ġbak er
Ġinvent ed
ĠPro blems
Ġmistreat ment
Ġsociet al
Ġassoci ated
Ġoccurren ces
Ġrainco at
ĠLemon ade
Ġfootstep s
us ement
Ġre duced
Ġpl atter
ĠA uth
Ġang ri
ĠF ertile
oom s
ĠC apt
Ġweek day
Ġdes erved
Ġsl am
ear s
Ġda iry
Ġend urance
Ġbeh old
Ġhot test
Ġcor n
fl avored
Ġblack board
Ġdrop lets
Ġleg al
Ġdistrib ut
Ġunappreci ative
Ġskill ful
Ġgrab bed
Ġsore ness
Ġunl ucky
Ġsustain ably
Ġnap kin
Ġhesit ation
Ġcud dly
Ġfrown s
ĠRep air
ĠCompl eting
Ġinterfer es
Ġsquir ming
ĠAm usement
atch able
ĠInter esting
Ġdeterg ent
ĠGrateful ness
Ġbrill iant
Ġb iscu
it ations
re ach
Ġfor ese
ple ment
Ġr eop
Ġev olution
Ġcon fin
est ri
ag n
Ġrain storms
Ġsol ace
gg le
ĠB ees
Ġsn aps
Ġfly ers
Ġsharp en
Ġbur gers
ens ion
Ġsand als
Ġnarrow er
Ġorder ly
ĠSp illing
Ġnet work
ĠJ am
Ġsell er
Ġtrans actions
Ġdescri ptions
ĠQu ite
Ġtempor arily
Ġscrat ched
Ġsacrif ice
Ġnavig ation
Ġbless ing
Ġstew s
Ġspa cious
ĠSchool s
Ġaccum ul
Ġtyp ically
Ġbrac elet
Ġcray ons
gl ass
Ġforese e
in a
Ġs ways
Ġwe b
Ġre appe
Ġst acking
pp y
Ġj e
Ġbr oth
Ġgood will
Ġup b
Ġmu ffin
Ġsc ro
Ġinter tw
Ġcomm er
Ġgl ows
Ġmat ing
omfort able
Ġfin ance
fit ting
Ġpick les
Ġexch anged
Ġcost ume
Ġboard walk
ĠFresh ness
Ġlur k
Ġreplace ments
Ġass ess
od ils
ĠCon sider
Ġrob ins
ĠCelebrat ions
Ġexhaust ion
Ġtoler ance
des igned
Ġlivel i
Ġcarto on
Ġped estri
Ġwrest ling
Ġmim ic
d ream
ou bt
Ġp ou
Ġn aught
ut ral
ĠH is
ĠA iming
st art
Ġv irt
Ġwork flow
Ġcomm otion
ĠRe ce
Ġcr aving
Ġda ff
Ġcur ry
Ġroo ted
Ġknot ty
Ġvar i
ĠPl ay
ĠUn fair
Ġkn it
Ġsuffer ed
Ġnation al
izz as
ĠBl ood
Ġunfor giving
ĠEng ine
Ġprec ision
bal ance
Ġremo val
ĠPri vate
amel eo
Ġempath ize
Ġdefe ated
Ġtoothp aste
umin um
Ġsuccul ents
Ġappreh ensive
Ġtoil et
Ġpedestri ans
Ġnaught y
Ġ ult
is ty
Ġm ere
or al
Ġp ounds
Ġbe ams
Ġg ates
Ġst ol
Ġdo ll
Ġim plement
Ġdis put
Ġpr ic
est ry
Ġres orting
Ġhealth iest
Ġunc ared
ĠEx pect
Ġmis communication
Ġreal ization
ist ry
Ġunw inding
Ġsn ugg
Ġquestion able
Ġrun ners
Ġdri zz
Ġinc omes
otiv ation
Ġvo cal
Ġill ustrat
Ġtrain ers
Ġunapp ro
Ġelastic ity
Ġdoubt ful
ific ations
Ġmilk sh
Ġrefresh ment
Ġprin ci
Ġsens itivity
Ġaim s
Ġspl atters
Ġunres pectful
book s
Ġcrum pled
Ġvent il
Ġtur tle
Ġung r
Ġsmo kes
Ġrepet ition
Ġimm une
Ġunivers al
Ġprank s
Ġrevol ting
Ġspon taneous
Ġpurif iers
ĠStorm y
Ġcous in
Ġstol en
Ġdisput es
r ich
Ã ±
is ely
Ġw iring
Ġsh ivers
ĠH and
Ġal uminum
Ġar med
Ġv ig
Ġpos ts
Ġclean ly
ĠL eaders
ĠIn vesting
Ġtrick ing
Ġcons erving
Ġshort s
Ġriver side
Ġtw igs
Ġphys ics
Ġcomplic ates
Ġmotiv ator
Ġleg ends
Ġmeasure d
Ġtang les
Ġcrash ed
ĠRegular ly
ĠMess es
Ġsle eves
Ġtransparen t
Ġdesert s
Ġsub tle
ĠAny time
Ġsmud ges
ĠTreat ing
Ġting le
Ġinexp ensive
Ġgrit ty
l ete
t imes
Ġd ies
Ġd ice
Ġp oth
Ġp izzas
ten ing
ound ed
eri enc
Ġmood y
Ġnews p
Ġpers ist
Ġunf ocused
press ure
Ġstick er
Ġcolor ing
Ġworth y
Ġmar ath
Ġcir cul
ĠPr ot
Ġrust ed
Ġdecre asing
Ġfu zzy
Ġwrapp er
Ġath lete
Ġdiscour age
Ġcollabor ating
Ġtap estry
Ġorigin ality
Ġguarant ee
Ġleis ure
ĠAdvertis ements
Ġappl ied
ĠEv ents
ĠCapt uring
Ġupb ringing
er en
Ġw eren
el ets
on i
Ġd imming
Ġfor cing
Ġse ctions
ur able
Ġj ars
if ies
Ġqu inoa
Ġfl ap
ĠF actors
ĠC ont
Ġmusic ian
ud ed
ĠSt e
Ġrest ock
Ġfound ations
Ġpass age
Ġcons ent
Ġheat er
Ġeduc ators
Ġdig s
Ġunm et
Ġodd ities
Ġcour ses
Ġenter ed
Ġsister s
Ġpres erved
Ġclutter ing
ĠAnim al
ĠEar ly
Ġflour ishing
Ġsink s
ĠSur round
ĠComp licated
Ġannounce ments
Ġcoord ination
Ġcalend ar
ĠTur bulence
Ġangri ly
ĠProt ests
d is
d oubt
es ome
Ġbe e
ct ar
oo ts
Ġun broken
Ġst aple
Ġne utral
Ġne ctar
Ġtr aged
Ġgood night
ĠA p
Ġagree ing
Ġover d
Ġover do
ĠE f
ĠR ivers
Ġback ward
Ġsw itching
Ġsl icing
ool s
ĠB ub
Ġhur ried
ra f
Ġmil est
Ġcoll aps
Ġpi Ã±
ĠSp ong
Ġtim elines
ĠBo ats
ĠImprove ments
int age
Ġmish and
Ġvill age
Ġcaregi vers
g rap
l ands
o vable
Ġm ul
Ġh ay
al nuts
Ġin h
ĠY ear
Ġun pl
ot hy
Ġst abil
Ġsh rinking
ir st
Ġch ases
Ġtr amp
ig gling
Ġsmall ness
ie ce
ĠTh underst
Ġdown wards
wn ers
Ġanim ated
Ġinv itations
Ġold est
ĠSt art
ump s
Ġbur y
Ġuns olved
Ġtw isty
Ġill usion
ew s
Ġve ins
Ġvalid ation
Ġlinger ed
ĠFresh ly
rep air
Ġstir s
Ġheight ened
Ġbold ly
Ġdef ense
Ġsent iment
Ġfestiv ities
Ġcud dling
ĠFin ishing
Ġmechan ics
Ġcommut ing
Ġimproper ly
Ġunlik able
Ġmuffin s
f alls
Ġt ending
Ġc one
Ġm unching
Ġd anc
Ġd ug
Ġp eeking
Ġwh olesome
Ġst akes
der ing
Ġr age
Ġcom bing
Ġal t
ol ine
Ġseem ingly
Ġpr os
ĠM otivation
Ġgo at
Ġsc ams
ĠP arents
Ġhum bling
ĠG u
ĠU p
Ġskin s
Ġalm ond
Ġrelie ving
Ġform ations
Ġforg iving
Ġmotiv ations
Ġob lig
Ġreview ing
Ġbri e
Ġembarrass ment
Ġgrad ual
Ġgrandm a
ĠPro gress
ĠCons tant
Ġcigaret tes
Ġgeo grap
ĠTw isting
Ġmic row
Ġlady b
ĠStud ying
Ġcomprom ise
Ġpric eless
ĠBub bles
ĠThunderst orms
s aving
u ary
w atching
Ġt iles
Ġth orns
Ġa ver
Ġf umes
Ġc asting
Ġc osting
Ġan k
ar ting
ar ella
Ġbe et
Ġre ign
Ġthink ers
Ġtr imming
Ġbr ows
Ġsp ells
rat ing
olut ions
Ġunc atchable
to ld
Ġnormal ity
Ġweek ly
Ġdes ks
Ġper plex
ĠP asting
Ġel im
Ġchat ted
ĠSt ores
ĠSh iny
Ġunder cooked
Ġrece iver
Ġmoon lit
Ġgross ness
Ġins in
Ġbread s
Ġdevelop ers
zz arella
Ġoper ates
Ġclass ics
Ġpun ct
Ġcooper ating
Ġskill fully
ĠFrien dly
Ġfunction ality
Ġspl end
Ġrum ble
Ġvac c
Ġalb ums
Ġknock s
Ġreject ed
Ġnarrat ive
Ġtrem ble
Ġmagaz ine
ĠTreat s
Ġelev ate
Ġed ible
Ġrit uals
ĠJam ie
Ġvig il
a id
f iction
Ġf oss
Ġto aster
Ġp unch
ar es
Ġun wh
Ġsh ores
Ġfr og
Ġqu otes
Ġlo oms
Ġcomm ute
Ġdr aft
ire ct
ĠB ud
Ġro ast
Ġsn ails
ĠCh amomile
ĠSt ains
Ġlow ers
Ġatmosp her
ĠUn p
Ġcompet it
Ġcelebrat es
oot ed
Ġrepresent ation
Ġdrive way
Ġtend encies
Ġscient ist
Ġthoughtless ness
Ġintim acy
Ġchem istry
Ġsuper her
Ġsib ling
Ġoverreact ing
Ġfert iliz
Ġwhist ling
Ġmisbeh ave
ĠInv entions
ĠOrnam ents
Ġult imately
ĠSurround ing
ĠSpong es
g reat
m ast
Ġt ours
in ct
in ery
Ġth ief
us ions
re et
Ġst im
ĠT idy
Ġch ameleo
Ġag ed
ag ging
ĠR o
ĠR ust
ĠR oses
Ġgl immer
Ġmis inter
ĠC are
Ġair y
Ġeffort less
Ġart if
Ġexcited ly
Ġmeaning less
Ġdangerous ly
Ġflat ness
Ġsail or
Ġcraft ed
Ġscar ce
Ġclever ly
Ġcharm s
Ġapparatus es
Ġuntr ained
Ġsports manship
Ġscre w
Ġpurch asing
ĠSto pping
Ġted dy
Ġfatig uing
Ġuninsp iring
Ġhi kers
Ġow ls
Ġribb ons
Ġbust ling
Ġdaff odils
ĠExpect ations
Ġank le
Ġreign ite
Ġsplend id
o ons
p ath
s her
Ġw alnuts
Ġb unch
re eable
Ġl acked
Ġun pe
Ġch ased
os m
Ġk ill
Ġsa p
Ġam b
ĠS ud
ĠS olutions
Ġv oting
Ġcomm utes
Ġbelie vable
Ġsupp lier
ĠL im
Ġbus iest
Ġunf ounded
Ġhar sher
Ġstru ck
ĠCh ick
Ġsoft est
Ġsoft ware
Ġwet ter
Ġtight ening
redict able
Ġmach inery
Ġunm ovable
Ġins tance
ific ation
Ġclim bers
Ġtext iles
Ġcomplain ed
Ġemer ging
Ġdescri ption
Ġhighlight ed
Ġsorrow s
Ġversat ility
Ġabsor bing
Ġhaz ard
Ġearthqu ake
ĠResear ching
Ġuninsp ired
Ġexcl uded
Ġmanip ulate
Ġpassw ords
ĠEngine ers
Ġgeograp hy
ĠSud den
c ra
m are
s th
Ġf iling
es p
as urable
Ġb amb
Ġe p
ic eable
ed ing
Ġre j
Ġst er
her s
ĠT ooth
ĠT ools
ĠT raf
Ġtr apping
Ġwor ming
ĠH ere
ĠM agic
Ġta b
Ġaw esome
Ġmind ed
Ġfo am
Ġdr ought
ĠC le
Ġnight mare
Ġdes per
Ġsw oll
Ġoverwhel ms
Ġri pped
Ġstory lines
Ġfir sth
Ġjoin ts
Ġcheck ups
Ġcloud iness
Ġunknow ing
Ġret reat
Ġprepared ness
Ġperform er
Ġband age
Ġthrill ers
Ġluck ily
ĠAn x
Ġrelig ious
Ġcop ying
ĠSp iders
ĠV enting
ĠChe fs
Ġtun nels
aff es
Ġunnot iceable
Ġmad ness
Ġelect ion
ĠLight ning
water ing
Ġcand id
Ġharb ors
ĠBeaut y
ĠLike wise
Ġdesert ed
Ġshoel ace
Ġunintention ally
Ġawak en
Ġtrop ical
Ġrepul sive
ĠFri day
Ġvirt ual
dis covery
Ġperplex ing
Ġbamb oo
ĠTraf fic
Ġswoll en
Ġfirsth and
b aked
Ġs ons
Ġf aint
us ual
Ġc osm
Ġd il
Ġfe ast
Ġin action
ri ages
Ġout age
Ġv intage
ation al
Ġres istant
um bers
Ġback fires
ĠL oving
Ġcomplet ion
Ġcareful ness
Ġdeal ings
ĠDe velop
Ġdri ven
Ġsharp ening
Ġtool box
ĠK not
Ġfalse hoods
Ġbegin ner
Ġess ence
Ġmeasure ment
Ġrush es
ĠPr ices
Ġunch anged
ĠWarm th
Ġdim in
wor ld
Ġreass ured
Ġdecre ased
Ġbloss oming
Ġnour ishment
Ġstream s
ĠCr acking
Ġdisconnect ion
ĠNe ither
Ġuntruth s
Ġsuperv ision
Ġvalley s
ĠEmp ty
Ġfisher men
Ġmoisturiz er
Ġveter ans
Ġmarath on
Ġmisinter pret
Ġartif acts
n atural
r anging
Ġc ore
Ġd aring
Ġp aw
ct ors
Ġun told
ce ptions
ĠW ood
ĠW aste
ol ent
ite ment
ĠF irst
Ġsk ate
Ġgl itter
Ġbu dge
eng u
app ier
Ġdel aying
gg ed
Ġshin ed
Ġdec ency
Ġart is
Ġrespon sive
Ġrough ly
ond ition
Ġhon oring
ru cture
Ġunhelp fully
fit i
Ġmin ers
Ġtransp orting
ĠUn usual
Ġpump kins
Ġperform s
Ġfoot prints
Ġenter s
Ġju ggling
Ġaim ed
Ġwarn ed
Ġcontribut ed
ĠOn line
Ġuntan g
ĠLong er
ĠCal ming
Ġdece it
Ġmut ed
Ġspar rows
abil itation
Ġcommut ers
Ġcigaret te
Ġfragr ant
ĠExc itement
Ġcitr us
Ġsailbo at
present ed
Ġuncontroll able
Ġcultiv ate
ĠSte pping
Ġbrows ing
e at
Ġf ries
es ter
as er
Ġto othy
Ġg iggles
our age
Ġst all
ĠT ired
ĠT ying
ea pp
ĠW aking
Ġor ch
Ġsp ends
Ġday dream
ĠS afe
Ġgr am
Ġcl ocked
end able
ĠC ourage
Ġenv el
tr ust
Ġwater y
Ġown s
Ġmoment um
Ġcommon ly
Ġfriend liness
Ġdec line
Ġro de
Ġru g
ĠSt reet
Ġground ing
Ġmoon ing
Ġskin care
Ġburden ing
Ġcount ed
ĠLe ft
Ġbra vest
Ġchalk board
Ġtruth fully
Ġdiscomfort s
Ġtext s
Ġgri eve
Ġscar s
cast s
ĠOver thinking
Ġunbal ance
Ġdim med
Ġwan ders
Ġban ners
Ġsplash ed
ĠLight er
ĠComp et
ĠRelax ation
Ġuneven ly
Ġbroad ens
Ġsunb ea
ĠDou bts
Ġnood le
Ġreh abilitation
Ġren t
ĠRepair ing
Ġunappro achable
Ġventil ation
Ġmul ch
Ġaver age
Ġelim inate
Ġunpe aceful
Ġartis ans
' .
, "
c ent
r ors
Ġf ellow
ĠI de
Ġp and
Ġst if
Ġim balance
fe ine
Ġqu ilts
Ġpr iced
Ġlo om
orm ing
Ġless er
Ġquick en
Ġbl ast
Ġplay lists
Ġheart ache
Ġback fire
Ġamaz ement
ĠL ost
Ġcr ises
Ġsol ely
op en
Ġown ed
ĠB uild
ĠLet ters
Ġbur ger
Ġind ul
Ġoppos ites
Ġrat tle
Ġtim ers
Ġdre w
Ġwrit ings
Ġhill top
Ġaller gic
Ġboun ces
Ġcanc ellations
Ġunlock s
Ġbak eries
Ġoptim ism
Ġflu id
Ġpartners hips
Ġpea ks
Ġmish ap
Ġdroop ing
ĠDisappoint ments
Ġreun ion
Ġciv il
str act
ĠCustom ers
Ġanch or
Ġliveli hoods
ĠRece iving
Ġprinci p
Ġoblig ations
Ġvigil ant
Ġatmospher es
Ġep is
c onf
c opes
p ower
r ot
Ġt ipping
in sp
Ġab stract
ur p
ep t
Ġcon fined
ĠS our
ĠM ars
Ġpro ceed
Ġact or
Ġv ir
Ġcomm endable
Ġdark ens
Ġmo zzarella
um m
Ġcar go
Ġlighten ing
Ġhar vesting
Ġinsp irations
Ġtop s
Ġcloud ing
ĠK issing
Ġpriv ately
Ġlif esp
Ġcollect ively
Ġtick le
Ġadjust s
Ġobs erved
res pect
Ġhammer ing
Ġcompar es
Ġsooth es
Ġlower ing
Ġvib rations
Ġawkward ly
Ġcen ters
Ġdrown ing
Ġbever age
Ġdisple asing
Ġkitten s
Ġuntang led
Ġgram mar
h ot
p se
Ġs ang
Ġth unders
Ġw ip
Ġc ables
el ier
Ġm oo
Ġh oops
Ġl inking
Ġbe an
Ġg ases
Ġma pped
ch ief
Ġdis repair
Ġup right
Ġfun niest
Ġover time
Ġdown hearted
Ġgl ued
ĠC ough
ĠC ush
Ġguess es
Ġbook st
ub es
Ġdisco vers
Ġro ar
Ġaut om
Ġgener ate
ĠG o
Ġunt idiness
Ġvo c
Ġill usions
Ġjo king
Ġdream ed
ĠMe asuring
Ġsepar ates
ĠUn ity
Ġsoap y
Ġhy pe
Ġcart on
Ġpriorit izes
Ġneglect ful
Ġcaf feine
Ġartist ry
Ġspr ings
ĠSail ors
Ġremo ves
Ġappli ance
Ġcap abilities
ĠSurpris ingly
Ġnon stop
Ġenthusi astic
Ġsmo ked
Ġunaccept ed
ĠCr ime
Ġcreak y
Ġexplor ations
Ġceremon ies
Ġlog ically
Ġintro duced
Ġpepper oni
Ġreun ite
ĠThought ful
Ġtempt ations
Ġrearr ange
Ġreminis cing
Ġstabil ize
ĠCush ions
i ation
u ven
Ġ iv
an cial
Ġw ither
Ġn amed
Ġst umbled
ĠT ri
ĠS orting
ĠA chie
ĠF oot
ĠF orming
Ġsk i
Ġunc ondition
ĠC ur
ĠC atching
ĠP ilots
ĠB ent
ĠCh a
ĠCh alking
sibil ity
Ġunclean ed
Ġdist inct
Ġins ulation
Ġcard board
Ġpowder ed
Ġupd ating
Ġconst ellations
Ġsteep er
Ġparticip ated
oc ad
ĠConnect ions
ĠOr dering
Ġdeliver ing
Ġdrift s
Ġchees y
Ġloos er
Ġtrail er
ĠLong ing
Ġroller co
che cking
Ġbul bs
ĠItal y
Ġpaus es
ĠFin ancial
Ġrenov ations
Ġoutbreak s
Ġanal y
Ġbiscu its
Ġpoth oles
Ġtramp oline
ĠChick en
Ġrej uven
Ġiv y
u it
u zz
Ġs ings
Ġc ure
et ely
Ġwh ale
ĠIt ems
em ic
arm ony
Ġfl oral
ĠF ail
Ġheart beat
Ġread ings
ĠRe building
Ġoverwhelming ly
Ġmonth ly
Ġsing ers
Ġpur ring
ĠSo fter
Ġdou bting
Ġhollow ed
Ġcream iness
Ġer osion
Ġprin ters
Ġneat er
Ġhun ters
Ġdisag reeable
Ġcraw ls
Ġsens ors
Ġdre ar
Ġtang le
ĠMo on
Ġdent ists
Ġsent ence
io x
Ġpost c
Ġsuper mark
Ġstream ing
ĠBr ushing
ĠDel icate
Ġpartners hip
Ġsub m
ĠCompl etely
ĠAny way
Ġdisple asure
Ġinsecur ity
Ġow l
Ġreminis ce
Ġrasp berries
Ġpou red
Ġdil ig
conf idence
p ul
er o
Ġm unch
Ġp ig
Ġp engu
om forting
le vel
Ġbe ef
ic ts
ĠT ang
Ġse aw
Ġr aced
Ġenjoy ably
Ġlo ans
ers t
iv als
Ġgr af
Ġfl ute
Ġres ent
ĠP aper
ud ing
Ġcertain ty
Ġdeal t
Ġrest rooms
ĠDe ath
Ġinc ons
Ġcont ests
Ġrough est
Ġswim mer
Ġopp ress
Ġflav our
Ġcheap ly
ĠTo ast
Ġsmart phones
Ġhead ed
Ġdisc omforting
ĠFo g
Ġadvertis ed
Ġsoil s
unch y
uff y
Ġbat ch
ĠChe erful
Ġinvest ig
Ġperce ived
Ġboun cy
Ġunse ason
Ġcounter s
ĠCr unchy
Ġinfect ion
Ġhall ways
Ġprofound ly
Ġwhist les
Ġribb on
Ġunintention al
Ġbetray al
Ġteles copes
Ġtheat re
Ġreappe ar
Ġmicrow ave
Ġunwh olesome
Ġcompetit ors
cra ft
Ġprincip les
Ġrollerco aster
Ġgraf fiti
f ather
m m
Ġw ow
Ġb anging
it ers
Ġd are
le vi
Ġn or
Ġli lies
Ġun eth
ul ary
ter ed
Ġr ack
ĠD ull
Ġal levi
ĠW ild
Ġjust ified
Ġag ility
iff icult
ĠA dd
Ġpos es
Ġinter view
ĠF est
ĠF ires
ĠF ortun
Ġinst alled
ak en
ĠC and
ĠC akes
Ġav ocad
Ġsn apped
ab ulary
Ġpublic ly
Ġprotect ions
ĠTr ain
Ġfascin ation
ĠG ray
Ġroof ing
Ġcautious ly
Ġhat ch
Ġrepr o
Ġforce ful
ĠIm pul
Ġenerg izes
Ġcraw lies
Ġunre freshing
Ġunl ocking
Ġscream ing
Ġremark ably
Ġgrand p
Ġsneak ers
Ġvac cin
ĠPerfect ion
Ġdivid ing
inform ed
Ġung ood
Ġrad ar
ĠCra ft
ĠExp erienc
Ġmaster p
Ġannounce ment
Ġrearr anging
Ġglim mers
glass es
Ġdrizz le
ĠpiÃ± ata
Ġvoc abulary
ĠCha os
ĠFortun ately
i ants
l aim
r ic
Ġs pect
Ġfe ared
om ising
Ġin ject
Ġg iants
ĠT ight
ĠD ifficult
Ġwor ship
ol ving
ĠS qu
ick ering
ag ue
Ġappreci ative
co h
co pe
Ġconf ir
Ġro cking
Ġwin ners
Ġap ology
Ġinform ing
Ġmed itation
Ġunder lying
Ġworth less
ĠSp ark
Ġrecord ed
Ġsens it
Ġwilling ly
Ġintim ate
Ġgrand father
Ġwid en
Ġflourish es
ĠImpro ved
Ġunpr omising
Ġoverfl ows
Ġspee ches
Ġsuper ficial
Ġcud dles
Ġcarp ets
Ġquir ky
Ġunsh ared
Ġunhealth ier
Ġfert ility
Ġmonit or
Ġbreakthrough s
Ġdanc ers
ĠLim iting
Ġski ing
ĠFest ivals
b ir
m arks
o bs
o ating
r ooted
Ġw ipes
Ġa es
Ġh ue
Ġh ints
Ġl ending
Ġy uck
im prove
Ġli ons
ĠT re
ĠH appier
ĠA llowing
Ġgr ade
Ġno ble
Ġfresh est
ĠL aws
Ġlea ked
Ġlea ky
Ġwrong do
Ġavoid ance
Ġslow ed
ĠN ames
Ġcontr asting
Ġhum ming
ru el
Ġdress ings
Ġmar riages
Ġbel ly
Ġpin eapp
Ġvibr ancy
Ġexpert ise
Ġexam ine
tend ing
Ġrechar ged
Ġtrans itions
Ġaccess ory
ĠCl ass
Ġregret ful
Ġpe cul
Ġdisp osing
Ġhom eo
Ġgrap h
eth eless
Ġport ion
ley ball
Ġposs ess
Ġaggress ion
Ġchir p
Ġsle ek
Ġmistreat ing
Ġponder ing
Ġuncon vin
Ġiniti ative
Ġsquee zed
Ġlean ing
ĠGr ass
Ġclin ics
Ġnovel s
Ġfri zzy
cr ast
Ġfluct uate
Ġscro lling
Ġillustrat ions
Ġvacc ines
Ġoppress ive
Ġallevi ate
improve ment
Ġpecul iar
Ġunconvin cing
Ġt ent
Ġt ac
an ing
Ġf ought
Ġc ubes
Ġb ooms
or ating
on ents
al ous
Ġp igs
Ġp ushy
Ġn aps
un g
Ġg asp
Ġdo ork
ĠT y
ea f
ep l
ain ted
Ġpr ick
ĠS aying
ĠM other
ap ers
âĢ Ķ
Ġcheer y
ĠL ive
Ġcar amel
ĠP ancakes
Ġsl ime
Ġsound proof
Ġpain fully
sp ir
Ġpo d
Ġel usive
ĠSt iff
Ġref ill
Ġbreath ability
Ġcheck out
Ġsecret ly
Ġkey ch
Ġflav ored
Ġloc ated
Ġembr aced
Ġfigure d
ĠDoes n
ĠFl uffy
ĠFl ickering
Ġmention ing
Ġelect ions
Ġawkward ness
asp able
Ġstur d
ĠBal ance
Ġsoften s
Ġsup erst
ĠRep l
Ġbi ases
Ġsincer ity
ĠSli ppery
Ġomelet te
Ġglim pse
Ġoverlo aded
dra wn
Ġungr aspable
ĠCont in
Ġladyb ugs
Ġinsin cere
ĠUnp redictable
ĠDevelop ing
Ġresent ment
Ġdoork no
Ġt ug
Ġc ooled
Ġm es
Ġd ood
Ġp onds
ut ed
ri ger
Ġj ot
Ġex ting
Ġdis sol
get ing
pr on
Ġsun glasses
Ġpro duc
Ġde w
act ical
Ġv ague
ous es
ous ly
hy drat
Ġcho col
Ġdr ones
ward ing
Ġmis con
Ġflow ed
ĠP uzz
ĠIn c
Ġener gies
Ġwin ner
Ġcommunic ates
Ġmon ot
Ġwait er
Ġthick est
Ġsign aling
iel ds
Ġdist ort
Ġfollow ers
Ġsmart ly
Ġtransport s
Ġfold er
Ġadvertis ers
Ġprop osal
Ġcoll age
old s
ĠSp orts
ĠJ ud
Ġfeed er
Ġcooper ative
ĠV i
Ġleaf y
Ġattend ance
Ġattach ments
Ġmen acing
Ġvol leyball
ĠUnc omfortable
Ġbathroom s
Ġhistor ic
orre ct
Ġflu ids
Ġriverbank s
Ġprote ins
ĠRepe ated
Ġmelanch oly
Ġdinosaur s
Ġuneng aged
Ġbru ised
Ġneighbour hood
Ġbeak s
Ġcirc ling
ĠAuth ors
Ġvari ations
Ġoverd one
Ġdimin ish
ĠFoot ball
Ġseaw eed
k er
m eri
n ies
is ms
Ġc ate
Ġc uc
Ġm ir
en joy
Ġd eaf
ar ian
Ġo ats
Ġfor ts
ul ated
Ġr ud
Ġtr out
Ġal coh
se at
Ġang els
Ġcl o
fect ed
ĠF illing
ap se
Ġmis fortun
Ġmis trust
ĠC ommon
Ġback seat
tr ol
ake able
Ġdiscuss es
Ġhold ers
Ġatt acked
Ġunw orth
Ġru gs
Ġtight ens
Ġmark ings
Ġmed ium
Ġret ri
Ġoverc omes
Ġwild fire
Ġbird watching
Ġcrowd ing
Ġarch ed
Ġsocial ize
Ġent ry
Ġdamp ens
Ġdisrespect fully
Ġloving ly
Ġobstac le
Ġblend ed
Ġsickness es
Ġstubborn ly
Ġbacky ards
ĠWater ing
ĠCr ushing
Ġbi ology
Ġsyn c
Ġassign ment
Ġemphas ize
Ġauthentic ity
ĠCrow ded
ĠDesign ers
ĠPop corn
Ġnecess ities
Ġcandid ates
Ġbookst ore
Ġsensit ivities
ĠRepl acing
Ġmes meri
Ġchocol ates
Ġcate g
p ically
s ome
x ting
ou qu
Ġm it
Ġm entions
Ġm ashed
Ġb ind
Ġb ouqu
eo r
it as
Ġd ots
ar row
ur s
Ġag gr
se e
ĠA ir
Ġta gs
Ġsc atter
eri or
Ġcl ick
Ġcal c
Ġapp lic
Ġsupp orters
Ġgl ory
Ġweek days
ĠL ar
Ġinv aded
Ġunf illed
ud ge
ĠSt ay
Ġglad ly
Ġwet test
Ġorgan s
Ġcons erve
Ġbreath es
Ġmet ers
Ġte xting
uri an
Ġsnow ed
Ġsnow storms
Ġpriv ile
Ġhon ked
Ġflo ated
Ġrep urp
ift een
Ġdisc ount
ĠUn w
Ġchalk s
Ġform ation
Ġnum b
Ġju ggle
ister s
ĠJ okes
Ġconclus ive
ram s
Ġz ero
Ġbar g
Ġwing ed
Ġgall op
Ġdram as
Ġvent uring
Ġmispl acing
Ġunche cked
Ġworkload s
ĠRec onnect
kind ness
Ġhairc uts
Ġchap ters
Ġintens ely
ĠFre edom
Ġunsh akeable
Ġdeclutter ing
ĠCrow ds
Ġu pr
Ġgir affes
Ġrin se
Ġmilksh akes
ĠTidy ing
ĠAnx iety
Ġsunbea m
ĠAchie ving
ĠExperienc ing
Ġhomeo wners
ĠTy pically
Ġproduc ers
enjoy able
Ġrud ely
Ġalcoh ol
Ġaggr av
Ġth ird
Ġw ist
Ġa ids
Ġf ifteen
Ġc er
eo ty
it izing
Ġh ust
Ġn esting
Ġg ag
Ġli on
Ġst agn
ĠT ough
oun ce
Ġch imes
ĠD essert
ell ation
qu it
Ġcom press
Ġev al
Ġstr and
Ġnew ly
Ġover priced
rien d
ĠE r
Ġad ren
Ġgl or
Ġmis chief
Ġav iation
ab lish
Ġref riger
Ġclos est
Ġind ic
Ġwhole hearted
Ġequ als
Ġcheap ness
Ġfore bo
Ġthri lled
Ġhands h
Ġoverc row
Ġloc ally
Ġlin ed
Ġsatisf ies
Ġcir cus
Ġhumor ous
Ġwis est
ĠWr iters
Ġrat tling
Ġexpans ions
Ġpredict ed
Ġgen etics
Ġthreat en
Ġunre fined
Ġwarn s
Ġtack y
ĠDis cover
Ġshelter ed
Ġovershadow ing
Ġjourn aling
ĠEng lish
Ġstubborn ness
wr iting
Ġearn ed
Ġpink s
ĠPo etry
Ġnon etheless
Ġloos ely
Ġbill ions
Ġcash ews
Ġtox ins
Ġsprout ing
Ġnourish es
Ġscur ry
Ġtrump ets
Ġrip en
gu ard
Ġbun dle
Ġunle arn
Ġteles cope
Ġsands t
Ġconfin ing
ĠTired ness
spir ited
Ġunworth iness
Ġmesmeri zing
ĠReconnect ing
Ġhust le
Ġadren al
Ġwholehearted ly
Ġforebo ding
b ably
c ause
d ging
f ertile
f ried
m ble
y ard
Ġ icky
Ġt ents
Ġt ub
Ġc act
Ġc ider
Ġp ier
Ġin ade
Ġwh om
ĠT asting
ri l
os quit
Ġr ul
Ġqu itting
ther n
Ġk night
Ġke en
ĠF lies
Ġwalk ers
Ġdown cast
Ġunc o
ĠC orrect
um bs
app reci
ĠB all
ĠIn cl
Ġref ere
Ġref erence
Ġfir mer
Ġcat er
aw ake
Ġlon elier
Ġpen ny
Ġsmart ph
ustom ed
Ġsecond hand
Ġproduct ively
Ġcondition er
ĠSp ills
Ġresol ves
Ġconsequ ence
Ġste ering
ĠFl oating
ĠTom at
ĠRes pon
Ġfinal ize
Ġeager ly
Ġdisregard ed
Ġdestroy s
Ġconstru ctions
Ġcap tain
ĠConf r
ĠPro bably
Ġcoco ons
ĠBea ches
Ġdi ary
Ġol ives
ĠWind y
Ġpotat o
Ġmoisturi zed
Ġcuis ine
ey ed
Ġatten ds
Ġtemp les
Ġfer ment
Ġchart s
Ġpub lish
ĠAp ril
Ġmishand led
Ġster eoty
ĠCle aring
Ġlifesp an
Ġwip ing
ĠTang led
Ġnor thern
Ġwist ful
ĠDiscover ies
Ġadrenal ine
Ġinade qu
Ġsmartph one
c lean
s ively
s kin
Ġt ingly
Ġf are
it ate
at hing
Ġl anes
Ġp ir
om en
Ġn agging
Ġwh eat
Ġg ut
Ġma x
Ġsh amp
Ġimp osing
Ġqu arter
ĠS olid
Ġas sets
ese en
Ġsc aring
Ġover grown
ĠR oots
Ġgl isten
Ġstart les
ĠL eading
op oly
Ġunple asurable
Ġann ivers
ĠIn d
ĠIn j
press ed
Ġunpleasant ly
Ġrec laim
Ġhand written
Ġri dden
ra b
ĠSh ame
ĠN arrow
Ġvalu ables
Ġtree house
Ġfore head
Ġstiff er
Ġlessen ing
Ġsick ening
Ġpoll utes
Ġchil led
Ġcoll apse
ĠUnderstand able
Ġaddress es
ĠStr icter
Ġsucceed ing
Ġtang ling
Ġbar ren
ball s
Ġspl attered
ĠAl though
Ġincreasing ly
Ġstroll ing
Ġbrown ies
ĠComp lications
ĠSc ream
ĠMon opoly
ĠRecogn ition
Ġnotebook s
Ġcheek s
Ġvisual ize
cer ned
Ġshiver ing
Ġsquee zing
Ġelectron ic
Ġsmud ged
Ġreun ions
Ġlad der
Ġexcept ion
ĠBe cause
Ġoccurren ce
ĠGri lled
ĠDead lines
Ġunav oid
Ġshor ten
Ġdistribut ions
Ġje alous
Ġintertw ined
Ġtac os
Ġkeych ain
Ġsuperst itions
Ġcuc umbers
Ġmir ac
Ġstagn ant
' ,
b ur
m et
m ate
n is
p erson
u ctions
Ġs pecially
Ġb ull
Ġh asty
or ders
Ġd urian
Ġn uis
Ġwe aving
Ġun arm
ĠT iming
pp h
Ġch urn
Ġen em
Ġen force
ĠD ri
ĠH om
Ġex tract
Ġk il
Ġsa pph
Ġes cap
Ġmu ggy
Ġclean est
Ġbeaut ify
am m
Ġfl aw
Ġunc omplete
ĠC areful
um bling
Ġmess ily
ĠL oc
Ġcr o
Ġinv as
Ġsl ick
Ġconf erence
Ġbook ing
Ġavoid able
Ġadv isor
Ġcur ved
Ġunder appreci
Ġpay check
Ġtravel er
Ġstar ry
Ġjo g
ĠPl ans
Ġhuman e
Ġpet ting
Ġpromot ions
Ġaccount ed
irr els
Ġfoot path
Ġrepresent ed
back s
Ġtrans l
ĠNot ing
Ġdisrespect ing
Ġconsum ed
Ġunl ocked
Ġcrit ics
Ġprofessional ism
Ġinterrupt ion
ĠDust y
Ġrar ity
Ġdivis ive
keep ing
ĠNe at
Ġsket ches
Ġest ablish
Ġsill iest
Ġcent uries
Ġreop en
Ġsuperher o
ĠTri pping
ĠSqu irrels
Ġcer am
Ġfare w
Ġmax im
m o
p ite
w ind
Ġf ists
Ġf ixt
Ġm all
Ġb orders
Ġd ign
Ġd ashed
Ġl aces
al ed
Ġp ad
om b
im p
Ġg ore
Ġdo able
Ġus ability
ter y
if ier
ĠDo ctors
Ġex it
ac co
ĠS ocks
th etics
Ġsc ra
Ġcl anging
Ġad vert
Ġreflect ively
Ġcr anes
ren ch
ĠP art
Ġwater ways
Ġquiet est
Ġmoment ary
Ġwrong s
Ġbreak down
ail able
ĠSh ifting
Ġmist aken
Ġneg lig
Ġcontr act
Ġfree zes
Ġcont am
Ġbroken ness
Ġunknow ingly
Ġdelicious ness
Ġunwell ness
ĠHope ful
Ġrep el
Ġdoubt ed
Ġcomple ments
Ġinten d
ĠJ u
Ġoutlook s
Ġscen ic
og ical
ĠEnjoy ment
Ġcraw led
Ġsto le
Ġunaf fected
Ġrenew ing
Ġunfor eseen
ĠSil ly
ĠBlue berries
Ġsunr ises
Ġdy e
Ġsmo kers
Ġleng ths
ĠDes pite
Ġmagn ific
Ġinterpret ations
Ġemphas is
ĠEmp athy
ĠGri lling
Ġendang er
Ġcommer cial
Ġnewsp apers
Ġchameleo ns
Ġenvel ope
Ġexting uis
ĠInc re
Ġstrand ed
Ġstereoty pes
skin ned
Ġescap ed
Ġunderappreci ated
Ġneglig ence
c ared
e c
e ving
i ance
l ock
in ce
el ve
el astic
it udes
Ġd ine
al m
Ġbe ads
Ġst ings
Ġst acks
Ġso y
ĠD r
ĠH olid
Ġex tend
Ġor al
Ġpr ay
Ġsa m
ĠS erious
Ġfun d
Ġfun nier
Ġcl own
Ġfl ip
Ġworry some
Ġmis re
ĠC amp
ty ing
ign ific
Ġoff ensive
Ġla unch
Ġwater col
Ġhelpful ness
ĠB ath
lic ting
ĠCh ar
ĠCh asing
ĠSt riving
Ġdri est
ĠThere fore
Ġjoin t
Ġeng ages
Ġappro ved
Ġemp owers
Ġblack berries
af fe
Ġins ignific
Ġamus ed
ĠSp ices
ĠJ ewel
Ġpred icting
Ġrecord ings
Ġod ds
Ġdismiss es
Ġgall oping
ĠDis ag
Ġcast s
ĠCon cer
ĠGl ass
Ġcoz iness
Ġcap si
Ġten nis
Ġcaptiv ate
Ġshowc ases
Ġcrew s
Ġalign ed
Ġcritic ized
Ġshed ding
Ġoverp owers
Ġtoler ances
Ġuncon cerned
Ġtour ists
Ġintention ally
Ġhousehold s
ĠCompl aining
ĠResear ch
vi olent
Ġuneng aging
Ġgir affe
Ġcollaps ing
Ġalt itudes
ĠKnot s
Ġmoo ing
Ġanaly ze
Ġsubm it
Ġmasterp iece
Ġdissol ve
ĠEr rors
ĠConfr onting
ĠInj uries
ĠHom emade
ĠLoc al
Ġdign ity
Ġscra pe
Ġinsignific ant
_ _
f ixed
in ci
Ġw ol
Ġw and
Ġb ooming
en omen
Ġto pped
Ġl ows
Ġfe at
Ġab und
Ġun read
Ġsee ks
Ġex ceed
Ġex ec
ten ds
Ġnew est
Ġup st
th ought
Ġpro ving
Ġmight y
st ick
Ġexp ose
Ġcl icks
ĠSomet hing
ĠF il
Ġhealth iness
whel ming
ĠB ird
Ġpast ry
Ġpast els
Ġdelic ately
ĠN ights
Ġheat w
Ġgener ous
Ġtw elve
work ers
ĠK ites
Ġnut ty
Ġmar rying
Ġincl usion
Ġph enomen
ĠJ ump
ĠHe at
Ġrecord ing
Ġcooper ates
Ġtrans fer
ĠPlan es
Ġconst r
Ġadm iration
Ġheight ens
ĠClear er
Ġattach ment
Ġrepl aying
ĠCom par
Ġhaun ts
Ġdisp osed
Ġmult itas
ĠSc rambled
Ġobvious ly
Ġcaptiv ates
Ġsavor ing
ĠWho le
Ġvisual izing
Ġtap s
ĠExerc ising
Ġdock s
Ġmechan ical
ĠPri or
Ġine qu
Ġbrac elets
Ġportray ed
ĠReflect ively
Ġinstall ation
ĠDisgust ing
Ġaccumul ates
Ġpunct ual
Ġpunch es
ĠBud geting
Ġpand emic
ĠPuzz les
Ġaggrav ating
ĠRespon sibility
Ġunavoid able
b able
b ining
f ocused
m a
n ut
Ġf ooled
re ne
Ġto ffee
Ġn ine
ow ling
Ġwh ales
ĠY elling
ĠH o
ĠM ain
Ġsc ored
Ġv ote
Ġfl ipping
Ġfl ims
Ġune vent
iz ations
Ġgu ms
Ġunc alm
not ch
Ġnight fall
Ġback wards
ĠL avender
ull s
form ing
Ġhigh s
ĠDe c
Ġunh urt
Ġdri p
ĠO l
Ġher d
ĠTr ad
Ġcher ries
Ġred irect
Ġstar ter
Ġbene f
Ġpromot ed
Ġpromot ion
Ġprice y
Ġamus ements
Ġrisk ier
Ġremain ed
Ġexam ining
Ġstructure d
Ġent rep
Ġirrit ates
Ġreb uilt
ĠBl owing
Ġboss es
ĠCom bining
Ġdeterm ine
Ġdef ens
Ġvent ing
ĠLight ing
ĠConf licts
Ġintr usive
Ġinspect ions
Ġmill ion
ĠMar ch
Ġcondu cts
Ġtrem bling
ĠDou bt
ĠDou bting
Ġsunburn ed
Ġbetray ed
Ġoverhe ard
Ġshimmer ing
ĠSk ipping
Ġvolc anic
Ġmig ration
Ġupgr ade
Ġbehold er
Ġsturd ier
Ġbouqu et
Ġnuis ance
ĠDisag ree
ĠPrior itizing
Ġinequ alities
Ġflims y
Ġentrep rene
m ish
r oup
Ġs igh
Ġs outh
Ġw iggling
Ġm osquit
en ails
om et
Ġo k
im med
Ġbe g
Ġg iver
ver ty
Ġun light
Ġst ared
ĠT ulips
Ġse ag
Ġsh arks
Ġqu ar
Ġout ward
Ġout bur
th e
ĠM otion
Ġpro ves
Ġde cept
Ġplan ner
ĠF e
Ġcho ppy
Ġgl istening
ĠC ult
ĠC ork
Ġmo cking
Ġsw arm
Ġconf licting
Ġdec aying
Ġpo verty
Ġdelic acy
ĠCh ores
Ġreg roup
Ġher b
Ġchild hoods
Ġbehav ed
Ġcons ulting
ĠTr uth
Ġproblem atic
Ġfascin ates
ro val
Ġappro vals
Ġtrain er
Ġincl us
Ġfold ers
Ġpoll inating
Ġfill ings
Ġsteam y
Ġsalt iness
Ġrail ways
Ġcraft y
Ġwindows ill
wich es
ĠHe y
Ġweird est
ĠAr ching
Ġchill ier
together s
ĠAt tention
Ġdim ly
Ġunending ly
ĠSn acking
Ġregret ted
Ġsold ier
Ġstroll s
inter est
ĠStress ful
Ġinconven iences
Ġsuit case
Ġterrif ied
Ġelegant ly
Ġweap on
ĠOther s
ev ity
ĠNe ed
ĠSand wiches
ĠCons istency
ĠHer bal
Ġbreed ing
ĠCustom er
Ġsadden ing
Ġunharm ed
Ġtraged y
Ġunpl ug
Ġfoss ils
ĠAdd ressing
Ġaes thetics
Ġpineapp le
Ġmiscon ceptions
Ġrefriger ator
ĠBall oons
amm able
Ġceram ic
Ġmagnific ent
Ġoutbur st
I Y
c en
o de
p read
s y
v et
Ġ âĢ
Ġt umm
Ġth ie
Ġf ile
Ġm ending
Ġb akes
it tle
Ġto enails
Ġd ips
Ġd uck
Ġl ump
un t
un ds
Ġg arm
ut ic
Ġen orm
Ġen for
Ġr ut
Ġr ows
Ġmy th
ĠD IY
ĠH or
ne cessary
ig olds
em per
Ġsc and
Ġexp iry
Ġpos ting
ach ing
Ġgr ape
Ġfl ammable
Ġmind lessly
ĠR owling
Ġdown ward
Ġlong evity
Ġbu oy
Ġguess ed
Ġunex pressed
Ġoff end
Ġsw ept
Ġper cent
ĠP hot
Ġsl ushy
Ġjoyful ness
Ġend uring
ĠB iting
ĠSt ory
ĠN urt
Ġcur ling
ape utic
Ġdelightful ly
Ġviol in
Ġsty led
ĠU no
Ġprevent ed
Ġodd est
Ġsal ts
Ġmar vel
Ġcup boards
rup t
Ġimpro bable
Ġcry st
Ġsilver ware
ord inated
ĠGood by
Ġbreakfast s
Ġfeed s
Ġreli ably
aren t
Ġweird ly
Ġhun ts
Ġrust les
Ġsens ed
ĠMo der
Ġsway ed
Ġconcent rating
Ġhumid ifier
Ġclaim ed
ef ficient
ĠEng ines
Ġmas tering
Ġsat ell
bul ent
ĠBab y
Ġcritic izing
Ġfrost y
Ġshr ank
Ġtriv ia
uf ficient
ĠGr ain
ĠPre c
Ġjar ring
Ġsmud ge
Ġther apeutic
Ġpitch es
Ġtempt ed
Ġdepart ure
Ġbun nies
Ġdemonst ration
Ġais le
Ġempath etic
Ġfragr ances
dri ven
ĠPlay ful
Ġcircul ation
ĠLeft overs
ĠCraft s
ĠSpark ling
Ġsoundproof ing
Ġunco ordinated
Ġadvert ise
Ġunevent ful
ĠOl ive
Ġquar ters
cen tered
Ġtumm ies
Ġthie ves
ĠNurt uring
c cess
c red
h ed
s uring
Ġt ipped
an uary
Ġw ides
Ġto asted
or por
et ah
Ġin fr
Ġwh ipping
Ġab use
ĠT imes
Ġj ing
Ġr ese
ĠD uring
Ġex otic
ol led
Ġpr on
pr int
Ġsa ck
Ġsa cred
ĠM ove
Ġde ed
Ġsc oring
Ġdiffer s
Ġco ach
ĠF er
Ġres ort
Ġrel ent
Ġche etah
Ġquick est
Ġunc alled
Ġheart less
ĠC ream
Ġmat s
Ġdes erving
Ġdes irable
Ġreal ise
ĠL ea
Ġinv inci
ĠP orters
lic ate
Ġref unds
Ġrun ner
Ġrest arting
Ġkeeps akes
Ġinc orpor
Ġblue berry
Ġacc ents
Ġmeal times
Ġtw irl
Ġmarket ed
Ġearth y
Ġmin i
ĠUn healthy
Ġtooth less
Ġcomplic ating
Ġband ages
Ġrefresh ments
Ġcred its
Ġrepresent ing
ĠEn suring
ĠJ anuary
Ġfle e
ĠSu ccess
ĠV al
Ġfad s
ompl et
Ġunre g
Ġass ert
Ġdrag ged
Ġpurch ased
Ġtur bulent
Ġcling ing
cal led
Ġash es
Ġsup erior
Ġboy s
Ġmoisturi zing
Ġprett iest
Ġtrem end
Ġmur als
Ġmanufact uring
ĠResear chers
ĠBreak s
Ġrooft op
Ġrainco ats
Ġunav ailable
Ġye arn
Ġfertiliz er
Ġsupermark et
bir ds
Ġwrongdo ings
ĠJud ging
Ġapplic ation
Ġrefere e
ĠTomat o
Ġbenef iting
ĠNeed les
Ġenorm ous
ĠPrec isely
Ġwides pread
ĠMove ment
Ġinvinci ble
b es
c aring
f un
o gy
p ill
s ed
Ġt ut
Ġs izing
el ight
Ġm our
Ġb ooked
Ġb und
en ity
Ġp ears
un es
Ġwh irl
Ġre pt
Ġun obs
Ġsh atter
Ġfr aming
Ġho ard
Ġal i
ĠW ere
Ġsp ines
Ġpro ven
Ġv ot
Ġclean se
Ġcl ip
Ġco ck
Ġche ating
Ġbl oods
Ġbl asting
ĠC ong
Ġem iss
Ġmo b
du ction
Ġplace ment
ĠP ar
Ġwrong ness
Ġdec ades
Ġnear est
Ġhur dles
Ġbal con
Ġrest oration
Ġconsider ably
Ġte asing
Ġhum ble
Ġstar es
Ġcheap est
Ġunm ade
Ġpar ting
Ġmar igolds
Ġpot tery
Ġpoll u
Ġach y
Ġlist ed
Ġdowns ides
Ġcapt ivity
Ġiron s
Ġrat tles
Ġnet works
Ġpowder y
Ġrich es
ĠIm portant
ĠV an
Ġenerg ised
Ġz ooming
Ġoverl ap
ĠAng ry
Ġunfold ed
arr ots
Ġser enity
Ġchew s
Ġpe ers
Ġcrawl ers
ĠCar s
Ġsnowfl ake
Ġdirect ors
Ġvict ims
Ġsoften ing
Ġunrel enting
Ġclums iness
ĠCalm ness
Ġanticip ated
Ġunif orm
Ġpan els
Ġhost s
ĠHealth ier
Ġther m
Ġrip eness
ĠAdjust ments
Ġsuperv ise
Ġsuperv isor
Ġdepart ment
Ġbrew ed
Ġrenov ation
Ġmoisturiz ers
Ġoverlo ad
Ġanal ogy
Ġupgr ades
Ġshor eline
Ġunconscious ly
Ġpub l
Ġmilest ones
Ġcosm os
ĠIde as
insp iring
Ġuncondition al
Ġincons istent
ĠClass ic
ĠHo llow
Ġseag ulls
ĠStory telling
Ġemiss ions
d r
h elp
r acking
r ested
t ight
u ations
in ders
is covering
ou fl
Ġc ues
Ġc yc
Ġd umping
im ney
Ġma ple
Ġre cess
Ġdo lls
Ġse als
Ġsh ru
Ġch uck
Ġch imney
Ġr ere
Ġqu e
all ic
ĠS we
th ood
Ġclean sing
Ġres cu
Ġmess iest
ĠL ate
ĠP ower
av ed
Ġla id
Ġlot ions
Ġman ure
Ġvis ions
Ġac qu
Ġgam epl
Ġref used
ĠDe bt
ĠN ut
Ġdri ll
Ġcontr ad
Ġsil enc
Ġimagin ary
Ġjo ked
Ġhon ks
ru it
cle ar
Ġdirt iest
Ġpen al
Ġapproach able
Ġhollow ing
Ġveget arian
cc upied
Ġimpress es
Ġbell ies
Ġgri eving
Ġhu h
Ġtrad ers
Ġenc l
ĠMem ory
Ġrust s
Ġrecommend ed
Ġass ured
oll uted
Ġded uctions
Ġaim lessly
Ġspl atter
ĠSnee ze
Ġcrunch iness
oop ed
ĠRespect ful
Ġintrig ued
Ġrestr icting
ĠStea med
ĠSec ond
Ġrestrict ive
Ġund es
Ġcollabor ative
fr ont
Ġdiam ond
Ġdissatisf ied
Ġrein for
Ġdump s
ĠBe gin
Ġmagn ify
Ġfer ns
ĠAm azing
Ġdemonst rate
Ġunacc ount
Ġdoll ars
Ġmilest one
Ġdrear iness
ĠImpul se
Ġpod casts
Ġmit ts
Ġprivile ge
ĠIncl uding
Ġentreprene urs
Ġbeg un
ĠCong ratulations
Ġpollu tants
Ġgamepl ay
c anc
l ers
l ides
n a
r ove
t asting
w as
Ġc aps
Ġm ice
Ġh ated
Ġd ad
Ġl oun
Ġp ound
Ġp il
Ġp ounding
Ġli z
Ġre form
ct or
ĠY og
ĠT elling
Ġr ash
ĠDo cument
ill ment
Ġim itate
Ġcon es
ac ity
Ġas p
ast ructure
ĠA ction
Ġsun niest
Ġde fin
ĠF lex
Ġbl ender
Ġgl ides
Ġhear tening
Ġmess aging
Ġback ups
ank y
Ġcr ane
Ġcr anky
ĠP ressing
Ġyear ly
ject s
Ġpo le
Ġstick iest
ĠCh ewing
Ġperfect ing
Ġquestion ed
Ġdri lling
Ġcur ls
Ġdish armony
Ġfree z
Ġcont em
br immed
Ġunp olluted
Ġtw itching
Ġspot less
Ġdead ly
Ġimpul sively
Ġprogress es
Ġchil i
Ġcommit ting
Ġclim bs
Ġunst r
res ponsible
Ġrespond ed
Ġint u
ĠJ our
Ġreli ant
Ġdistrib ute
Ġchief s
Ġadm itting
Ġneighb ours
ĠChe ating
Ġstrang eness
Ġinvest ors
Ġnutri ent
Ġwag ged
ĠRes ponsible
Ġpupp et
Ġuntrust ed
wor ked
Ġdistress ed
Ġvol umes
ĠCon c
ĠWater melon
Ġtrail ers
Ġmultip lies
Ġscrap ing
Ġgalax y
Ġinterfer ing
Ġinterfer ence
Ġfer n
Ġlawn s
Ġoverhe ated
Ġden ied
ĠUnkind ness
ĠReflect ive
Ġnecess ity
ĠEf fort
ĠRust y
Ġscrew dri
Ġdesper ate
Ġepis ode
ĠCough ing
ĠCand les
Ġgraph ics
ĠDessert s
Ġrul er
Ġcater pill
Ġshamp oo
ĠDri vers
sy ch
Ġinfr astructure
Ġrelent less
ĠCream y
Ġvot ers
Ġbloods hed
g row
h s
h ouses
i or
o ard
p oint
in ting
at ers
Ġd unes
Ġp sych
Ġab oard
Ġun ordinary
Ġun elastic
ind ul
Ġj itter
Ġch ipped
Ġon ward
Ġnot ifications
ang ar
ĠH iring
ci um
ard less
Ġex its
ĠA w
Ġover sp
Ġover worked
Ġcl ue
Ġcl am
Ġright ly
Ġapp rove
Ġdark ening
Ġheart str
Ġpre tends
Ġsw ans
Ġsl o
Ġquiet s
ĠB iking
Ġpo ly
Ġhopeful ness
Ġtast iest
ĠCh urch
ĠO ri
Ġdish was
Ġdesign er
Ġdesign ated
Ġclos ures
Ġtight r
Ġunder m
Ġunt w
Ġserv ings
Ġflo oring
ĠMe als
Ġfee bly
Ġpur r
Ġland marks
Ġinfl ation
Ġarri vals
Ġliquid ate
Ġpurpose ful
Ġhorn ets
ĠClean er
Ġunhe eded
Ġwood working
Ġapart ment
Ġclass y
val ue
ĠSp illed
ĠSp ooky
Ġmagic ians
Ġinstin ctive
Ġunfulf illment
Ġregain ing
Ġunse e
ĠReg ardless
Ġcamp fires
Ġvanish es
ĠUnc lean
Ġshowc ased
Ġfairy t
Ġalign s
Ġund iscover
Ġpurs uit
Ġunrel ax
ĠMis pl
Ġrandom ly
ĠStraw berry
Ġinspect ion
Ġvend or
Ġextrem es
Ġunpol ite
Ġgem st
Ġdom in
Ġtarget s
ĠBus iness
Ġsquea mish
ĠMark ets
Ġbust le
Ġsnugg ling
ĠUp beat
Ġbeet les
Ġstif ling
ĠBuild ings
Ġdilig ent
Ġuneth ically
Ġconfir m
Ġpublish ed
Ġfarew ell
Ġfixt ures
Ġtremend ously
Ġrept iles
Ġchuck le
Ġpenal ties
ĠDocument aries
ĠConc erts
Ġjitter y
Ġheartstr ings
Ġundiscover ed
b read
b ooking
v y
Ġa pron
Ġc ooped
it er
re cy
Ġd ens
Ġl one
Ġl isting
Ġp anc
Ġun open
id ants
Ġso iled
Ġch apped
Ġnot ch
ĠH urt
Ġbr ut
all owing
Ġk angar
Ġup wards
st it
be ats
Ġmind ing
Ġcal cium
ĠR eth
Ġunc l
Ġbl amed
Ġheart beats
ĠC omes
ĠC ycling
Ġrain falls
Ġcome back
ĠL ots
app roval
Ġsw at
Ġsw allowing
Ġsl iced
Ġsec recy
Ġbuild er
Ġpain ter
Ġel der
erv ant
Ġannoying ly
Ġimag ines
ĠN ormal
Ġseason ings
Ġtrick ier
Ġsharp est
Ġmet allic
Ġunt ested
ner ed
ru its
ĠRem inding
Ġpur ity
Ġfat tening
Ġfrequ ency
Ġsal mon
Ġland l
Ġsnee zy
Ġprogress ing
Ġhollow ness
Ġeye b
Ġalert ness
Ġtrad ed
Ġforecast ed
ĠFl ames
Ġbub bly
Ġpassion ately
Ġunl oving
ĠQu est
Ġcancel ing
Ġant iox
Ġemploy ers
man nered
Ġcash ier
Ġsunb athing
Ġtour ism
Ġalley s
Ġadopt ion
Ġbi as
Ġunlo vable
Ġbaff les
Ġescal ating
Ġexplo it
ĠCons istent
Ġdecl ined
Ġunexplain ed
Ġbang s
Ġyouth ful
Ġcong estion
Ġtranqu il
Ġunhealth iness
Ġharves ted
Ġawak ens
Ġsquea ky
bl owing
Ġden y
Ġsill iness
Ġmig rate
ĠDay light
Ġaccumul ating
Ġje ans
Ġtraged ies
ĠEf fective
ĠGu iding
Ġhazard ous
Ġdaydream ing
ĠFail ing
Ġpengu ins
Ġavocad o
aning ful
Ġcalc ulations
Ġupr oot
Ġsandst orm
Ġmirac le
Ġenem ies
ĠIncre asing
ĠChar act
Ġfeat uring
ĠDisagree ments
Ġunobs ervant
Ġbalcon y
Ġsilenc ed
Ġpoly ester
Ġtightr ope
Ġuntw ist
Ġpanc ake
ĠReth inking
Ġantiox idants
a e
m ain
ing es
es ides
it ical
Ġh eap
Ġh inges
en ch
Ġd ict
out s
Ġwe althy
Ġg oose
Ġab normal
Ġun al
ri de
ur ring
Ġwith drawn
os tering
qu e
Ġal tering
Ġimp ose
Ġimp lications
Ġsp ook
Ġev oking
ĠS ound
ish es
art s
Ġover sight
Ġover watering
Ġover indul
Ġv ain
Ġfl ax
Ġfl oss
ĠF ostering
Ġrel uc
ck s
Ġbl o
Ġmis jud
Ġfresh ener
ĠC ruel
ĠRe freshing
um ed
Ġwa ist
Ġcr abs
Ġinv ig
Ġsw ord
Ġsw oop
Ġcook books
ĠB old
ĠB esides
Ġmust ard
Ġrest art
Ġfly er
Ġpati o
Ġsharp ens
Ġte ase
we ek
Ġsight ings
Ġodd ness
Ġpoll inate
Ġflavor ing
Ġprop osed
Ġpin point
Ġcam oufl
Ġwax y
Ġju ic
Ġforce fully
Ġmass es
ĠV is
ĠFrien d
Ġass umed
ĠOpen ness
Ġmad der
Ġspl it
Ġregret ting
Ġcomed ians
Ġdisp ens
te ch
Ġinvent ory
ĠMon day
Ġunderest im
Ġempower ment
ĠHum ans
Ġcap acity
ĠSupport ive
Ġaffection ate
Ġsacri fic
Ġexplor er
Ġwardro bes
ĠSal ads
Ġsket ching
Ġaquari ums
Ġdump ed
Ġtempt ation
ĠMyster y
worth iness
Ġdemonst rations
ĠDa ily
Ġuncontr olled
Ġoctop us
Ġdefe at
Ġunravel ing
Ġsadden ed
Ġcabin et
Ġunacc ustomed
Ġrin sing
ĠConsider ing
Ġoverdo ing
Ġdraft s
Ġorch ard
Ġinvestig ating
Ġrack et
Ġgrandp arents
ĠMother s
Ġglor ify
Ġovercrow ded
ĠPart ies
Ġtut or
Ġpil ot
Ġcontem pl
Ġunstr ong
Ġeyeb rows
main tenance
c omp
l esh
l eness
o e
s pe
Ġt ill
er ting
er ous
Ġs id
Ġh ose
Ġd ating
Ġl amb
Ġp ale
Ġy ields
Ġab rupt
ĠT ag
ul ating
Ġse qu
Ġse am
ent ed
ur d
ĠD ear
qu ally
Ġfr iction
Ġal erting
Ġdis m
Ġsp ans
ĠS ipping
il ly
rat ed
Ġsc ri
Ġover used
Ġv otes
ach ed
ĠF ore
ĠF eed
ĠF rench
Ġsim ul
ĠE gy
Ġune qually
ap es
Ġquick ness
Ġbl azing
Ġgl ut
Ġread ily
Ġide als
Ġcr ooked
tr ained
Ġcook book
co ld
Ġwho ever
ĠIn side
Ġpo etic
Ġpast ures
Ġslow est
Ġhand writing
Ġri der
ĠN othing
sider ed
Ġcommunic ations
Ġconsider ately
pl ifting
Ġpoin ty
Ġtroub lesh
Ġbitter ly
Ġunt ied
ĠHope fulness
Ġprov oking
ĠU plifting
ĠRem oving
Ġfish y
Ġlessen ed
ĠSo ccer
Ġhead lights
Ġve gan
Ġform at
Ġcour t
Ġwound ing
Ġkn ack
Ġboard ing
Ġtail or
Ġhu gging
Ġabs urd
Ġent it
Ġconflict ed
Ġstri pes
Ġste als
Ġpack s
od es
od iversity
Ġpool ing
ĠBl ending
ĠBl ooming
Ġban ner
Ġrepl ay
ĠReg aining
wr ite
Ġsoak s
Ġhesit ated
ĠOut side
ĠFru ity
ĠNight mares
Ġsunb lock
Ġfeature d
Ġsub stit
Ġbi odiversity
ĠPre tending
Ġminim al
Ġwri ggle
Ġorigin ally
Ġstead ier
Ġinappropri ately
ĠPresent ation
Ġhi ked
Ġconvin cing
ĠGhost s
Ġtrop hy
Ġsniff ing
Ġvolc ano
Ġye ast
Ġnewsp aper
Ġfertiliz ers
Ġstim ulate
ĠCompet ition
Ġvir us
Ġpostc ard
Ġspect ac
ĠTre asures
crast ination
Ġmisfortun es
see king
ĠLar ge
Ġferment ed
Ġinadequ ate
Ġunarm ed
Ġoutburst s
Ġcryst als
Ġunreg ular
Ġassert ive
Ġclam my
Ġdishwas her
ĠQuest ions
Ġinvig orating
ĠEgy pt
a i
a cies
b uilt
b umps
e val
e aten
n ice
p ed
r esh
w ood
er m
Ġc ell
eo ccupied
it able
at t
or ient
Ġma iling
Ġma mm
Ġre write
Ġun ic
Ġun tying
ot ten
Ġst umbling
ĠT ension
Ġch ime
Ġon ions
Ġr h
Ġr acco
ci pes
Ġfr amed
Ġbetter ment
Ġjust ly
Ġpr eoccupied
ĠS ea
Ġup ward
ast s
Ġsun sh
ĠM ang
Ġgreat ness
Ġlov able
Ġaw ry
Ġfrustrating ly
Ġlight ed
Ġfl air
Ġlearn ings
Ġune ar
Ġrel atives
Ġplay times
Ġmis using
Ġheart broken
ĠRe cipes
Ġair tight
Ġdes ens
Ġexpl osion
ĠL ing
Ġcook ware
Ġtri ump
Ġmusic als
Ġhome grown
round ed
ĠB ar
ĠB ells
ĠIn nov
ĠSt ubbing
Ġcheck ers
ener g
Ġopp onents
Ġroad work
ene ver
Ġnothing ness
Ġunp aid
Ġdepend ed
work er
Ġdear er
Ġsick ly
Ġsick ened
Ġpar ad
Ġpar rot
Ġstea k
Ġornament al
Ġbutter ed
Ġform ul
Ġwool ly
Ġshocking ly
Ġpu ff
omm it
ĠWh enever
Ġstat istics
ĠJ ob
Ġmot or
Ġpred icts
ĠV ar
og rams
Ġunre ach
Ġconst ellation
ĠSe ven
mon ds
ĠChe ering
Ġlay ering
Ġstir red
Ġbri dging
ĠAl monds
Ġug liness
Ġscream ed
ĠCom plex
Ġchick s
Ġawa iting
Ġpe as
Ġlayer ed
Ġadventur ers
ĠEmot ion
ugg ing
Ġinvent ing
Ġsunr ay
ĠConf using
Ġdy es
Ġcand l
Ġom elets
Ġunsp oiled
Ġunif ied
ĠRep orting
Ġunexpl ored
Ġcrust y
Ġswirl s
Ġunmotiv ation
ĠNeg lecting
Ġlens es
Ġnur se
Ġelev ated
Ġsquir m
Ġshovel ing
Ġfox es
bl ocks
Ġmonit oring
ĠStrength ening
Ġconfin ement
Ġinh ab
Ġtab oo
ĠCompet itions
Ġvaccin ations
Ġinject ions
Ġdoorkno b
Ġrepurp ose
Ġbarg ains
Ġindic ates
Ġpir ates
Ġwatercol ors
Ġsubmit ted
Ġflee ce
Ġcyc lists
ĠFlex ibility
Ġfreez er
Ġpsych ology
ĠMispl acing
Ġdict ate
Ġgoose bumps
spe ed
e ums
k n
k ul
l ery
m us
m etry
t im
t emper
u ish
an oes
Ġs ought
Ġw o
or ie
Ġl as
Ġl am
Ġn in
ed ible
Ġun ground
Ġsh oot
Ġj ays
ce mber
os als
ĠH ur
ci als
alk s
Ġbr aking
Ġsu ited
Ġex ten
ĠW ed
Ġout line
Ġev ac
Ġpr icking
th es
ĠA h
Ġsun lit
ĠM ons
Ġde fl
Ġv ows
Ġgr inding
ĠF amiliar
end ip
Ġcomp ass
Ġsafe guard
Ġunc overs
to ck
Ġcommun al
urn ed
ĠC arrots
Ġexc el
Ġsen der
Ġair flow
ĠL i
Ġper k
Ġmoment arily
Ġtri al
Ġunf resh
Ġpo ets
ĠDe cember
Ġneg ot
Ġfin s
ĠTr ousers
br ave
Ġcut lery
less ness
Ġdraw backs
Ġcor al
Ġreach able
Ġindivid ually
Ġgent leness
Ġfire flies
Ġoverlook ing
Ġcollect or
Ġhorn et
ĠUn belie
Ġprop osals
Ġadjust ed
Ġobs ess
ĠAn ts
Ġsurf ing
Ġforg iveness
place able
Ġthread ing
ĠMus eums
Ġtim ings
oc r
Ġstock s
Ġwander ed
ĠClear ly
Ġcorrect ing
Ġvulner abilities
Ġoccasion al
Ġbold er
Ġpe er
Ġhalf way
ĠDon ating
ĠPro jects
Ġinstinct ively
Ġprevious ly
asm ine
Ġox id
mel ons
Ġletdown s
Ġnause ated
ĠMil itary
Ġintro ducing
Ġsmud ging
Ġminim um
Ġleash es
Ġsquir my
abl ishing
Ġperman ently
Ġunle arned
Ġu kul
Ġunharm ful
off s
Ġrasp berry
Ġdistribut ed
Ġcommer cials
Ġfoss il
Ġscrew s
ructure d
Ġindul ge
Ġunseason ably
ĠContin uing
Ġeval uate
Ġhandsh ake
Ġkil ograms
Ġmaxim ize
ĠHor ror
Ġsatell ites
Ġincorpor ate
Ġloun ging
Ġelder ly
Ġdesens it
Ġunground ed
c om
c omfortable
e qual
f at
f ive
f riend
n ate
p athy
t ell
v enty
Ġs ixt
Ġth orn
Ġc ele
Ġan c
Ġd Ã©
Ġl ash
Ġl ane
Ġbe ets
Ġha ze
Ġun ru
Ġse venty
Ġr ages
Ġr ational
ea bly
ĠH a
ĠH ugs
Ġex tr
ĠA str
Ġde fined
Ġde hydrat
de cor
Ġfl are
ĠF ans
Ġmem or
Ġwalk ways
Ġsk ipped
Ġunc omplet
Ġreal ism
ĠL ab
Ġdec omp
Ġhelpful ly
Ġsmile y
ĠB as
Ġpo et
Ġpast es
ĠN ail
Ġmix er
Ġstory tell
pl ay
Ġher ds
Ġprefer ring
Ġroad blocks
Ġcover ings
Ġbas ements
ro aching
Ġill ogical
Ġhon ored
Ġstiff est
Ġnarrow est
Ġmid day
Ġunhelp ed
Ġsalt water
Ġnum erous
Ġchest nut
Ġsel dom
Ġcorner ed
Ġpres erv
Ġcompassion ately
Ġcurve balls
ĠV id
ĠSw itching
Ġsym pathy
Ġtang ible
Ġsteep ness
Ġnutrition al
Ġphotograp hers
Ġcrum ble
ugg ling
Ġtra it
ĠHum id
Ġintr ude
ĠApp roaching
Ġdigest ive
ĠBr own
Ġuncon sidered
con trol
Ġtrem bles
Ġwri gg
Ġfacil ity
Ġunhealth ily
ĠInsp iring
Ġpal ate
Ġguarant eed
ĠDay time
Ġlap top
Ġmilksh ake
ĠBuild ers
Ġrepro duction
Ġcact us
Ġbull et
Ġinclus ivity
Ġunrelax ed
Ġbrut al
Ġscri pt
ĠLing ering
ĠBar be
Ġunreach ably
endip ity
Ġukul ele
Ġcele br
ĠdÃ© cor
Ġuncomplet ed
H ere
a ud
a ghetti
b ound
h igh
s and
t u
t ake
v ably
y n
Ġ utter
Ġa er
Ġf ather
us ter
el si
Ġh ood
Ġl ent
Ġfe ver
Ġp ads
Ġo t
Ġin edible
un ted
Ġbe am
Ġre ef
Ġun do
Ġst ables
ĠT op
ĠT asty
ir eless
Ġj asmine
ĠD iffer
Ġtr oops
ang ry
Ġqu acking
Ġbr ow
Ġbr oom
ĠW alks
Ġor b
Ġhard ness
