{"<|endoftext|>":0,"!":1,"\"":2,"#":3,"$":4,"%":5,"&":6,"'":7,"(":8,")":9,"*":10,"+":11,",":12,"-":13,".":14,"/":15,"0":16,"1":17,"2":18,"3":19,"4":20,"5":21,"6":22,"7":23,"8":24,"9":25,":":26,";":27,"<":28,"=":29,">":30,"?":31,"@":32,"A":33,"B":34,"C":35,"D":36,"E":37,"F":38,"G":39,"H":40,"I":41,"J":42,"K":43,"L":44,"M":45,"N":46,"O":47,"P":48,"Q":49,"R":50,"S":51,"T":52,"U":53,"V":54,"W":55,"X":56,"Y":57,"Z":58,"[":59,"\\":60,"]":61,"^":62,"_":63,"`":64,"a":65,"b":66,"c":67,"d":68,"e":69,"f":70,"g":71,"h":72,"i":73,"j":74,"k":75,"l":76,"m":77,"n":78,"o":79,"p":80,"q":81,"r":82,"s":83,"t":84,"u":85,"v":86,"w":87,"x":88,"y":89,"z":90,"{":91,"|":92,"}":93,"~":94,"¡":95,"¢":96,"£":97,"¤":98,"¥":99,"¦":100,"§":101,"¨":102,"©":103,"ª":104,"«":105,"¬":106,"®":107,"¯":108,"°":109,"±":110,"²":111,"³":112,"´":113,"µ":114,"¶":115,"·":116,"¸":117,"¹":118,"º":119,"»":120,"¼":121,"½":122,"¾":123,"¿":124,"À":125,"Á":126,"Â":127,"Ã":128,"Ä":129,"Å":130,"Æ":131,"Ç":132,"È":133,"É":134,"Ê":135,"Ë":136,"Ì":137,"Í":138,"Î":139,"Ï":140,"Ð":141,"Ñ":142,"Ò":143,"Ó":144,"Ô":145,"Õ":146,"Ö":147,"×":148,"Ø":149,"Ù":150,"Ú":151,"Û":152,"Ü":153,"Ý":154,"Þ":155,"ß":156,"à":157,"á":158,"â":159,"ã":160,"ä":161,"å":162,"æ":163,"ç":164,"è":165,"é":166,"ê":167,"ë":168,"ì":169,"í":170,"î":171,"ï":172,"ð":173,"ñ":174,"ò":175,"ó":176,"ô":177,"õ":178,"ö":179,"÷":180,"ø":181,"ù":182,"ú":183,"û":184,"ü":185,"ý":186,"þ":187,"ÿ":188,"Ā":189,"ā":190,"Ă":191,"ă":192,"Ą":193,"ą":194,"Ć":195,"ć":196,"Ĉ":197,"ĉ":198,"Ċ":199,"ċ":200,"Č":201,"č":202,"Ď":203,"ď":204,"Đ":205,"đ":206,"Ē":207,"ē":208,"Ĕ":209,"ĕ":210,"Ė":211,"ė":212,"Ę":213,"ę":214,"Ě":215,"ě":216,"Ĝ":217,"ĝ":218,"Ğ":219,"ğ":220,"Ġ":221,"ġ":222,"Ģ":223,"ģ":224,"Ĥ":225,"ĥ":226,"Ħ":227,"ħ":228,"Ĩ":229,"ĩ":230,"Ī":231,"ī":232,"Ĭ":233,"ĭ":234,"Į":235,"į":236,"İ":237,"ı":238,"Ĳ":239,"ĳ":240,"Ĵ":241,"ĵ":242,"Ķ":243,"ķ":244,"ĸ":245,"Ĺ":246,"ĺ":247,"Ļ":248,"ļ":249,"Ľ":250,"ľ":251,"Ŀ":252,"ŀ":253,"Ł":254,"ł":255,"Ń":256,"Ġt":257,"an":258,"<|":259,"|>":260,"in":261,"er":262,"Ġs":263,"is":264,"Ġth":265,"Ġw":266,"ou":267,"Ġa":268,"Ġf":269,"ing":270,"es":271,"us":272,"Ġc":273,"el":274,"as":275,"Ġm":276,"Ġb":277,"tan":278,"ĠI":279,"eo":280,"it":281,"Ġh":282,"re":283,"en":284,"at":285,"Ġto":286,"tant":287,"ass":288,"istant":289,"eos":290,"user":291,"Ġ<|":292,"assistant":293,"Ġan":294,"or":295,"Ġthe":296,"on":297,"Ġd":298,"Ġl":299,"Ġfe":300,"Ġand":301,"Ġfeel":302,"al":303,"Ġp":304,"Ġcan":305,"ay":306,"ar":307,"om":308,"et":309,"le":310,"Ġis":311,"Ġit":312,"Ġn":313,"Ġo":314,"Ġy":315,"Ġe":316,"Ġyou":317,"ke":318,"Ġin":319,"ow":320,"im":321,"un":322,"Ġwh":323,"out":324,"gh":325,"Ġwe":326,"Ġbe":327,"ly":328,"Ġg":329,"ver":330,"Ġli":331,"ght":332,"ic":333,"our":334,"Ġof":335,"Ġma":336,"ed":337,"Ġre":338,"Ġthat":339,"ct":340,"Ġha":341,"ĠY":342,"Ġour":343,"ut":344,"ld":345,"oo":346,"Ġab":347,"ĠIt":348,"ings":349,"ve":350,"Ġun":351,"ad":352,"Ġabout":353,"ĠYes":354,"Ġfor":355,"ot":356,"Ġst":357,"pe":358,"Ġdo":359,"Ġus":360,"her":361,"Ġwhen":362,"Ġsom":363,"der":364,"ĠT":365,"elp":366,"ul":367,"Ġse":368,"pp":369,"Ġhelp":370,"very":371,"ess":372,"ind":373,"ink":374,"ter":375,"ri":376,"ent":377,"Ġsh":378,"hat":379,"id":380,"Ġthink":381,"ch":382,"ion":383,"Ġlike":384,"ore":385,"Ġsee":386,"ple":387,"ur":388,"Ġso":389,"oy":390,"ould":391,"ll":392,"Ġhow":393,"ir":394,"Ġj":395,"oun":396,"ally":397,"Ġch":398,"ust":399,"ds":400,"if":401,"Ġon":402,"ith":403,"Ġwith":404,"Ġme":405,"ĠThat":406,"Ġen":407,"ce":408,"Ġnot":409,"os":410,"eople":411,"imes":412,"Ġmore":413,"Ġpeople":414,"ays":415,"Ġhapp":416,"ful":417,"Ġr":418,"Ġne":419,"Ġevery":420,"ood":421,"Ġbut":422,"Ġmake":423,"Ġmak":424,"Ġmy":425,"Ġsomet":426,"ĠD":427,"ely":428,"Ġtr":429,"ang":430,"ea":431,"Ġare":432,"day":433,"Ġwor":434,"ĠH":435,"ders":436,"Ġbet":437,"Ġthings":438,"hing":439,"tand":440,"ci":441,"ĠDo":442,"ell":443,"qu":444,"Ġfr":445,"Ġbetter":446,"derstand":447,"ard":448,"are":449,"ill":450,"Ġthis":451,"Ġunderstand":452,"Ġcom":453,"Ġho":454,"Ġtoday":455,"reat":456,"Ġim":457,"Ġreally":458,"Ġsoun":459,"Ġpl":460,"joy":461,"fe":462,"Ġenjoy":463,"right":464,"Ġmakes":465,"Ġfind":466,"alk":467,"Ġal":468,"Ġfeelings":469,"Ġimp":470,"Ġthey":471,"Ġqu":472,"Ġbr":473,"Ġsu":474,"Ġex":475,"ĠW":476,"ight":477,"Ġsounds":478,"ble":479,"ep":480,"ol":481,"one":482,"all":483,"Ġhope":484,"Ġhave":485,"ies":486,"Ġgood":487,"any":488,"Ġseem":489,"ain":490,"ere":491,"ime":492,"ions":493,"Ġsad":494,"Ġwon":495,"ide":496,"Ġhe":497,"ure":498,"Ġwonder":499,"ting":500,"Ġsometimes":501,"ten":502,"ice":503,"Ġsome":504,"Ġsm":505,"ite":506,"Ġtime":507,"Ġout":508,"Ġdis":509,"Ġyour":510,"Ġor":511,"ange":512,"Ġsp":513,"ant":514,"Ġjust":515,"Ġday":516,"Ġwill":517,"peci":518,"get":519,"Ġsur":520,"Ġway":521,"Ġev":522,"Ġpr":523,"Ġcon":524,"pr":525,"ents":526,"ook":527,"Ġfear":528,"Ġjoy":529,"ther":530,"Ġat":531,"ort":532,"Ġk":533,"Ġvery":534,"Ġtheir":535,"Ġfeeling":536,"Ġsa":537,"Ġother":538,"Ġimpor":539,"ello":540,"ĠHello":541,"Ġag":542,"Ġlo":543,"Ġle":544,"ry":545,"Ġif":546,"Ġcould":547,"ac":548,"ong":549,"Ġfeels":550,"Ġhard":551,"Ġtalk":552,"gether":553,"Ġimportant":554,"Ġhappy":555,"Ġstr":556,"Ġeven":557,"Ġam":558,"iff":559,"pris":560,"ose":561,"ness":562,"Ġsurpris":563,"Ġtogether":564,"Ġoften":565,"Ġmany":566,"ound":567,"aus":568,"up":569,"Ġdiff":570,"ĠS":571,"Ġmom":572,"Ġthou":573,"Ġthere":574,"Ġall":575,"ish":576,"Ġes":577,"Ġbright":578,"Ġeveryone":579,"Ġar":580,"Ġnew":581,"Ġwhat":582,"Ġbec":583,"Ġas":584,"ause":585,"ather":586,"pecially":587,"Ġespecially":588,"Ġke":589,"Ġthought":590,"Ġshould":591,"Ġup":592,"Ġdays":593,"th":594,"side":595,"ves":596,"Ġcle":597,"Ġnice":598,"Ġbit":599,"Ġdoes":600,"ast":601,"il":602,"se":603,"Ġbring":604,"Ġkeep":605,"Ġwould":606,"ree":607,"able":608,"ne":609,"thing":610,"Ġquite":611,"ways":612,"Ġmoments":613,"Ġalways":614,"ĠA":615,"ough":616,"ig":617,"ive":618,"Ġwant":619,"ese":620,"Ġcreat":621,"Ġchange":622,"Ġsun":623,"ĠM":624,"Ġpro":625,"Ġbecause":626,"Ġsmall":627,"Ġgo":628,"ark":629,"Ġta":630,"Ġhelps":631,"Ġweather":632,"ick":633,"art":634,"Ġthese":635,"Ġmight":636,"Ġfun":637,"Ġseems":638,"lect":639,"Ġfrom":640,"Ġfa":641,"Ġsuch":642,"Ġmu":643,"Ġaf":644,"Ġthem":645,"Ġde":646,"Ġeverything":647,"est":648,"rat":649,"Ġtoo":650,"Ġsomething":651,"ag":652,"Ġact":653,"ie":654,"Ġthose":655,"em":656,"Ġlook":657,"Ġmuch":658,"pect":659,"Ġlife":660,"Ġbad":661,"flect":662,"Ġnat":663,"Ġtry":664,"king":665,"aring":666,"Ġwish":667,"Ġrem":668,"Ġsc":669,"Ġothers":670,"act":671,"Ġdiffer":672,"tle":673,"Ġlit":674,"Ġagree":675,"ers":676,"ue":677,"Ġoutside":678,"Ġaround":679,"Ġgreat":680,"Ġang":681,"fort":682,"ile":683,"ate":684,"Ġplan":685,"st":686,"Ġexp":687,"arm":688,"bs":689,"ories":690,"ustrat":691,"Ġfrustrat":692,"Ġover":693,"ĠTh":694,"Ġlittle":695,"iv":696,"Ġneed":697,"Ġv":698,"Ġpos":699,"ach":700,"ĠWhat":701,"iness":702,"Ġshare":703,"now":704,"uring":705,"rien":706,"'s":707,"ence":708,"Ġgr":709,"orm":710,"Ġfrien":711,"Ġduring":712,"ation":713,"olut":714,"Ġany":715,"aut":716,"olutely":717,"Ġwas":718,"Ġtimes":719,"ous":720,"Ġcare":721,"ĠAbs":722,"ĠAbsolutely":723,"Ġclean":724,"ity":725,"eav":726,"ead":727,"hy":728,"ft":729,"Ġstay":730,"Ġsurprising":731,"Ġnature":732,"Ġbeaut":733,"cus":734,"Ġhappen":735,"Ġwonderful":736,"Ġheav":737,"eri":738,"Ġless":739,"Ġget":740,"Ġlov":741,"be":742,"its":743,"ĠSom":744,"'t":745,"Ġcl":746,"gust":747,"Ġdisgust":748,"Ġcreate":749,"ving":750,"Ġaw":751,"Ġid":752,"fect":753,"Ġways":754,"Ġever":755,"Ġidea":756,"Ġnow":757,"Ġfrustrating":758,"arn":759,"ace":760,"Ġlight":761,"ors":762,"de":763,"Ġinter":764,"am":765,"Ġmaking":766,"Ġthoughts":767,"Ġheavy":768,"Ġright":769,"Ġfl":770,"iting":771,"Ġwork":772,"ack":773,"Ġco":774,"Ġeas":775,"Ġby":776,"ĠWhy":777,"Ġsadness":778,"Ġhappiness":779,"Ġlovely":780,"Ġknow":781,"ier":782,"Ġwarm":783,"esting":784,"elie":785,"ment":786,"Ġangry":787,"ĠSomet":788,"ĠSometimes":789,"Ġbig":790,"Ġchang":791,"aybe":792,"Ġposit":793,"Ġlearn":794,"Ġcomm":795,"flecting":796,"Ġlove":797,"Ġsharing":798,"Ġeach":799,"Ġwhile":800,"Ġmind":801,"Ġlead":802,"Ġfriends":803,"Ġtough":804,"Ġheal":805,"Ġtake":806,"Ġbelie":807,"Ġsoon":808,"ily":809,"Ġfo":810,"ine":811,"ĠF":812,"Ġinteresting":813,"als":814,"ĠHow":815,"Ġdifferent":816,"ove":817,"ome":818,"Ġwat":819,"Ġsim":820,"ĠE":821,"set":822,"Ġfood":823,"ber":824,"Ġagain":825,"Ġune":826,"Ġthan":827,"Ġstrong":828,"aces":829,"Ġbelieve":830,"ap":831,"Ġlives":832,"Ġcal":833,"Ġapp":834,"Ġmem":835,"Ġwalk":836,"Ġcalm":837,"Ġad":838,"nect":839,"end":840,"ember":841,"Ġkind":842,"Ġinst":843,"Ġlift":844,"Ġchanges":845,"ult":846,"Ġres":847,"Ġconnect":848,"Ġfut":849,"Ġrel":850,"Ġbrings":851,"Ġworld":852,"Ġwithout":853,"Ġexperi":854,"Ġfuture":855,"ary":856,"si":857,"ared":858,"Ġpositive":859,"ĠR":860,"iful":861,"Ġbeautiful":862,"Ġche":863,"own":864,"âĢ":865,"ations":866,"âĢĻ":867,"Ġdark":868,"Ġspir":869,"Ġcomp":870,"Ġhealth":871,"Ġsit":872,"so":873,"ities":874,"Ġalso":875,"Ġfears":876,"Ġsupp":877,"ces":878,"age":879,"Ġsafe":880,"Ġtrue":881,"Ġfocus":882,"Ġinstead":883,"Ġafter":884,"Ġdid":885,"sel":886,"ny":887,"Ġremember":888,"Ġcol":889,"Ġquick":890,"ĠMany":891,"Ġhas":892,"Ġdown":893,"ices":894,"Ġmemories":895,"Ġsimple":896,"Ġtalking":897,"Ġbeing":898,"Ġcomfort":899,"ert":900,"Ġcho":901,"Ġstrange":902,"eace":903,"Ġpeace":904,"Ġwhy":905,"Ġaway":906,"ck":907,"Ġspirits":908,"ich":909,"Ġwell":910,"ost":911,"Ġsk":912,"iz":913,"reci":914,"oom":915,"Ġspeci":916,"Ġop":917,"Ġgu":918,"Ġspecial":919,"Ġlat":920,"Ġunc":921,"ĠEx":922,"Ġupset":923,"Ġgrow":924,"Ġno":925,"Ġclear":926,"Ġscared":927,"Ġdisgusted":928,"Ġdr":929,"to":930,"Ġbrighter":931,"Ġlong":932,"actly":933,"inding":934,"Ġbl":935,"icult":936,"Ġdifficult":937,"ire":938,"esh":939,"Ġplay":940,"Ġexpect":941,"Ġwhich":942,"Ġappreci":943,"here":944,"ax":945,"ild":946,"ĠExactly":947,"Ġsaf":948,"Ġsitu":949,"Ġpark":950,"Ġmood":951,"Ġgl":952,"ms":953,"Ġworry":954,"Ġaffect":955,"Ġsupport":956,"Ġstill":957,"ward":958,"Ġef":959,"ak":960,"Ġmis":961,"Ġproble":962,"Ġquickly":963,"Ġimpr":964,"not":965,"Ġshow":966,"Ġworri":967,"Ġhear":968,"Ġheart":969,"ĠFinding":970,"Ġnorm":971,"Ġrelax":972,"Ġread":973,"ise":974,"Ġstories":975,"Ġnormal":976,"Ġcommun":977,"Ġappreciate":978,"urn":979,"Ġunderstanding":980,"Ġtru":981,"Ġfresh":982,"ĠC":983,"Ġbu":984,"vor":985,"Ġtruly":986,"Ġrain":987,"ave":988,"Ġexc":989,"Ġem":990,"ĠThe":991,"ĠRe":992,"oth":993,"oin":994,"Ġmade":995,"Ġinto":996,"Ġlet":997,"Ġfearful":998,"Ġactiv":999,"Ġsen":1000,"eng":1001,"Ġsunny":1002,"xt":1003,"Ġthr":1004,"iron":1005,"Ġremind":1006,"alleng":1007,"Ġmo":1008,"Ġchalleng":1009,"ching":1010,"Ġwr":1011,"ek":1012,"and":1013,"Ġide":1014,"ĠMaybe":1015,"Ġideas":1016,"Ġweek":1017,"Ġscary":1018,"Ġair":1019,"Ġstart":1020,"ty":1021,"Ġnight":1022,"um":1023,"Ġcannot":1024,"Ġone":1025,"Ġplaces":1026,"Ġsense":1027,"du":1028,"Ġchoices":1029,"Ġcome":1030,"ĠReflecting":1031,"isten":1032,"Ġfavor":1033,"Ġdon":1034,"ign":1035,"Ġenv":1036,"Ġmess":1037,"Ġenviron":1038,"Ġguess":1039,"ip":1040,"Ġreflect":1041,"Ġimprove":1042,"ences":1043,"Ġdifference":1044,"Ġnext":1045,"Ġthinking":1046,"aste":1047,"ious":1048,"Ġcheer":1049,"Ġfavorite":1050,"ix":1051,"ect":1052,"Ġactions":1053,"Ġpre":1054,"Ġback":1055,"eone":1056,"Ġsomeone":1057,"Ġtea":1058,"Ġinside":1059,"Ġhaving":1060,"ance":1061,"ertain":1062,"az":1063,"Ġenjoyable":1064,"Ġenvironment":1065,"pected":1066,"ank":1067,"ety":1068,"Ġflow":1069,"Ġunex":1070,"Ġmat":1071,"Ġcompl":1072,"Ġplace":1073,"fin":1074,"Ġproblems":1075,"kay":1076,"Ġactivities":1077,"wn":1078,"Ġdes":1079,"Ġokay":1080,"itely":1081,"fore":1082,"Ġbefore":1083,"finitely":1084,"Ġwa":1085,"Ġoff":1086,"Ġlisten":1087,"Ġreal":1088,"Ġexpl":1089,"Ġlately":1090,"sh":1091,"Ġamaz":1092,"ĠL":1093,"Ġcr":1094,"ren":1095,"Ġfinding":1096,"app":1097,"oud":1098,"Ġunexpected":1099,"tr":1100,"ures":1101,"Ġsurprised":1102,"Ġreflecting":1103,"Ġspace":1104,"Ġwind":1105,"les":1106,"Ġiss":1107,"asant":1108,"Ġsol":1109,"Ġmaybe":1110,"ake":1111,"Ġmay":1112,"op":1113,"Ġhappier":1114,"Ġisn":1115,"do":1116,"Ġanim":1117,"ating":1118,"ĠYou":1119,"selves":1120,"Ġits":1121,"Ġdel":1122,"Ġcar":1123,"Ġinv":1124,"Ġsw":1125,"Ġthrough":1126,"Ġalone":1127,"sible":1128,"ull":1129,"Ġhere":1130,"Ġamazing":1131,"Ġper":1132,"Ġnews":1133,"ĠHave":1134,"Ġbrighten":1135,"me":1136,"Ġcolors":1137,"Ġbeen":1138,"ĠP":1139,"ning":1140,"Ġbo":1141,"Ġuse":1142,"Ġsl":1143,"Ġlast":1144,"av":1145,"Ġcook":1146,"Ġsame":1147,"ason":1148,"Ġminds":1149,"Ġstorm":1150,"Ġforward":1151,"ĠThank":1152,"ear":1153,"Ġdir":1154,"Ġexperiences":1155,"Ġworries":1156,"Ġbre":1157,"ts":1158,"Ġcomplet":1159,"co":1160,"Ġcold":1161,"shine":1162,"Ġjoyful":1163,"ming":1164,"Ġopen":1165,"Ġface":1166,"Ġstep":1167,"Ġplans":1168,"Ġfam":1169,"ues":1170,"Ġanger":1171,"Ġdeep":1172,"Ġenjoying":1173,"Ġflowers":1174,"Ġold":1175,"Ġunderstandable":1176,"gg":1177,"Ġuneas":1178,"Ġemot":1179,"Ġla":1180,"vers":1181,"Ġwho":1182,"iet":1183,"Ġgoing":1184,"deed":1185,"aking":1186,"Ġcheerful":1187,"Ġbeauty":1188,"Ġda":1189,"Ġsaw":1190,"Ġturn":1191,"arden":1192,"wh":1193,"Ġsec":1194,"Ġkindness":1195,"Ġend":1196,"Ġsunshine":1197,"Ġanimals":1198,"head":1199,"whel":1200,"Ġoverwhel":1201,"Ġuneasy":1202,"Ġsky":1203,"Ġgarden":1204,"igh":1205,"Ġhad":1206,"Ġahead":1207,"Ġwater":1208,"ical":1209,"Ġexperience":1210,"ize":1211,"Ġquiet":1212,"row":1213,"Ġbuild":1214,"ool":1215,"Ġlearning":1216,"Ġpat":1217,"Ġboth":1218,"ict":1219,"Ġhealthy":1220,"Ġmus":1221,"Ġhappening":1222,"cuss":1223,"Ġsituation":1224,"Ġemotions":1225,"Ġdiscuss":1226,"Ġeffort":1227,"led":1228,"ling":1229,"elc":1230,"Ġown":1231,"Ġlea":1232,"Ġlot":1233,"Ġconf":1234,"ĠWe":1235,"Ġlooks":1236,"ory":1237,"Ġtaking":1238,"Ġourselves":1239,"Ġunk":1240,"Ġgloom":1241,"Ġdaily":1242,"Ġexciting":1243,"Ġman":1244,"Ġissues":1245,"ge":1246,"ked":1247,"Ġtrying":1248,"Ġease":1249,"Ġnever":1250,"Ġjoys":1251,"cess":1252,"Ġmoment":1253,"Ġupsetting":1254,"Ġnotic":1255,"Ġunple":1256,"Ġhearts":1257,"Ġbus":1258,"other":1259,"ually":1260,"Ġdirty":1261,"Ġcommon":1262,"Ġsound":1263,"Ġlighten":1264,"Ġav":1265,"Ġwrong":1266,"Ġval":1267,"Ġgloomy":1268,"Ġfriend":1269,"Ġplant":1270,"Ġmeet":1271,"Ġtre":1272,"gy":1273,"Ġspend":1274,"Ġbest":1275,"Ġsafety":1276,"Ġpain":1277,"Ġlau":1278,"Ġbook":1279,"aps":1280,"Ġyear":1281,"Ġcompletely":1282,"Ġstress":1283,"Ġpart":1284,"Ġmiss":1285,"ash":1286,"sp":1287,"Ġshin":1288,"air":1289,"ist":1290,"Ġbeh":1291,"where":1292,"Ġdec":1293,"self":1294,"Ġtri":1295,"ows":1296,"Ġbreak":1297,"Ġmusic":1298,"ved":1299,"Ġvis":1300,"Ġac":1301,"Ġheard":1302,"Ġnoticed":1303,"Ġart":1304,"Ġsmell":1305,"Ġhelpful":1306,"pon":1307,"Ġnear":1308,"ks":1309,"Ġconvers":1310,"eet":1311,"Ġdisgusting":1312,"Ġhome":1313,"oose":1314,"Ġfright":1315,"haps":1316,"round":1317,"ject":1318,"Ġfix":1319,"den":1320,"Ġdoesn":1321,"Ġcommunity":1322,"Ġdrink":1323,"doors":1324,"Ġcause":1325,"Ġkeeping":1326,"estion":1327,"ouds":1328,"Ġeasier":1329,"Ġann":1330,"Ġrespect":1331,"Ġsmile":1332,"ub":1333,"Ġrespon":1334,"Ġhold":1335,"Ġclouds":1336,"Ġshows":1337,"Ġwelc":1338,"Ġfamily":1339,"Ġannoy":1340,"Ġoverwhelming":1341,"Ġdisco":1342,"Ġpers":1343,"Ġloud":1344,"oods":1345,"ĠB":1346,"ural":1347,"Ġworse":1348,"Ġfrighten":1349,"Ġsurprises":1350,"omfort":1351,"Ġatt":1352,"ĠIn":1353,"oid":1354,"Ġunf":1355,"Ġro":1356,"press":1357,"Ġunpleasant":1358,"Ġpo":1359,"Ġener":1360,"Ġcareful":1361,"Ġmove":1362,"acing":1363,"Ġavoid":1364,"Ġforget":1365,"Ġpossible":1366,"Ġmust":1367,"Ġel":1368,"Ġlooking":1369,"Ġstick":1370,"Ġadv":1371,"Ġhar":1372,"Ġexpress":1373,"Ġsurround":1374,"Ġlost":1375,"Ġnatural":1376,"Ġexplore":1377,"Ġyes":1378,"Ġcooking":1379,"Ġrec":1380,"Ġsituations":1381,"Ġchallenges":1382,"Ġstaying":1383,"Ġusing":1384,"Ġsolut":1385,"orrow":1386,"Ġtas":1387,"Ġpast":1388,"erv":1389,"Ġgam":1390,"Ġmost":1391,"Ġslow":1392,"terday":1393,"Ġdefinitely":1394,"Ġanx":1395,"Ġinvol":1396,"Ġwise":1397,"Ġyesterday":1398,"Ġadd":1399,"Ġpeaceful":1400,"kes":1401,"Ġsafer":1402,"Ġsurprise":1403,"Ġtrees":1404,"Ġwatching":1405,"cour":1406,"Ġdiscover":1407,"Ġeverywhere":1408,"Ġfull":1409,"Ġconc":1410,"ud":1411,"Ġsho":1412,"per":1413,"Ġspaces":1414,"Ġhopeful":1415,"ired":1416,"Ġtom":1417,"Ġuncertain":1418,"Ġstru":1419,"Ġwelcome":1420,"Ġmean":1421,"Ġwatch":1422,"Ġeffect":1423,"read":1424,"Ġunw":1425,"Ġtast":1426,"Ġtomorrow":1427,"duce":1428,"Ġsure":1429,"Ġreading":1430,"Ġwhere":1431,"ems":1432,"Ġsweet":1433,"ĠThose":1434,"Ġevents":1435,"Ġplants":1436,"ade":1437,"Ġenergy":1438,"Ġcolor":1439,"Ġseeing":1440,"Ġhur":1441,"Ġple":1442,"Ġgets":1443,"Ġinvolved":1444,"Ġsurroundings":1445,"appoin":1446,"Ġhand":1447,"Ġtrou":1448,"tance":1449,"Ġbir":1450,"Ġdisappoin":1451,"Ġign":1452,"Ġsin":1453,"Ġencour":1454,"Ġindeed":1455,"Ġannoying":1456,"lic":1457,"alking":1458,"Ġri":1459,"Ġfrightening":1460,"Ġsince":1461,"Ġlighter":1462,"ail":1463,"Ġinsp":1464,"Ġtreat":1465,"Ġwords":1466,"Ġunfair":1467,"Ġanxious":1468,"elt":1469,"Ġplaying":1470,"Ġtaste":1471,"Ġtop":1472,"Ġimpact":1473,"Ġdelic":1474,"Ġanyone":1475,"form":1476,"Ġsay":1477,"oss":1478,"Ġwere":1479,"Ġaware":1480,"Ġbusy":1481,"Ġhab":1482,"Ġuncomfort":1483,"Ġjour":1484,"Ġrealize":1485,"ĠDid":1486,"Ġimag":1487,"ush":1488,"Ġsn":1489,"Ġwaiting":1490,"ra":1491,"Ġnotice":1492,"Ġfacing":1493,"Ġwaste":1494,"ĠCh":1495,"ips":1496,"ret":1497,"ase":1498,"ention":1499,"Ġcertain":1500,"ises":1501,"Ġchat":1502,"Ġthank":1503,"Ġdang":1504,"Ġbecome":1505,"Ġfelt":1506,"Ġreason":1507,"Ġwarmth":1508,"ney":1509,"Ġbal":1510,"Ġuncomfortable":1511,"Ġjourney":1512,"orting":1513,"Ġwalking":1514,"Ġmatter":1515,"Ġchallenging":1516,"Ġdoing":1517,"Ġpow":1518,"oring":1519,"iew":1520,"Ġhigh":1521,"ets":1522,"Ġperfect":1523,"ivity":1524,"Ġtired":1525,"Ġeasily":1526,"ated":1527,"Ġquestion":1528,"Ġyet":1529,"Ġru":1530,"ab":1531,"Ġsteps":1532,"Ġones":1533,"Ġproject":1534,"raid":1535,"ĠSt":1536,"Ġtakes":1537,"Ġgetting":1538,"Ġlistening":1539,"Ġlater":1540,"Ġmov":1541,"Ġusually":1542,"ount":1543,"omes":1544,"Ġref":1545,"Ġdeal":1546,"Ġrun":1547,"ĠSh":1548,"Ġperson":1549,"Ġrest":1550,"Ġignore":1551,"Ġafraid":1552,"Ġchoose":1553,"ĠDe":1554,"Ġspending":1555,"Ġunh":1556,"ublic":1557,"ĠN":1558,"erious":1559,"Ġpublic":1560,"Ġserious":1561,"red":1562,"Ġlow":1563,"Ġvisit":1564,"Ġunkind":1565,"Ġconcer":1566,"Ġview":1567,"ards":1568,"Ġstrugg":1569,"ently":1570,"Ġmeals":1571,"Ġweekend":1572,"Ġcomes":1573,"Ġneeds":1574,"fer":1575,"Ġhabits":1576,"Ġrefr":1577,"akes":1578,"Ġitems":1579,"ĠDefinitely":1580,"Ġdri":1581,"ghter":1582,"Ġworried":1583,"Ġtried":1584,"Ġroom":1585,"Ġreg":1586,"Ġsoft":1587,"cts":1588,"Ġtasks":1589,"uck":1590,"Ġmessy":1591,"Ġmor":1592,"Ġprot":1593,"Ġstronger":1594,"Ġmist":1595,"Ġworking":1596,"Ġtrash":1597,"mer":1598,"lean":1599,"Ġeat":1600,"osp":1601,"aying":1602,"Ġneg":1603,"ng":1604,"Ġharm":1605,"sider":1606,"Ġconnected":1607,"ments":1608,"Ġhid":1609,"Ġwin":1610,"Ġmix":1611,"Ġcommunic":1612,"Ġasking":1613,"iqu":1614,"ular":1615,"ives":1616,"Ġpower":1617,"Ġcur":1618,"Ġseason":1619,"Ġconsider":1620,"Ġstory":1621,"Ġweight":1622,"Ġfru":1623,"Ġfall":1624,"Ġleave":1625,"wards":1626,"mmer":1627,"Ġused":1628,"Ġfound":1629,"Ġadvent":1630,"Ġear":1631,"Ġbalance":1632,"pl":1633,"Ġkeeps":1634,"Ġreduce":1635,"Ġattention":1636,"Ġcleaning":1637,"Ġhappens":1638,"Ġencourage":1639,"Ġbreat":1640,"Ġfocusing":1641,"Ġpol":1642,"Ġcontr":1643,"Ġgive":1644,"oup":1645,"Ġmanage":1646,"itch":1647,"ĠTalking":1648,"ively":1649,"Ġsmoo":1650,"Ġfir":1651,"Ġdisappointing":1652,"ĠO":1653,"Ġsolutions":1654,"Ġharder":1655,"Ġinc":1656,"Ġproper":1657,"Ġstop":1658,"Ġconfus":1659,"ited":1660,"Ġstorms":1661,"Ġprep":1662,"Ġbod":1663,"Ġdog":1664,"Ġap":1665,"Ġeasy":1666,"Ġtrick":1667,"Ġnoise":1668,"Ġnoises":1669,"Ġshining":1670,"Ġoverall":1671,"Ġoutdoors":1672,"Ġher":1673,"pes":1674,"Ġelse":1675,"Ġsil":1676,"gan":1677,"oney":1678,"Ġliving":1679,"Ġfas":1680,"ken":1681,"Ġglad":1682,"Ġcomf":1683,"Ġcontrol":1684,"Ġdecis":1685,"ump":1686,"iling":1687,"Ġchild":1688,"Ġconversations":1689,"Ġdanger":1690,"ĠThere":1691,"Ġvi":1692,"Ġhurt":1693,"Ġconnections":1694,"Ġcoming":1695,"Ġgre":1696,"Ġhandle":1697,"Ġcaus":1698,"sib":1699,"Ġfirst":1700,"ooked":1701,"Ġput":1702,"Ġmyself":1703,"Ġcat":1704,"Ġpass":1705,"Ġcomforting":1706,"ĠTaking":1707,"Ġmorning":1708,"oming":1709,"Ġnegat":1710,"Ġuniqu":1711,"Ġseen":1712,"ual":1713,"Ġbro":1714,"Ġspread":1715,"Ġgames":1716,"Ġdeeply":1717,"Ġfin":1718,"Ġconcern":1719,"Ġmoney":1720,"Ġinform":1721,"Ġwinter":1722,"idy":1723,"Ġpleasant":1724,"Ġlaughter":1725,"aw":1726,"Ġreminds":1727,"tions":1728,"Ġshad":1729,"Ġwet":1730,"ics":1731,"Ġunique":1732,"Ġsticky":1733,"Ġbehav":1734,"Ġbehavi":1735,"Ġanything":1736,"cking":1737,"light":1738,"Ġfunny":1739,"Ġpath":1740,"ring":1741,"Ġready":1742,"Ġjoin":1743,"Ġmon":1744,"eshing":1745,"osing":1746,"Ġfly":1747,"appe":1748,"Ġrefreshing":1749,"gth":1750,"rength":1751,"Ġpri":1752,"Ġpict":1753,"Ġprotect":1754,"Ġblue":1755,"Ġstrength":1756,"Ġchoice":1757,"Ġcarry":1758,"Ġfil":1759,"Ġsmooth":1760,"Ġsummer":1761,"Ġtidy":1762,"Ġcreating":1763,"Ġinspire":1764,"by":1765,"aling":1766,"Ġprefer":1767,"tract":1768,"ame":1769,"Ġunexpectedly":1770,"Ġenough":1771,"Ġshared":1772,"ality":1773,"Ġlonger":1774,"Ġacc":1775,"duc":1776,"Ġfar":1777,"Ġorgan":1778,"Ġpract":1779,"ife":1780,"Ġmeal":1781,"Ġdish":1782,"Ġonce":1783,"Ġpic":1784,"Ġpati":1785,"Ġfree":1786,"Ġeating":1787,"Ġrelaxed":1788,"Ġruin":1789,"ĠPer":1790,"Ġcons":1791,"Ġdesign":1792,"Ġsnack":1793,"Ġlaugh":1794,"Ġshar":1795,"Ġdry":1796,"Ġgoes":1797,"ĠIndeed":1798,"Ġtowards":1799,"ills":1800,"Ġwriting":1801,"Ġteam":1802,"Ġcaring":1803,"pt":1804,"Ġtou":1805,"ervous":1806,"Ġperhaps":1807,"leep":1808,"Ġnervous":1809,"Ġaffects":1810,"sibil":1811,"Ġimportance":1812,"Ġaut":1813,"mosp":1814,"Ġatmosp":1815,"ger":1816,"Ġbreath":1817,"Ġoptions":1818,"Ġatmosphere":1819,"ven":1820,"ĠPerhaps":1821,"Ġarea":1822,"Ġspring":1823,"Ġevent":1824,"Ġpoor":1825,"Ġyoung":1826,"Ġ[":1827,"ream":1828,"ines":1829,"ST":1830,"IN":1831,"INST":1832,"Ġ[/":1833,"ape":1834,"Ġpicn":1835,"Ġdesp":1836,"Ġcheck":1837,"Ġbirds":1838,"Ġcomfortable":1839,"Ġlon":1840,"door":1841,"Ġregular":1842,"Ġcloth":1843,"Ġonly":1844,"Ġcont":1845,"Ġdespite":1846,"Ġpoin":1847,"Ġwait":1848,"Ġcope":1849,"Ġfrustration":1850,"Ġground":1851,"Ġshort":1852,"Ġhelping":1853,"Ġcloud":1854,"ener":1855,"itchen":1856,"Ġkitchen":1857,"ĠMy":1858,"Ġclos":1859,"Ġcalming":1860,"Ġstuck":1861,"Ġtasty":1862,"Ġexcited":1863,"Ġmoving":1864,"ĠTr":1865,"Ġsecure":1866,"ĠStaying":1867,"Ġsleep":1868,"Ġunclean":1869,"Ġbroken":1870,"ĠChange":1871,"Ġthick":1872,"Ġshe":1873,"br":1874,"Ġdep":1875,"Ġproblem":1876,"Ġsharp":1877,"ains":1878,"Ġmateri":1879,"Ġrough":1880,"Ġmeeting":1881,"ature":1882,"ork":1883,"Ġsoci":1884,"Ġtroub":1885,"ond":1886,"Ġdelight":1887,"Ġtight":1888,"esent":1889,"zy":1890,"ĠLet":1891,"Ġbuilding":1892,"Ġmet":1893,"Ġunknow":1894,"Ġbur":1895,"Ġbloom":1896,"Ġind":1897,"Ġmovie":1898,"Ġlooked":1899,"Ġchildren":1900,"Ġswim":1901,"ĠSharing":1902,"Ġunknown":1903,"hips":1904,"Ġunset":1905,"Ġdam":1906,"llow":1907,"Ġquality":1908,"Ġleft":1909,"ope":1910,"Ġappe":1911,"ands":1912,"Ġmark":1913,"Ġsch":1914,"pping":1915,"Ġmed":1916,"Ġunder":1917,"Ġgrowth":1918,"Ġshadows":1919,"Ġproperly":1920,"Ġtall":1921,"Ġwanted":1922,"Ġalive":1923,"Ġte":1924,"Ġcher":1925,"ĠSome":1926,"Ġbrightly":1927,"Ġvalue":1928,"tling":1929,"Ġcozy":1930,"Ġspe":1931,"Ġreact":1932,"Ġdelicious":1933,"Ġexploring":1934,"Ġdelightful":1935,"cessary":1936,"Ġclearly":1937,"ized":1938,"Ġconnection":1939,"Ġrecently":1940,"Ġleaves":1941,"Ġuns":1942,"Ġshake":1943,"Ġbehavior":1944,"Ġlonely":1945,"Ġresponsible":1946,"Ġrelaxing":1947,"Ġopp":1948,"Ġunsettling":1949,"ules":1950,"Ġpoint":1951,"Ġprocess":1952,"Ġunin":1953,"Ġamong":1954,"Ġfoods":1955,"Ġtouch":1956,"Ġmixed":1957,"Ġconversation":1958,"ouse":1959,"cin":1960,"vel":1961,"Ġfascin":1962,"Ġcommunication":1963,"ike":1964,"Ġfre":1965,"Ġanother":1966,"astic":1967,"ale":1968,"Ġbooks":1969,"Ġfascinating":1970,"eel":1971,"Ġhouse":1972,"Ġcherish":1973,"ned":1974,"uri":1975,"ledge":1976,"Ġchanging":1977,"ition":1978,"Ġsnow":1979,"Ġroad":1980,"Ġhum":1981,"ons":1982,"Ġtool":1983,"otiv":1984,"Ġdet":1985,"Ġdriving":1986,"Ġrece":1987,"Ġriver":1988,"Ġbother":1989,"appealing":1990,"Ġsong":1991,"eless":1992,"Ġunappealing":1993,"Ġmeaning":1994,"Ġcover":1995,"we":1996,"Ġfast":1997,"Ġteach":1998,"Ġtrust":1999,"Ġbringing":2000,"iss":2001,"Ġconfid":2002,"Ġdecisions":2003,"Ġcurren":2004,"ene":2005,"Ġbas":2006,"Ġnearby":2007,"Ġbehind":2008,"Ġheat":2009,"Ġsign":2010,"Ġcolorful":2011,"Ġgather":2012,"Ġrules":2013,"Ġsnacks":2014,"Ġcurrent":2015,"Ġlack":2016,"Ġmoon":2017,"Ġeduc":2018,"Ġyourself":2019,"ween":2020,"Ġbetween":2021,"Ġpay":2022,"ĠNature":2023,"dd":2024,"Ġcreates":2025,"Ġmistakes":2026,"Ġsugg":2027,"Ġpicnic":2028,"Ġthing":2029,"Ġmoods":2030,"Ġindoors":2031,"Ġplanned":2032,"avel":2033,"Ġplanet":2034,"Ġsecret":2035,"Ġawareness":2036,"Ġnothing":2037,"Ġexpected":2038,"Ġchance":2039,"Ġsy":2040,"Ġimagin":2041,"ails":2042,"Ġty":2043,"Ġeveryday":2044,"Ġcleaner":2045,"anging":2046,"Ġhappened":2047,"Ġunwell":2048,"Ġgives":2049,"Ġgener":2050,"izing":2051,"Ġmanag":2052,"Ġreward":2053,"Ġrather":2054,"Ġpolit":2055,"Ġcru":2056,"Ġissue":2057,"bor":2058,"Ġcut":2059,"Ġthough":2060,"ath":2061,"Ġunp":2062,"Ġaction":2063,"ction":2064,"elf":2065,"Ġtravel":2066,"Ġred":2067,"Ġmatters":2068,"rate":2069,"liness":2070,"viting":2071,"oke":2072,"Ġmonth":2073,"Ġmedical":2074,"Ġviol":2075,"bt":2076,"Ġdiscussions":2077,"Ġjump":2078,"Ġclose":2079,"Ġloved":2080,"Ġdepend":2081,"Ġknowledge":2082,"Ġtown":2083,"Ġbigger":2084,"Ġwindow":2085,"Ġnic":2086,"ĠG":2087,"ĠTrue":2088,"iles":2089,"dden":2090,"less":2091,"Ġefforts":2092,"Ġhist":2093,"Ġcond":2094,"Ġhealthier":2095,"Ġpatience":2096,"Ġbitter":2097,"Ġtell":2098,"Ġsudden":2099,"Ġuninviting":2100,"Ġris":2101,"being":2102,"Ġdraw":2103,"Ġcommunities":2104,"ress":2105,"Ġsmells":2106,"Ġoutdoor":2107,"Ġfamil":2108,"Ġtw":2109,"Ġunt":2110,"Ġhot":2111,"Ġsociety":2112,"Ġsunlight":2113,"ro":2114,"ens":2115,"Ġmatch":2116,"Ġstar":2117,"fully":2118,"Ġspot":2119,"Ġroo":2120,"Ġdangerous":2121,"Ġcleanliness":2122,"Ġeng":2123,"Ġbodies":2124,"Ġvo":2125,"Ġcreativity":2126,"Ġprodu":2127,"work":2128,"Ġhomes":2129,"Ġcool":2130,"Ġclothes":2131,"Ġpolitical":2132,"Ġguide":2133,"nam":2134,"Ġparks":2135,"Ġcuri":2136,"Ġadventure":2137,"Ġhor":2138,"Ġcor":2139,"Ġadds":2140,"Ġlosing":2141,"Ġpresent":2142,"Ġgame":2143,"Ġtrouble":2144,"Ġoven":2145,"Ġstruggle":2146,"ests":2147,"Ġdelicate":2148,"Ġfruit":2149,"Ġeducation":2150,"ries":2151,"ying":2152,"Ġfilled":2153,"Ġtools":2154,"ances":2155,"nee":2156,"ele":2157,"ivid":2158,"erve":2159,"Ġhistory":2160,"Ġinformation":2161,"Ġschool":2162,"Ġconfusing":2163,"Ġsty":2164,"Ġmaterials":2165,"ĠHope":2166,"lif":2167,"Ġflat":2168,"Ġret":2169,"ement":2170,"Ġreach":2171,"Ġoffer":2172,"Ġfew":2173,"Ġreci":2174,"Ġuplif":2175,"sw":2176,"Ġhidden":2177,"ze":2178,"Ġdust":2179,"Ġornam":2180,"Ġvalu":2181,"Ġareas":2182,"Ġrout":2183,"Ġchea":2184,"Ġkey":2185,"Ġnecessary":2186,"Ġreturn":2187,"ĠLife":2188,"iring":2189,"ĠWould":2190,"Ġpap":2191,"Ġdrinks":2192,"Ġsmiles":2193,"Ġflav":2194,"itions":2195,"Ġbadness":2196,"Ġload":2197,"Ġappear":2198,"Ġsea":2199,"Ġfinish":2200,"Ġfrustrated":2201,"Ġstore":2202,"Ġsand":2203,"Ġprov":2204,"Ġthemselves":2205,"ĠU":2206,"ought":2207,"med":2208,"Ġdiscussing":2209,"redict":2210,"Ġdull":2211,"Ġgross":2212,"Ġskin":2213,"Ġsolid":2214,"Ġflavors":2215,"Ġappro":2216,"Ġemp":2217,"Ġunpredict":2218,"Ġwhole":2219,"fl":2220,"Ġtopics":2221,"ĠK":2222,"Ġdead":2223,"Ġful":2224,"Ġmissing":2225,"Ġpriv":2226,"Ġequ":2227,"Ġjud":2228,"ĠPeople":2229,"Ġpersonal":2230,"Ġhop":2231,"Ġthin":2232,"look":2233,"Ġblack":2234,"alse":2235,"Ġcreative":2236,"Ġtree":2237,"Ġey":2238,"Ġpets":2239,"Ġsurely":2240,"Ġcruel":2241,"Ġlitter":2242,"Ġcheap":2243,"ans":2244,"Ġserv":2245,"like":2246,"ock":2247,"Ġfalse":2248,"Ġgrass":2249,"Ġresponsibil":2250,"Ġunders":2251,"Ġsyst":2252,"Ġrainy":2253,"tain":2254,"Ġpractice":2255,"Ġill":2256,"Ġfool":2257,"ĠThey":2258,"Ġfight":2259,"ages":2260,"Ġber":2261,"ner":2262,"Ġnegative":2263,"Ġcareless":2264,"Ġfarm":2265,"Ġpositively":2266,"Ġfoolish":2267,"Ġansw":2268,"Ġgrey":2269,"chn":2270,"apt":2271,"Ġjo":2272,"Ġslowly":2273,"Ġgroup":2274,"Ġhearing":2275,"Ġworks":2276,"Ġhon":2277,"eing":2278,"ats":2279,"Ġindivid":2280,"Ġshines":2281,"ishing":2282,"Ġdear":2283,"hys":2284,"Ġimagine":2285,"ial":2286,"eleb":2287,"Ġprivate":2288,"Ġuntil":2289,"Ġsolution":2290,"Ġstret":2291,"Ġactivity":2292,"Ġmarket":2293,"Ġtechn":2294,"Ġfore":2295,"ru":2296,"Ġstiff":2297,"Ġlim":2298,"Ġtrain":2299,"cle":2300,"Ġskills":2301,"Ġdig":2302,"Ġwear":2303,"Ġshine":2304,"Ġenjoyed":2305,"dle":2306,"Ġsci":2307,"Ġphys":2308,"Ġlose":2309,"Ġpainting":2310,"Ġwalks":2311,"Ġloose":2312,"Ġsight":2313,"Ġopin":2314,"Ġwhite":2315,"Ġflo":2316,"uals":2317,"Ġdetails":2318,"Ġdistract":2319,"arning":2320,"Ġstre":2321,"Ġunpredictable":2322,"ew":2323,"Ġpaint":2324,"Ġcloser":2325,"Ġset":2326,"Ġceleb":2327,"Ġreco":2328,"Ġstressful":2329,"Ġcomplete":2330,"Ġtoy":2331,"Ġunus":2332,"Ġfair":2333,"Ġthri":2334,"Ġbeach":2335,"Ġnar":2336,"Ġspo":2337,"Ġindividuals":2338,"Ġincre":2339,"otivated":2340,"Ġmach":2341,"Ġplanning":2342,"anc":2343,"Ġice":2344,"ilar":2345,"Ġsoup":2346,"Ġawake":2347,"Ġnarrow":2348,"Ġcake":2349,"aging":2350,"Ġconcerns":2351,"appy":2352,"vely":2353,"af":2354,"Ġphysical":2355,"ults":2356,"Ġsing":2357,"Ġlive":2358,"Ġdamage":2359,"Ġexcite":2360,"ĠRem":2361,"iel":2362,"Ġmil":2363,"Ġsimilar":2364,"Ġburden":2365,"Ġmeaningful":2366,"Ġfish":2367,"Ġviolent":2368,"Ġdream":2369,"ĠRemember":2370,"Ġdirt":2371,"Ġleather":2372,"Ġlively":2373,"Ġbent":2374,"Ġsuggest":2375,"Ġtastes":2376,"Ġhands":2377,"Ġexcitement":2378,"Ġwide":2379,"Ġoverwhelmed":2380,"Ġpush":2381,"Ġpowerful":2382,"Ġtricky":2383,"Ġfruits":2384,"Ġleads":2385,"Ġtrip":2386,"Ġburn":2387,"Ġhonest":2388,"Ġaccid":2389,"ires":2390,"Ġseek":2391,"Ġpaper":2392,"Ġskies":2393,"night":2394,"Ġable":2395,"more":2396,"Ġanymore":2397,"Ġcompany":2398,"Ġwash":2399,"Ġeffects":2400,"ellow":2401,"Ġpress":2402,"Ġoutc":2403,"Ġunusual":2404,"Ġmid":2405,"Ġpictures":2406,"Ġdislike":2407,"Ġprom":2408,"Ġcurious":2409,"atic":2410,"Ġfearfulness":2411,"Ġbrave":2412,"asure":2413,"Ġthen":2414,"ĠBeing":2415,"ĠTo":2416,"Ġrep":2417,"Ġcloudy":2418,"Ġloss":2419,"Ġfiel":2420,"ĠThis":2421,"Ġrelations":2422,"Ġpicture":2423,"Ġteaching":2424,"time":2425,"Ġdress":2426,"Ġprev":2427,"Ġpen":2428,"Ġlessen":2429,"Ġunapp":2430,"Ġhim":2431,"Ġwinds":2432,"Ġunsure":2433,"ids":2434,"Ġfamilies":2435,"Ġbreaks":2436,"bject":2437,"ison":2438,"cious":2439,"ĠMe":2440,"Ġdist":2441,"Ġmiddle":2442,"Ġalong":2443,"Ġfollow":2444,"Ġadventures":2445,"Ġsmoke":2446,"amp":2447,"Ġfee":2448,"Ġunhelp":2449,"Ġpur":2450,"eep":2451,"Ġteamwork":2452,"Ġcertainly":2453,"ton":2454,"Ġweigh":2455,"Ġtonight":2456,"Ġcausing":2457,"par":2458,"Ġlessons":2459,"Ġyellow":2460,"Ġbody":2461,"Ġfeeble":2462,"fit":2463,"ĠSo":2464,"Ġrequ":2465,"Ġunhelpful":2466,"Ġacce":2467,"Ġgent":2468,"Ġdou":2469,"Ġside":2470,"Ġwearing":2471,"Ġling":2472,"Ġspade":2473,"Ġshap":2474,"Ġearth":2475,"irt":2476,"Ġmovies":2477,"Ġunm":2478,"Ġgot":2479,"Ġsepar":2480,"Ġprog":2481,"Ġprepared":2482,"Ġdishes":2483,"Ġsmart":2484,"Ġprepare":2485,"Ġtroubles":2486,"Ġgentle":2487,"Ġhiding":2488,"ĠHopefully":2489,"asures":2490,"Ġpaths":2491,"Ġcarefully":2492,"sing":2493,"Ġflying":2494,"Ġsuc":2495,"Ġpull":2496,"Ġonto":2497,"Ġelastic":2498,"Ġshape":2499,"Ġhead":2500,"Ġfat":2501,"Ġfrequ":2502,"omatic":2503,"Ġcreatures":2504,"Ġtal":2505,"ertile":2506,"Ġconscious":2507,"Ġbusiness":2508,"Ġscience":2509,"Ġgrowing":2510,"Ġworth":2511,"Ġhair":2512,"Ġperspect":2513,"Ġhob":2514,"Ġcity":2515,"Ġprob":2516,"Ġbene":2517,"Ġshoes":2518,"Ġoverc":2519,"Ġfertile":2520,"Ġautomatic":2521,"Ġspark":2522,"Ġdarkness":2523,"ewel":2524,"Ġempty":2525,"hip":2526,"Ġfem":2527,"Ġconditions":2528,"Ġlevel":2529,"Ġknowing":2530,"orry":2531,"Ġopenly":2532,"Ġjewel":2533,"Ġcontin":2534,"ho":2535,"Ġloc":2536,"Ġbag":2537,"Ġhanging":2538,"Ġstud":2539,"ee":2540,"Ġswimming":2541,"Ġclearer":2542,"Ġinse":2543,"Ġmin":2544,"Ġresults":2545,"Ġfriendly":2546,"Ġprojects":2547,"Ġsick":2548,"under":2549,"Ġneigh":2550,"Ġask":2551,"Ġagainst":2552,"Ġprevent":2553,"asing":2554,"Ġodd":2555,"olo":2556,"Ġgeneral":2557,"gn":2558,"Ġneeded":2559,"ending":2560,"Ġcompan":2561,"Ġtable":2562,"ustom":2563,"Ġroof":2564,"Ġseparate":2565,"Ġprices":2566,"Ġexpectations":2567,"Ġdire":2568,"Ġins":2569,"ists":2570,"ential":2571,"Ġspirit":2572,"inder":2573,"Ġreflection":2574,"Ġpie":2575,"tood":2576,"Ġfemale":2577,"Ġadvice":2578,"Ġsal":2579,"Ġfire":2580,"lier":2581,"Ġboo":2582,"Ġprovide":2583,"Ġforever":2584,"Ġblooming":2585,"Ġcustom":2586,"Ġunhappy":2587,"Ġactually":2588,"Ġstand":2589,"Ġland":2590,"Ġbelief":2591,"Ġstom":2592,"Ġcount":2593,"erves":2594,"Ġstomach":2595,"Ġlar":2596,"Ġapproach":2597,"ources":2598,"cape":2599,"Ġpar":2600,"Ġbread":2601,"Ġrewarding":2602,"Ġequal":2603,"Ġhealing":2604,"Ġimpul":2605,"ute":2606,"Ġsecond":2607,"gin":2608,"ĠTogether":2609,"Ġinviting":2610,"Ġviews":2611,"Ġsitting":2612,"ution":2613,"Ġfacts":2614,"Ġsnee":2615,"Ġknot":2616,"Ġmetho":2617,"Ġmisun":2618,"Ġseasons":2619,"Ġtechnolo":2620,"Ġfocused":2621,"Ġdeeper":2622,"Ġbegin":2623,"Ġtiring":2624,"Ġhate":2625,"Ġresponsibility":2626,"Ġsystem":2627,"Ġthrow":2628,"Ġball":2629,"Ġstretch":2630,"Ġroll":2631,"asting":2632,"Ġfriendships":2633,"Ġve":2634,"Ġblow":2635,"Ġnicer":2636,"Ġopinions":2637,"Ġkids":2638,"Ġoppos":2639,"Ġthunder":2640,"redi":2641,"Ġawful":2642,"Ġdone":2643,"Ġwaves":2644,"Ġnut":2645,"Ġoverlook":2646,"Ġlif":2647,"ocking":2648,"Ġcatch":2649,"Ġopposite":2650,"Ġmar":2651,"Ġstea":2652,"Ġusual":2653,"Ġattract":2654,"Ġsuddenly":2655,"Ġcollect":2656,"Ġuseful":2657,"Ġtest":2658,"Ġreceip":2659,"Ġuncertainty":2660,"Ġwild":2661,"Ġcha":2662,"Ġearlier":2663,"Ġtricks":2664,"Ġdependent":2665,"ates":2666,"Ġunderstood":2667,"Ġfixed":2668,"Ġtran":2669,"ooking":2670,"Ġshapes":2671,"Ġorange":2672,"Ġarm":2673,"ster":2674,"Ġfalling":2675,"Ġbreathe":2676,"Ġincrease":2677,"Ġpot":2678,"Ġtechnology":2679,"allel":2680,"Ġdoubt":2681,"Ġparallel":2682,"Ġsorry":2683,"Ġinfl":2684,"Ġcup":2685,"Ġalm":2686,"Ġtransp":2687,"Ġpick":2688,"no":2689,"Ġsilly":2690,"Ġunwelc":2691,"Ġdifferently":2692,"Ġsock":2693,"Ġleast":2694,"dge":2695,"Ġinflu":2696,"Ġvisiting":2697,"enc":2698,"Ġrecipes":2699,"bjects":2700,"Ġshopping":2701,"Ġhour":2702,"ĠLe":2703,"angu":2704,"Ġthoughtful":2705,"Ġrub":2706,"ortun":2707,"Ġuplifting":2708,"Ġanimal":2709,"Ġarri":2710,"Ġmap":2711,"Ġtroubling":2712,"Ġaccept":2713,"Ġliqu":2714,"Ġpurp":2715,"Ġshowing":2716,"Ġrelationships":2717,"ific":2718,"Ġopportun":2719,"Ġalmost":2720,"Ġsongs":2721,"Ġboiling":2722,"etizing":2723,"Ġmisunderstand":2724,"Ġcheese":2725,"bing":2726,"Ġdrain":2727,"Ġtypes":2728,"rateful":2729,"Ġconfident":2730,"fits":2731,"Ġproduce":2732,"Ġlangu":2733,"Ġdecor":2734,"Ġstarts":2735,"ĠKeep":2736,"rup":2737,"Ġactive":2738,"Ġstruggles":2739,"Ġescape":2740,"Ġunwelcoming":2741,"Ġcompanies":2742,"Ġdoor":2743,"Ġclar":2744,"Ġfrequent":2745,"Ġtransport":2746,"Ġhide":2747,"Ġinformed":2748,"ift":2749,"Ġvar":2750,"Ġeffectively":2751,"Ġdisc":2752,"Ġcaut":2753,"pper":2754,"Ġvoices":2755,"Ġlifts":2756,"Ġprogress":2757,"Ġfully":2758,"Ġarg":2759,"Ġtips":2760,"Ġornament":2761,"Ġmindful":2762,"Ġprobable":2763,"Ġincl":2764,"Ġdrop":2765,"Ġproducts":2766,"Ġunmotivated":2767,"Ġadding":2768,"Ġbab":2769,"ĠKeeping":2770,"Ġmain":2771,"Ġbel":2772,"Ġorganized":2773,"Ġunappetizing":2774,"Ġreasons":2775,"ĠLearning":2776,"gs":2777,"Ġcommunicate":2778,"Ġrelie":2779,"Ġgrateful":2780,"Ġstarting":2781,"Ġbree":2782,"Ġsear":2783,"ried":2784,"Ġdistance":2785,"Ġsolve":2786,"Ġchar":2787,"Ġvalid":2788,"Ġfold":2789,"Ġpoll":2790,"Ġpressure":2791,"Ġcomple":2792,"ility":2793,"Ġrecogn":2794,"Ġdin":2795,"Ġtoward":2796,"Ġjudge":2797,"Ġmag":2798,"Ġparts":2799,"Ġclarity":2800,"Ġblank":2801,"Ġremembering":2802,"Ġnote":2803,"Ġimagination":2804,"ĠFo":2805,"Ġcomplex":2806,"Ġyears":2807,"Ġtask":2808,"Ġbothering":2809,"Ġcalmness":2810,"Ġra":2811,"Ġletter":2812,"Ġdogs":2813,"ĠSun":2814,"Ġcre":2815,"Ġdesigns":2816,"Ġtreats":2817,"Ġoutcomes":2818,"Ġtax":2819,"Ġaccidents":2820,"Ġimpulse":2821,"Ġneighbor":2822,"Ġmyster":2823,"Ġchanged":2824,"Ġreminding":2825,"Ġbird":2826,"fortun":2827,"Ġmethods":2828,"Ġstays":2829,"Ġbeliefs":2830,"Ġbath":2831,"Ġhis":2832,"Ġdreams":2833,"Ġinsects":2834,"Ġfloor":2835,"Ġess":2836,"Ġfill":2837,"Ġliquid":2838,"Ġhollow":2839,"Ġimpro":2840,"Ġveget":2841,"Ġacts":2842,"Ġbuy":2843,"Ġpurpose":2844,"Ġovercome":2845,"Ġopportunities":2846,"Ġbed":2847,"Ġmount":2848,"Ġbuildings":2849,"tern":2850,"Ġdisappoint":2851,"Ġrunning":2852,"isf":2853,"atisf":2854,"vert":2855,"Ġtray":2856,"Ġseemed":2857,"Ġprose":2858,"Ġhorn":2859,"ever":2860,"Ġshop":2861,"ĠClean":2862,"Ġlaw":2863,"Ġessential":2864,"Ġbutter":2865,"Ġexch":2866,"Ġsuccess":2867,"Ġfact":2868,"Ġoffice":2869,"vertis":2870,"Ġpossibil":2871,"Ġtwist":2872,"Ġcautious":2873,"avor":2874,"Ġbreeze":2875,"Ġlin":2876,"Ġgreatly":2877,"Ġlasting":2878,"Ġgreen":2879,"verse":2880,"Ġcry":2881,"nings":2882,"Ġwall":2883,"Ġprior":2884,"Ġconfidence":2885,"Ġflavor":2886,"Ġallows":2887,"ĠPl":2888,"Ġdistur":2889,"Ġgoals":2890,"Ġadvertis":2891,"ĠUn":2892,"ĠEvery":2893,"entions":2894,"Ġadapt":2895,"Ġsail":2896,"Ġchil":2897,"Ġevening":2898,"Ġnegativity":2899,"Ġcompet":2900,"Ġfield":2901,"Ġtoys":2902,"Ġhappily":2903,"uth":2904,"Ġvaluable":2905,"Ġdecision":2906,"Ġph":2907,"Ġcauses":2908,"Ġchilly":2909,"Ġbra":2910,"Ġchalk":2911,"Ġrice":2912,"Ġunfortun":2913,"Ġboat":2914,"Ġsailing":2915,"Ġreceipt":2916,"Ġlearned":2917,"Ġbaking":2918,"alth":2919,"Ġsmoothly":2920,"Ġsend":2921,"Ġtopic":2922,"Ġlights":2923,"Ġunhe":2924,"Ġcrow":2925,"Ġhopes":2926,"Ġorder":2927,"Ġdeserve":2928,"Ġlinger":2929,"Ġchallenge":2930,"Ġach":2931,"Ġself":2932,"Ġcost":2933,"Ġing":2934,"Ġconstant":2935,"Ġhoping":2936,"ables":2937,"ĠIs":2938,"ĠFeel":2939,"anch":2940,"Ġrange":2941,"Ġingredi":2942,"ude":2943,"Ġflight":2944,"Ġfaces":2945,"Ġcustomers":2946,"bies":2947,"Ġlanguage":2948,"Ġcult":2949,"ging":2950,"ital":2951,"Ġspeak":2952,"Ġcomb":2953,"Ġclock":2954,"Ġoce":2955,"Ġcontinue":2956,"Ġworrying":2957,"Ġform":2958,"Ġcour":2959,"tra":2960,"Ġtruth":2961,"Ġkick":2962,"Ġbox":2963,"Ġextra":2964,"Ġfriendship":2965,"Ġkiss":2966,"Ġmemory":2967,"Ġsafely":2968,"Ġminute":2969,"Ġsteam":2970,"Ġbelong":2971,"Ġkinds":2972,"Ġchances":2973,"cket":2974,"Ġbranch":2975,"Ġsatisf":2976,"ĠFocus":2977,"rib":2978,"Ġtooth":2979,"Ġprop":2980,"Ġhobbies":2981,"Ġvegetables":2982,"Ġdangers":2983,"just":2984,"Ġabove":2985,"Ġmarried":2986,"Ġfit":2987,"Ġshirt":2988,"Ġcrack":2989,"Ġmisunderstandings":2990,"Ġshut":2991,"Ġrecent":2992,"Ġservice":2993,"Ġisl":2994,"Ġpop":2995,"Ġcreep":2996,"fic":2997,"Ġpump":2998,"aged":2999,"afe":3000,"eaving":3001,"Ġsoo":3002,"ĠFocusing":3003,"Ġbecomes":3004,"ides":3005,"Ġtick":3006,"ĠCooking":3007,"ĠLosing":3008,"Ġstamp":3009,"Ġsug":3010,"iety":3011,"Ġtem":3012,"Ġmilk":3013,"Ġspreading":3014,"Ġfaster":3015,"Ġlocal":3016,"Ġeyes":3017,"ease":3018,"Ġgardens":3019,"cc":3020,"Ġens":3021,"Ġlimit":3022,"Ġimprovements":3023,"Ġglass":3024,"Ġorganiz":3025,"iving":3026,"Ġpositivity":3027,"velop":3028,"Ġpropert":3029,"ounds":3030,"Ġwent":3031,"otton":3032,"Ġallow":3033,"Ġwine":3034,"Ġwarmer":3035,"Ġrelief":3036,"ĠFeeling":3037,"Ġingredients":3038,"Ġhuman":3039,"Ġburst":3040,"Ġpet":3041,"Ġmachines":3042,"ores":3043,"Ġpin":3044,"Ġharmon":3045,"Ġdevelop":3046,"hood":3047,"Ġharbor":3048,"Ġpromot":3049,"Ġdue":3050,"Ġgardening":3051,"Ġturns":3052,"key":3053,"Ġcelebrat":3054,"Ġheavier":3055,"Ġleaving":3056,"Ġstruct":3057,"Ġcir":3058,"Ġdest":3059,"Ġlate":3060,"Ġsmaller":3061,"Ġwool":3062,"Ġdiscoveries":3063,"Ġter":3064,"dy":3065,"Ġresources":3066,"Ġwood":3067,"Ġbite":3068,"au":3069,"althy":3070,"Ġobjects":3071,"Ġberry":3072,"ĠHi":3073,"Ġroutine":3074,"Ġsuppose":3075,"Ġcream":3076,"Ġdiscomfort":3077,"Ġanswers":3078,"Ġmetal":3079,"Ġinfluence":3080,"Ġholding":3081,"Ġadjust":3082,"Ġaccount":3083,"ont":3084,"Ġachie":3085,"Ġer":3086,"Ġshade":3087,"Ġbon":3088,"Ġdiscussion":3089,"Ġregularly":3090,"illed":3091,"Ġbot":3092,"ycle":3093,"Ġdealing":3094,"eable":3095,"Ġjob":3096,"line":3097,"Ġcrush":3098,"erc":3099,"Ġcomplic":3100,"Ġcountry":3101,"Ġconfusion":3102,"Ġcommit":3103,"ruction":3104,"Ġclim":3105,"ready":3106,"Ġpossibilities":3107,"Ġhosp":3108,"Ġseed":3109,"Ġstocking":3110,"Ġhumor":3111,"uments":3112,"ĠWalking":3113,"Ġflag":3114,"Ġsugar":3115,"Ġoil":3116,"Ġconnecting":3117,"Ġinventions":3118,"Ġstreets":3119,"Ġegg":3120,"Ġpolish":3121,"Ġsigns":3122,"Ġberries":3123,"Ġisland":3124,"Ġpollution":3125,"Ġpattern":3126,"Ġeye":3127,"Ġtype":3128,"Ġmeetings":3129,"iction":3130,"Ġunpleasing":3131,"Ġanswer":3132,"Ġdigestion":3133,"Ġcotton":3134,"Ġshelf":3135,"Ġrole":3136,"Ġwound":3137,"Ġharmony":3138,"Ġgold":3139,"Ġgone":3140,"Ġring":3141,"Ġexerc":3142,"Ġunfortunate":3143,"Ġdebt":3144,"Ġtook":3145,"Ġlifting":3146,"rets":3147,"Ġbeautifully":3148,"ushing":3149,"Ġsimpl":3150,"cles":3151,"Ġunb":3152,"erms":3153,"eady":3154,"Ġaffecting":3155,"Ġexchange":3156,"Ġfixing":3157,"Ġsoap":3158,"Ġshocking":3159,"zz":3160,"Ġinterest":3161,"Ġspong":3162,"Ġleaders":3163,"Ġlevels":3164,"Ġcrowd":3165,"Ġbrightens":3166,"ooky":3167,"Ġplayful":3168,"Ġcourage":3169,"Ġkinder":3170,"urance":3171,"Ġvibr":3172,"ff":3173,"Ġspooky":3174,"Ġobs":3175,"Ġcoll":3176,"Ġtalks":3177,"Ġprofit":3178,"Ġdeserves":3179,"Ġunsafe":3180,"Ġmonkey":3181,"Ġround":3182,"Ġlist":3183,"Ġstyles":3184,"Ġwashing":3185,"Ġwis":3186,"Ġkn":3187,"Ġvibrant":3188,"Ġsmash":3189,"Ġcoal":3190,"Ġafterno":3191,"Ġgerms":3192,"Ġembr":3193,"ĠFear":3194,"Ġperform":3195,"Ġgray":3196,"Ġcalmer":3197,"Ġapart":3198,"Ġsoil":3199,"Ġerr":3200,"ĠBut":3201,"Ġsave":3202,"cil":3203,"Ġcharact":3204,"eday":3205,"Ġsomeday":3206,"inking":3207,"Ġwonders":3208,"Ġunst":3209,"Ġroutines":3210,"Ġink":3211,"Ġhat":3212,"Ġrains":3213,"iar":3214,"Ġimpress":3215,"Ġmeat":3216,"Ġpu":3217,"Ġhy":3218,"orter":3219,"Ġsheep":3220,"Ġcomplicated":3221,"ĠCleaning":3222,"ffer":3223,"Ġnicely":3224,"ably":3225,"col":3226,"Ġwrite":3227,"orable":3228,"Ġshift":3229,"Ġensure":3230,"Ġvoice":3231,"Ġquest":3232,"ends":3233,"Ġrid":3234,"Ġfiction":3235,"rible":3236,"Ġsilver":3237,"Ġdirection":3238,"Ġstreet":3239,"Ġquestions":3240,"Ġocc":3241,"ision":3242,"Ġsecrets":3243,"Ġunhealthy":3244,"Ġband":3245,"Ġreactions":3246,"Ġjourneys":3247,"Ġbaby":3248,"anced":3249,"Ġcookies":3250,"Ġcrime":3251,"Ġrule":3252,"Ġmonths":3253,"Ġrefresh":3254,"aced":3255,"Ġpaste":3256,"ounts":3257,"Ġhurts":3258,"Ġstem":3259,"Ġshiny":3260,"Ġvalued":3261,"Ġsilk":3262,"Ġcompetition":3263,"Ġstyle":3264,"colate":3265,"oosing":3266,"Ġpencil":3267,"Ġtrade":3268,"Ġocean":3269,"Ġship":3270,"Ġbothers":3271,"Ġcush":3272,"Ġlinen":3273,"Ġray":3274,"lear":3275,"Ġgathering":3276,"Ġarch":3277,"Ġworm":3278,"Ġnights":3279,"Ġrisks":3280,"Ġchaos":3281,"Ġperspective":3282,"Ġflower":3283,"Ġspent":3284,"cial":3285,"Ġinclud":3286,"Ġhopefully":3287,"Ġket":3288,"Ġmine":3289,"Ġsalt":3290,"Ġbraver":3291,"Ġinsurance":3292,"Ġavail":3293,"Ġstars":3294,"kely":3295,"Ġachieve":3296,"Ġthrill":3297,"Ġuses":3298,"Ġsubs":3299,"Ġsuffer":3300,"outh":3301,"ements":3302,"oot":3303,"Ġfront":3304,"Ġluck":3305,"Ġholds":3306,"Ġtext":3307,"Ġstruggling":3308,"por":3309,"atching":3310,"ĠAn":3311,"Ġafternoon":3312,"Ġornaments":3313,"Ġprin":3314,"Ġenjoyment":3315,"Ġmaterial":3316,"Ġmouth":3317,"Ġconnects":3318,"ord":3319,"Ġruined":3320,"Ġunne":3321,"rying":3322,"Ġtin":3323,"Ġcaused":3324,"ses":3325,"Ġcelebrate":3326,"ĠWith":3327,"irr":3328,"Ġwar":3329,"'m":3330,"Ġavailable":3331,"Ġmaintain":3332,"ĠSm":3333,"Ġharmful":3334,"Ġsneeze":3335,"Ġfinished":3336,"illing":3337,"issors":3338,"Ġthrive":3339,"Ġconcerning":3340,"Ġpret":3341,"urch":3342,"umn":3343,"Ġmountain":3344,"Ġrhy":3345,"Ġinterests":3346,"Ġdowns":3347,"Ġbreaths":3348,"ĠWr":3349,"Ġups":3350,"Ġmindset":3351,"Ġrhyth":3352,"Ġchurch":3353,"vern":3354,"Ġsli":3355,"Ġoper":3356,"Ġgovern":3357,"Ġlock":3358,"Ġdiscovering":3359,"unch":3360,"Ġrepair":3361,"Ġstation":3362,"Ġscissors":3363,"Ġexpressing":3364,"Ġbirth":3365,"Ġrepr":3366,"Ġmemorable":3367,"Ġresting":3368,"Ġsize":3369,"Ġindust":3370,"Ġcares":3371,"eeking":3372,"aving":3373,"tands":3374,"Ġtiny":3375,"Ġpatterns":3376,"Ġauth":3377,"Ġdinner":3378,"old":3379,"ĠWriting":3380,"Ġblanket":3381,"Ġwelcoming":3382,"Ġcart":3383,"Ġalready":3384,"Ġnum":3385,"Ġclass":3386,"Ġbenefits":3387,"Ġchatting":3388,"Ġboard":3389,"Ġgoal":3390,"Ġmanager":3391,"gi":3392,"Ġproperty":3393,"Ġdeath":3394,"Ġdrawer":3395,"ĠSeeking":3396,"Ġonline":3397,"Ġmagical":3398,"bers":3399,"Ġbreathing":3400,"Ġhole":3401,"Ġturned":3402,"Ġkettle":3403,"uff":3404,"Ġcam":3405,"Ġbought":3406,"Ġrace":3407,"ĠUnderstand":3408,"Ġdisappe":3409,"Ġpretty":3410,"Ġinten":3411,"Ġlarge":3412,"Ġcard":3413,"Ġunsteady":3414,"ins":3415,"put":3416,"Ġgovernment":3417,"Ġstudents":3418,"Ġcamer":3419,"Ġsupportive":3420,"Ġearly":3421,"Ġcapt":3422,"Ġrequires":3423,"Ġchocolate":3424,"Ġcough":3425,"ĠShould":3426,"ishment":3427,"Ġamount":3428,"Ġsurf":3429,"Ġpun":3430,"iding":3431,"Ġexplain":3432,"Ġforg":3433,"Ġharsh":3434,"Ġdesire":3435,"Ġplate":3436,"val":3437,"Ġuplift":3438,"Ġcopper":3439,"cked":3440,"Ġdrawing":3441,"Ġstitch":3442,"Ġrecipe":3443,"Ġsunset":3444,"Ġmachine":3445,"ousers":3446,"Ġbask":3447,"iled":3448,"Ġfing":3449,"Ġrelig":3450,"Ġcase":3451,"Ġemotion":3452,"Ġfoot":3453,"Ġexpert":3454,"Ġlikely":3455,"Ġautumn":3456,"Ġcred":3457,"Ġprice":3458,"Ġpasses":3459,"Ġmotiv":3460,"Ġdiv":3461,"Ġtrousers":3462,"ĠWell":3463,"anting":3464,"Ġdelays":3465,"Ġfrightened":3466,"bo":3467,"ases":3468,"ĠMaking":3469,"Ġspots":3470,"Ġcredit":3471,"Ġbrain":3472,"Ġcared":3473,"place":3474,"Ġfulf":3475,"pped":3476,"icing":3477,"ĠUnderstanding":3478,"Ġdecide":3479,"ffe":3480,"Ġsinging":3481,"Ġdecorations":3482,"Ġamus":3483,"ffee":3484,"how":3485,"Ġattit":3486,"iverse":3487,"Ġsomehow":3488,"Ġproduct":3489,"ctly":3490,"Ġwithin":3491,"Ġstressed":3492,"Ġgatherings":3493,"Ġterrible":3494,"Ġbear":3495,"itary":3496,"Ġsteel":3497,"essel":3498,"Ġdestruction":3499,"Ġvessel":3500,"Ġpromote":3501,"Ġforgot":3502,"Ġhours":3503,"Ġwants":3504,"Ġrhythm":3505,"Ġheaviness":3506,"Ġbelongings":3507,"Ġbell":3508,"Ġdistant":3509,"Ġdisrup":3510,"orts":3511,"Ġrespectful":3512,"Ġiron":3513,"Ġtren":3514,"Ġbonds":3515,"Ġseriously":3516,"Ġturning":3517,"Ġindustry":3518,"omm":3519,"Ġword":3520,"Ġcollar":3521,"ied":3522,"fter":3523,"Ġwhenever":3524,"Ġbrightness":3525,"Ġbottle":3526,"anges":3527,"arming":3528,"Ġcondition":3529,"Ġcoffee":3530,"Ġline":3531,"Ġchest":3532,"ĠTrying":3533,"Ġperfectly":3534,"Ġpuzz":3535,"new":3536,"Ġcommitt":3537,"Ġride":3538,"Ġoffers":3539,"Ġstarted":3540,"Ġlying":3541,"Ġwax":3542,"Ġcanv":3543,"Ġshame":3544,"Ġintense":3545,"Ġindoor":3546,"ĠWatching":3547,"Ġrisk":3548,"Ġperspectives":3549,"Ġcultures":3550,"Ġtemper":3551,"Ġbake":3552,"othing":3553,"lies":3554,"Ġsel":3555,"Ġteaches":3556,"Ġcamera":3557,"Ġorganization":3558,"Ġparty":3559,"Ġremain":3560,"Ġcarri":3561,"Ġignored":3562,"ĠEating":3563,"Ġrepresent":3564,"Ġgri":3565,"Ġsoothing":3566,"Ġbasket":3567,"Ġsched":3568,"Ġcanvas":3569,"Ġgenerations":3570,"Ġmilitary":3571,"Ġwheel":3572,"Ġroads":3573,"Ġinstru":3574,"Ġneat":3575,"ĠExpl":3576,"Ġchecking":3577,"Ġtalked":3578,"Ġbrought":3579,"Ġalert":3580,"Ġsupporting":3581,"Ġpiece":3582,"Ġgar":3583,"ĠEn":3584,"Ġenvironments":3585,"ĠExploring":3586,"ĠGood":3587,"ners":3588,"ience":3589,"Ġdifferences":3590,"Ġdrinking":3591,"ones":3592,"Ġrely":3593,"Ġvarious":3594,"Ġletting":3595,"Ġpainful":3596,"Ġdoors":3597,"onnect":3598,"recious":3599,"Ġbrush":3600,"Ġprecious":3601,"Ġspeaking":3602,"Ġnation":3603,"Ġcop":3604,"Ġunnecessary":3605,"Ġslope":3606,"Ġpatient":3607,"Ġtrack":3608,"Ġclothing":3609,"Ġclosely":3610,"Ġaffected":3611,"Ġbrass":3612,"ising":3613,"Ġaddress":3614,"Ġthro":3615,"Ġengine":3616,"Ġflame":3617,"Ġsupplies":3618,"Ġgently":3619,"aur":3620,"ĠRight":3621,"ancing":3622,"ĠRemembering":3623,"Ġsocks":3624,"ĠHaving":3625,"ĠWh":3626,"Ġknife":3627,"Ġauthor":3628,"Ġraise":3629,"Ġends":3630,"Ġimaginations":3631,"Ġstat":3632,"Ġhorse":3633,"Ġedge":3634,"Ġpunishment":3635,"Ġcarrying":3636,"Ġworms":3637,"Ġpleasures":3638,"ĠFr":3639,"Ġmeans":3640,"ĠYour":3641,"Ġmud":3642,"Ġspoon":3643,"Ġpieces":3644,"Ġpractices":3645,"Ġsearching":3646,"Ġsponge":3647,"ĠBright":3648,"ĠUsing":3649,"Ġexam":3650,"Ġmessages":3651,"Ġfade":3652,"aurant":3653,"Ġcommittee":3654,"Ġworked":3655,"Ġrestaurant":3656,"Ġmanageable":3657,"Ġplane":3658,"earten":3659,"aught":3660,"Ġdishearten":3661,"ites":3662,"Ġunim":3663,"Ġpleasure":3664,"Ġworkers":3665,"Ġpi":3666,"Ġreaction":3667,"ĠWa":3668,"portant":3669,"istence":3670,"Ġfreely":3671,"ency":3672,"Ġsuggestion":3673,"Ġlots":3674,"Ġlarger":3675,"Ġtail":3676,"Ġgiving":3677,"Ġshoe":3678,"Ġpopular":3679,"putting":3680,"Ġreality":3681,"ridge":3682,"Ġeventually":3683,"Ġsights":3684,"Ġleading":3685,"Ġunimportant":3686,"Ġjudg":3687,"Ġboost":3688,"Ġenter":3689,"Ġcaught":3690,"Ġbond":3691,"Ġcosts":3692,"Ġworst":3693,"ative":3694,"Ġrising":3695,"Ġdarker":3696,"Ġreminded":3697,"Ġthread":3698,"Ġrat":3699,"Ġrecognize":3700,"Ġanxiety":3701,"Ġcompared":3702,"Ġtrains":3703,"Ġneighborhood":3704,"Ġfig":3705,"Ġfeet":3706,"Ġslip":3707,"Ġsocial":3708,"Ġdisappear":3709,"Ġsnakes":3710,"res":3711,"Ġcushion":3712,"ross":3713,"Ġunclear":3714,"ĠWaiting":3715,"Ġrail":3716,"Ġdisheartening":3717,"Ġcycle":3718,"Ġdrive":3719,"Ġmesses":3720,"Ġacross":3721,"Ġphot":3722,"aft":3723,"Ġbecoming":3724,"Ġbrother":3725,"ĠOne":3726,"ived":3727,"Ġdivision":3728,"Ġstormy":3729,"Ġpriorit":3730,"Ġimprovement":3731,"Ġtheo":3732,"Ġhospital":3733,"ĠSp":3734,"Ġsimpler":3735,"yc":3736,"Ġconsiderate":3737,"Ġju":3738,"Ġcraft":3739,"Ġsignific":3740,"Ġscar":3741,"Ġbrick":3742,"Ġexh":3743,"Ġdisappointment":3744,"Ġwisely":3745,"Ġtens":3746,"tances":3747,"Ġimpacts":3748,"Ġapple":3749,"Ġrespond":3750,"Ġhabit":3751,"Ġthroat":3752,"Ġnet":3753,"Ġint":3754,"Ġfur":3755,"Ġdisease":3756,"Ġargu":3757,"Ġexistence":3758,"Ġexample":3759,"ĠIf":3760,"Ġhu":3761,"Ġselect":3762,"Ġfinds":3763,"Ġtreasures":3764,"Ġengaging":3765,"Ġarrive":3766,"Ġsurv":3767,"Ġresol":3768,"ĠWor":3769,"Ġblood":3770,"Ġbusinesses":3771,"Ġvalues":3772,"Ġstrengthen":3773,"Ġamazed":3774,"cast":3775,"cknow":3776,"Ġfog":3777,"Ġthroughout":3778,"Ġconfused":3779,"Ġsneez":3780,"Ġcow":3781,"Ġrepe":3782,"Ġneck":3783,"Ġhoped":3784,"adays":3785,"Ġnowadays":3786,"Ġunderstands":3787,"Ġbased":3788,"ĠSim":3789,"Ġstructure":3790,"Ġstage":3791,"Ġpipe":3792,"Ġcounts":3793,"Ġunwise":3794,"Ġreligion":3795,"Ġreceived":3796,"Ġsimp":3797,"Ġowners":3798,"ĠFresh":3799,"asted":3800,"fast":3801,"Ġamid":3802,"Ġhammer":3803,"ense":3804,"Ġpicnics":3805,"Ġcarriage":3806,"Ġplanting":3807,"Ġclever":3808,"sequ":3809,"Ġcharacters":3810,"Ġsingle":3811,"Ġconsequ":3812,"ĠAs":3813,"Ġfork":3814,"Ġpage":3815,"Ġprison":3816,"Ġembrace":3817,"Ġlake":3818,"irl":3819,"Ġeffective":3820,"Ġmessage":3821,"Ġsomewhere":3822,"Ġoperation":3823,"Ġmother":3824,"Ġtaken":3825,"Ġfishing":3826,"bage":3827,"ister":3828,"Ġchoosing":3829,"Ġconsequences":3830,"Ġfamiliar":3831,"atures":3832,"Ġgarbage":3833,"Ġinteract":3834,"Ġcorre":3835,"Ġstone":3836,"Ġunth":3837,"Ġbreaking":3838,"Ġpoison":3839,"Ġbreakfast":3840,"osity":3841,"Ġteet":3842,"Ġknew":3843,"ately":3844,"ĠJ":3845,"Ġmornings":3846,"Ġirr":3847,"Ġfabr":3848,"ashion":3849,"Ġteeth":3850,"Ġwarning":3851,"Ġcork":3852,"Ġlunch":3853,"ames":3854,"Ġpowder":3855,"utter":3856,"Ġexactly":3857,"Ġfilms":3858,"Ġdiscovery":3859,"Ġbehaviors":3860,"body":3861,"Ġwindows":3862,"Ġbugs":3863,"ounter":3864,"Ġdisturbing":3865,"Ġchase":3866,"Ġstamps":3867,"Ġcalmly":3868,"Ġcircle":3869,"Ġsearch":3870,"Ġinstrument":3871,"anted":3872,"Ġbucket":3873,"Ġsmiling":3874,"Ġsister":3875,"Ġinspired":3876,"Ġseat":3877,"Ġdance":3878,"Ġbutton":3879,"Ġbasin":3880,"Ġdevelopment":3881,"Ġstores":3882,"Ġcurtain":3883,"ability":3884,"Ġchain":3885,"orth":3886,"Ġamusement":3887,"Ġsnake":3888,"Ġsetting":3889,"ĠStr":3890,"Ġneglect":3891,"Ġcompar":3892,"Ġseeds":3893,"Ġimproving":3894,"Ġtreated":3895,"Ġsignificant":3896,"Ġwave":3897,"Ġseeking":3898,"Ġapples":3899,"ddy":3900,"usting":3901,"ĠNo":3902,"Ġauthority":3903,"Ġcars":3904,"Ġporter":3905,"Ġpayment":3906,"Ġhygi":3907,"Ġfaced":3908,"Ġstate":3909,"Ġappearance":3910,"Ġspec":3911,"Ġwatched":3912,"Ġinspiring":3913,"Ġabs":3914,"Ġspecific":3915,"ĠOur":3916,"Ġprotest":3917,"Ġtension":3918,"Ġcrowded":3919,"Ġforce":3920,"Ġspringtime":3921,"Ġorganize":3922,"ĠTea":3923,"Ġwasted":3924,"Ġmot":3925,"Ġsystems":3926,"Ġupd":3927,"Ġcontrib":3928,"Ġresponsibilities":3929,"Ġnumber":3930,"Ġcharm":3931,"Ġjobs":3932,"Ġmuddy":3933,"Ġcall":3934,"Ġson":3935,"Ġplays":3936,"Ġreminder":3937,"Ġshock":3938,"Ġexperienc":3939,"Ġapproval":3940,"acking":3941,"Ġgrain":3942,"gies":3943,"atus":3944,"Ġacting":3945,"Ġappar":3946,"Ġapparatus":3947,"Ġtend":3948,"Ġhygiene":3949,"Ġpoorly":3950,"Ġreasonable":3951,"Ġafterward":3952,"Ġbadly":3953,"Ġcovered":3954,"ycling":3955,"Ġartists":3956,"Ġgirl":3957,"Ġbeginnings":3958,"Ġdau":3959,"Ġoutlook":3960,"Ġregard":3961,"Ġpicking":3962,"eading":3963,"Ġprioritize":3964,"Ġbranches":3965,"Ġexist":3966,"Ġfulfilling":3967,"ery":3968,"Ġtong":3969,"Ġprint":3970,"tend":3971,"Ġdamaged":3972,"Ġgun":3973,"Ġreaching":3974,"ĠPlaying":3975,"Ġfields":3976,"Ġnorth":3977,"Ġadvertisements":3978,"Ġent":3979,"Ġhelped":3980,"Ġattem":3981,"ĠWorking":3982,"Ġvid":3983,"Ġarmy":3984,"Ġfine":3985,"Ġframe":3986,"Ġowner":3987,"Ġacid":3988,"Ġincluding":3989,"uild":3990,"ĠReading":3991,"Ġfant":3992,"back":3993,"Ġgrip":3994,"Ġtrad":3995,"Ġmotivated":3996,"Ġloves":3997,"Ġrelaxation":3998,"Ġquieter":3999,"Ġweak":4000,"itching":4001,"Ġcame":4002,"rier":4003,"Ġpuzzling":4004,"Ġappealing":4005,"Ġnobody":4006,"Ġpreferences":4007,"Ġadvertisement":4008,"Ġaccident":4009,"ĠHelp":4010,"orses":4011,"otic":4012,"Ġrealized":4013,"Ġcows":4014,"apped":4015,"ient":4016,"Ġskirt":4017,"sistant":4018,"Ġsuggestions":4019,"Ġdaughter":4020,"Ġacknow":4021,"Ġfail":4022,"Ġboot":4023,"Ġmistake":4024,"Ġdistractions":4025,"Ġtreasure":4026,"ĠHelping":4027,"Ġenjoys":4028,"Ġremin":4029,"Ġknows":4030,"Ġburdens":4031,"Ġtales":4032,"ĠMus":4033,"Ġselection":4034,"Ġstops":4035,"Ġfle":4036,"Ġsilence":4037,"Ġchaotic":4038,"Ġinterrup":4039,"Ġglove":4040,"Ġopening":4041,"wich":4042,"ifts":4043,"Ġticket":4044,"Ġexpens":4045,"Ġdisturb":4046,"Ġwom":4047,"Ġfashion":4048,"ĠSimple":4049,"Ġlingers":4050,"igate":4051,"Ġname":4052,"flection":4053,"Ġconcl":4054,"Ġpartic":4055,"Ġnav":4056,"ĠMusic":4057,"ĠCreat":4058,"Ġsmoother":4059,"Ġsandwich":4060,"Ġmysterious":4061,"Ġbud":4062,"ashing":4063,"ĠHe":4064,"Ġfeed":4065,"Ġentertain":4066,"Ġbudget":4067,"Ġcorner":4068,"getic":4069,"Ġlaws":4070,"ĠCan":4071,"Ġendless":4072,"Ġmel":4073,"Ġpres":4074,"Ġshel":4075,"ĠKind":4076,"Ġthum":4077,"life":4078,"icy":4079,"Ġbrains":4080,"Ġneedle":4081,"Ġtaxes":4082,"Ġdoct":4083,"Ġoutcome":4084,"Ġthrilling":4085,"Ġfighting":4086,"Ġexercise":4087,"Ġreminders":4088,"Ġmass":4089,"Ġloudly":4090,"oking":4091,"ĠSu":4092,"Ġhonesty":4093,"Ġexpans":4094,"ither":4095,"Ġpred":4096,"Ġwanting":4097,"Ġservant":4098,"Ġirrit":4099,"Ġknee":4100,"Ġlur":4101,"Ġignoring":4102,"Ġfantastic":4103,"ening":4104,"Ġsecretary":4105,"Ġcooler":4106,"Ġlip":4107,"Ġpocket":4108,"Ġviolence":4109,"Ġdetail":4110,"Ġcutting":4111,"Ġappreciating":4112,"Ġobserv":4113,"Ġleg":4114,"Ġtoe":4115,"Ġspoiled":4116,"Ġrod":4117,"Ġlaughing":4118,"Ġexpansion":4119,"Ġblowing":4120,"Ġhobby":4121,"Ġpushing":4122,"ĠSmall":4123,"itness":4124,"Ġkept":4125,"Ġgain":4126,"Ġwitness":4127,"rep":4128,"Ġposition":4129,"unning":4130,"Ġmoves":4131,"way":4132,"Ġemotional":4133,"Ġstretching":4134,"Ġalarming":4135,"ĠSunshine":4136,"Ġconclus":4137,"Ġmeasure":4138,"Ġrich":4139,"Ġmotion":4140,"ule":4141,"ief":4142,"ĠSpe":4143,"Ġcuriosity":4144,"lict":4145,"Ġconflict":4146,"Ġnuts":4147,"Ġstuff":4148,"ird":4149,"Ġcolder":4150,"ication":4151,"Ġcord":4152,"Ġgrows":4153,"Ġfactors":4154,"char":4155,"cher":4156,"Ġsatisfying":4157,"Ġnoticing":4158,"Ġunwind":4159,"Ġputting":4160,"ĠSpeaking":4161,"Ġwire":4162,"Ġplastic":4163,"Ġrefreshed":4164,"ooper":4165,"ĠKindness":4166,"Ġenh":4167,"iest":4168,"ĠAssistant":4169,"Ġboring":4170,"Ġrechar":4171,"Ġlimits":4172,"Ġbroke":4173,"Ġexha":4174,"Ġfills":4175,"assion":4176,"Ġscen":4177,"Ġdro":4178,"Ġbalanced":4179,"Ġfalls":4180,"Ġfol":4181,"rounds":4182,"Ġarguments":4183,"yond":4184,"Ġcats":4185,"Ġruining":4186,"Ġreli":4187,"Ġimpressive":4188,"Ġbeyond":4189,"essert":4190,"Ġgroups":4191,"pro":4192,"Ġmembers":4193,"Ġattack":4194,"Ġgreater":4195,"Ġencouraging":4196,"ĠWhen":4197,"Ġrepairs":4198,"Ġfolks":4199,"Ġsimply":4200,"Ġnose":4201,"ĠReflection":4202,"Ġbase":4203,"Ġheavily":4204,"Ġnerves":4205,"Ġeggs":4206,"Ġunthought":4207,"Ġarise":4208,"ĠSunny":4209,"Ġsell":4210,"Ġlurking":4211,"ĠOh":4212,"Ġeer":4213,"Ġannoyed":4214,"Ġfilm":4215,"Ġtheory":4216,"Ġbehave":4217,"Ġdistrib":4218,"Ġtexture":4219,"Ġdessert":4220,"Ġerrors":4221,"Ġuniverse":4222,"Ġschedule":4223,"Ġeerie":4224,"aren":4225,"Ġdisrupt":4226,"ĠTime":4227,"Ġweird":4228,"Ġchief":4229,"ĠAfter":4230,"Ġstrongly":4231,"Ġangrier":4232,"Ġprotecting":4233,"Ġarrives":4234,"Ġtrapped":4235,"Ġcomparison":4236,"Ġnavigate":4237,"Ġimages":4238,"Ġrespected":4239,"Ġvisitors":4240,"Ġrecycling":4241,"Ġsour":4242,"Ġtongue":4243,"Ġdiscovered":4244,"Ġbags":4245,"Ġpredict":4246,"Ġopinion":4247,"Ġcompassion":4248,"Ġclutter":4249,"Ġrecord":4250,"ĠStar":4251,"Ġtrends":4252,"Ġoccas":4253,"Ġsources":4254,"Ġcovering":4255,"Ġinvention":4256,"Ġrelation":4257,"Ġfinan":4258,"Ġflies":4259,"Ġhun":4260,"oses":4261,"coming":4262,"ctions":4263,"Ġrecharge":4264,"Ġunthoughtful":4265,"aries":4266,"Ġhorses":4267,"Ġpassing":4268,"Ġunit":4269,"Ġfolding":4270,"Ġtechniqu":4271,"Ġhook":4272,"Ġtouching":4273,"ducing":4274,"erving":4275,"Ġmuscles":4276,"Ġdistribution":4277,"Ġsaid":4278,"Ġnotes":4279,"Ġreceive":4280,"Ġcopy":4281,"Ġenc":4282,"Ġrivers":4283,"Ġwalls":4284,"Ġargument":4285,"Ġenergetic":4286,"Ġvisits":4287,"'re":4288,"owers":4289,"Ġrush":4290,"itive":4291,"istening":4292,"Ġattraction":4293,"ination":4294,"Ġencounter":4295,"Ġcooper":4296,"Ġimproves":4297,"ĠIm":4298,"Ġpracticing":4299,"Ġrolling":4300,"Ġattitude":4301,"Ġburning":4302,"Ġdidn":4303,"Ġhol":4304,"Ġforgotten":4305,"Ġdem":4306,"Ġholid":4307,"Ġquietly":4308,"Ġstones":4309,"ĠStarting":4310,"ceed":4311,"Ġcurve":4312,"ĠOf":4313,"Ġupdates":4314,"Ġspilled":4315,"ĠListening":4316,"Ġpeacefully":4317,"ĠThinking":4318,"Ġblade":4319,"Ġscale":4320,"sibly":4321,"Ġupcoming":4322,"Ġdifficulties":4323,"Ġbuying":4324,"Ġfinancial":4325,"Ġspoil":4326,"Ġtrans":4327,"ĠPain":4328,"Ġcomplain":4329,"Ġstri":4330,"Ġsupported":4331,"Ġresolve":4332,"Ġscents":4333,"ible":4334,"Ġflash":4335,"Ġsuffering":4336,"Ġwhip":4337,"Ġjuice":4338,"Ġscenes":4339,"Ġeffic":4340,"dles":4341,"ĠCreating":4342,"Ġproductive":4343,"Ġsurvive":4344,"eliness":4345,"affic":4346,"Ġtraffic":4347,"Ġclimate":4348,"Ġreplace":4349,"Ġmeant":4350,"Ġsurface":4351,"Ġsex":4352,"Ġtraveling":4353,"Ġsometime":4354,"Ġteacher":4355,"Ġstitching":4356,"Ġaddition":4357,"Ġletters":4358,"Ġrisky":4359,"Ġconsidering":4360,"ĠV":4361,"Ġreflects":4362,"Ġcrafts":4363,"Ġexhausting":4364,"Ġfurther":4365,"Ġsucceed":4366,"Ġreliable":4367,"Ġkindly":4368,"Ġdrivers":4369,"Ġserve":4370,"Ġrelease":4371,"Ġsubstances":4372,"Ġallowing":4373,"Ġouting":4374,"ppery":4375,"Ġrise":4376,"Ġdeg":4377,"enery":4378,"Ġforms":4379,"Ġitself":4380,"Ġability":4381,"Ġbasic":4382,"Ġsubstance":4383,"Ġcapture":4384,"Ġfell":4385,"ĠFacing":4386,"Ġvisited":4387,"Ġfad":4388,"Ġmanaging":4389,"Ġwasting":4390,"Ġnegatively":4391,"Ġending":4392,"Ġshadow":4393,"Ġjewels":4394,"Ġblows":4395,"Ġhurting":4396,"Ġencourages":4397,"Ġrate":4398,"edom":4399,"Ġopens":4400,"Ġhonestly":4401,"og":4402,"ĠEven":4403,"Ġsandwiches":4404,"Ġservices":4405,"ights":4406,"Ġslippery":4407,"Ġgen":4408,"Ġmagic":4409,"Ġfigure":4410,"Ġplayed":4411,"Ġagreement":4412,"wing":4413,"Ġphotos":4414,"Ġsleeping":4415,"Ġmissed":4416,"ram":4417,"Ġcreepy":4418,"Ġstructures":4419,"Ġtechniques":4420,"Ġste":4421,"Ġdepends":4422,"Ġsadder":4423,"couraging":4424,"Ġfreedom":4425,"Ġoccur":4426,"Ġspills":4427,"Ġanyway":4428,"Ġmovement":4429,"Ġrol":4430,"ĠPr":4431,"Ġwildlife":4432,"Ġod":4433,"Ġunappreci":4434,"Ġpulling":4435,"Ġdigging":4436,"Ġstrate":4437,"Ġpile":4438,"Ġbothersome":4439,"Ġmystery":4440,"Ġfeedback":4441,"Ġtemperature":4442,"Ġverse":4443,"Ġschools":4444,"ĠEveryone":4445,"ĠSpending":4446,"ĠSw":4447,"ĠChanging":4448,"Ġrev":4449,"Ġwoman":4450,"pting":4451,"Ġmovements":4452,"Ġmeanings":4453,"Ġuntr":4454,"ĠDoes":4455,"Ġguid":4456,"Ġmotivation":4457,"Ġago":4458,"Ġdisappointed":4459,"Ġinj":4460,"Ġcontent":4461,"Ġstains":4462,"Ġenerg":4463,"ters":4464,"Ġz":4465,"Ġparen":4466,"ĠNot":4467,"Ġforecast":4468,"Ġerror":4469,"Ġvariety":4470,"Ġcaf":4471,"Ġunch":4472,"Ġtasted":4473,"Ġfinger":4474,"Ġsym":4475,"Ġconcert":4476,"Ġspreads":4477,"Ġleaf":4478,"othered":4479,"Ġhurtful":4480,"free":4481,"Ġengaged":4482,"Ġunbothered":4483,"Ġunappreciated":4484,"Ġcollection":4485,"Ġbabies":4486,"Ġhelpless":4487,"Ġtendency":4488,"Ġblock":4489,"Ġrepresentative":4490,"Ġproud":4491,"ĠOver":4492,"Ġamidst":4493,"Ġconclusion":4494,"Ġeither":4495,"Ġfinally":4496,"Ġbrake":4497,"Ġunexc":4498,"Ġfrustrations":4499,"ompl":4500,"Ġdisag":4501,"Ġitem":4502,"Ġhumans":4503,"Ġorganizing":4504,"ground":4505,"ĠThanks":4506,"Ġjumping":4507,"Ġpaying":4508,"Ġruins":4509,"ĠMem":4510,"Ġmonkeys":4511,"Ġadded":4512,"ĠAnim":4513,"Ġskill":4514,"Ġspeed":4515,"tles":4516,"Ġreducing":4517,"ĠEach":4518,"ĠPainting":4519,"Ġscenery":4520,"Ġpasta":4521,"Ġdisres":4522,"Ġbenefit":4523,"licts":4524,"itals":4525,"inary":4526,"Ġnails":4527,"Ġtraining":4528,"Ġattempt":4529,"ossible":4530,"ĠEnjoy":4531,"Ġdarkest":4532,"Ġec":4533,"Ġtreatment":4534,"Ġnail":4535,"Ġshops":4536,"Ġenhance":4537,"ĠMemories":4538,"uilding":4539,"ĠOp":4540,"Ġroots":4541,"Ġlands":4542,"Ġweeks":4543,"Ġhigher":4544,"ib":4545,"Ġtense":4546,"Ġimpossible":4547,"Ġdamp":4548,"Ġcrucial":4549,"Ġadjustment":4550,"Ġrewards":4551,"Ġjack":4552,"Ġabsolutely":4553,"els":4554,"Ġtot":4555,"Ġunease":4556,"Ġdispl":4557,"Ġrecover":4558,"Ġtransform":4559,"Ġresil":4560,"Ġconflicts":4561,"Ġfingers":4562,"ĠOften":4563,"Ġscene":4564,"Ġfarms":4565,"Ġcorrectly":4566,"Ġflashlight":4567,"Ġfest":4568,"li":4569,"Ġperformance":4570,"Ġpositives":4571,"ĠAnimals":4572,"Ġsports":4573,"Ġbone":4574,"Ġhuge":4575,"ĠTeaching":4576,"Ġdisagree":4577,"ilt":4578,"Ġinvite":4579,"Ġanywhere":4580,"ĠFrien":4581,"Ġpiling":4582,"Ġcute":4583,"Ġrubb":4584,"ided":4585,"Ġattend":4586,"Ġthumb":4587,"Ġfairness":4588,"Ġfabric":4589,"ruments":4590,"Ġvital":4591,"Ġlittering":4592,"action":4593,"Ġgifts":4594,"Ġinstruments":4595,"Ġoverl":4596,"Ġwings":4597,"Ġrude":4598,"Ġafterwards":4599,"Ġriding":4600,"over":4601,"cri":4602,"appiness":4603,"Ġsmoking":4604,"Ġsurrounds":4605,"Ġfridge":4606,"Ġfarmers":4607,"Ġthreat":4608,"ĠPlan":4609,"ia":4610,"Ġrequest":4611,"Ġuninter":4612,"Ġdining":4613,"Ġstatement":4614,"Ġpreparing":4615,"Ġfrag":4616,"ession":4617,"Ġboats":4618,"Ġchecked":4619,"Ġcraw":4620,"Ġpriority":4621,"Ġinclude":4622,"erim":4623,"Ġexperim":4624,"Ġcountries":4625,"bol":4626,"Ġappears":4627,"unting":4628,"Ġyard":4629,"Ġinno":4630,"Ġrust":4631,"Ġmountains":4632,"Ġopened":4633,"Ġsymbol":4634,"Ġhides":4635,"Ġdelay":4636,"ĠFriends":4637,"ĠPlanning":4638,"Ġsalad":4639,"ĠWow":4640,"Ġdepending":4641,"Ġcleaned":4642,"Ġblankets":4643,"ĠEar":4644,"Ġvideo":4645,"Ġsaving":4646,"Ġunre":4647,"Ġdisrespect":4648,"ĠFl":4649,"Ġdoctor":4650,"Ġpapers":4651,"Ġdegree":4652,"Ġbuilds":4653,"Ġcelebrations":4654,"Ġneeding":4655,"ommun":4656,"Ġdirectly":4657,"Ġjokes":4658,"ival":4659,"Ġbike":4660,"Ġsaying":4661,"Ġcustomer":4662,"Ġunaw":4663,"Ġstunning":4664,"Ġprogram":4665,"Ġconst":4666,"Ġtrips":4667,"Ġsurprisingly":4668,"ops":4669,"iking":4670,"Ġsooth":4671,"Ġconcerned":4672,"Ġrubbish":4673,"Ġchildhood":4674,"iced":4675,"Ġhospitals":4676,"Ġpromises":4677,"Ġsmallest":4678,"Ġcarelessly":4679,"Ġoverlooked":4680,"Ġshout":4681,"Ġregarding":4682,"Ġmedia":4683,"Ġremove":4684,"Ġtotally":4685,"Ġaccidentally":4686,"Ġpotential":4687,"ĠAng":4688,"Ġsto":4689,"Ġlistens":4690,"Ġpack":4691,"ĠEarth":4692,"Ġsenses":4693,"Ġrecomm":4694,"Ġsurfaces":4695,"lish":4696,"Ġroles":4697,"Ġfavorites":4698,"Ġhandling":4699,"ĠOverall":4700,"Ġrecommend":4701,"Ġric":4702,"ĠLau":4703,"Ġgift":4704,"miss":4705,"ĠSupp":4706,"Ġricher":4707,"Ġreflective":4708,"Ġreve":4709,"Ġemer":4710,"Ġsoothe":4711,"organ":4712,"ĠAnger":4713,"Ġplanes":4714,"Ġguard":4715,"Ġresponse":4716,"Ġass":4717,"Ã©":4718,"ĠSe":4719,"Ġchair":4720,"ĠRain":4721,"ted":4722,"ilities":4723,"Ġadm":4724,"Ġsneezing":4725,"Ġcontinues":4726,"orms":4727,"Ġtwists":4728,"elling":4729,"Ġsatisfaction":4730,"Ġneighb":4731,"Ġslipping":4732,"Ġglo":4733,"ĠCommun":4734,"amil":4735,"Ġdressing":4736,"Ġobservation":4737,"hoods":4738,"Ġworlds":4739,"dinary":4740,"Ġbound":4741,"Ġwoods":4742,"Ġsens":4743,"Ġordinary":4744,"Ġexperts":4745,"Ġalright":4746,"Ġmuscle":4747,"Ġdiet":4748,"Ġtextures":4749,"Ġob":4750,"Ġcities":4751,"Ġmale":4752,"Ġopt":4753,"Ġolder":4754,"Ġsurrounded":4755,"Ġcelebrating":4756,"ĠChanges":4757,"Ġforest":4758,"ĠFor":4759,"Ġcraf":4760,"Ġwouldn":4761,"Ġunbal":4762,"Ġtim":4763,"Ġloneliness":4764,"drat":4765,"Ġdre":4766,"Ġinteractions":4767,"Ġrare":4768,"Ġboundaries":4769,"Ġtightly":4770,"ĠcafÃ©":4771,"Ġtang":4772,"Ġreport":4773,"Ġcrafting":4774,"athy":4775,"Ġconsidered":4776,"Ġsort":4777,"Ġscare":4778,"ĠBuilding":4779,"Ġdemand":4780,"udes":4781,"Ġjoining":4782,"Ġlikes":4783,"Ġappreciation":4784,"Ġtasting":4785,"Ġdropped":4786,"Ġcollecting":4787,"Ġuninteresting":4788,"Ġgh":4789,"Ġghost":4790,"Ġweekends":4791,"Ġjudgment":4792,"Ġclosed":4793,"Ġchats":4794,"Ġcovers":4795,"Ġabilities":4796,"iration":4797,"Ġrequire":4798,"Ġparents":4799,"organized":4800,"adows":4801,"Ġnerve":4802,"ctive":4803,"Ġhydrat":4804,"Ġmoved":4805,"Ġmeasures":4806,"Ġflags":4807,"Ġunbalanced":4808,"Ġhit":4809,"Ġstylish":4810,"he":4811,"und":4812,"Ġunited":4813,"Ġfewer":4814,"Ġunaware":4815,"ges":4816,"Ġliked":4817,"Ġlasts":4818,"mon":4819,"oing":4820,"Ġsubjects":4821,"Ġanytime":4822,"Ġflex":4823,"Ġfloating":4824,"ĠAr":4825,"Ġneighbors":4826,"Ġcircles":4827,"Ġshorter":4828,"Ġdecided":4829,"Ġchill":4830,"Ġoutfit":4831,"Ġfragile":4832,"Ġempathy":4833,"Ġattitudes":4834,"Ġunpro":4835,"Ġteachers":4836,"Ġraising":4837,"Ġcharacter":4838,"Ġthemes":4839,"term":4840,"Ġroot":4841,"Ġprobably":4842,"Ġgrab":4843,"Ġaccess":4844,"esty":4845,"Ġreturns":4846,"Ġgoodby":4847,"Ġdreary":4848,"Ġpair":4849,"Ġwondering":4850,"ĠAre":4851,"etting":4852,"Ġunexciting":4853,"oration":4854,"ĠLooking":4855,"ĠGreat":4856,"Ġlimited":4857,"Ġstrategies":4858,"Ġlines":4859,"Ġwounds":4860,"Ġconstantly":4861,"Ġbat":4862,"Ġinsect":4863,"Ġembracing":4864,"Ġfurn":4865,"Ġsignificantly":4866,"amiliar":4867,"Ġgest":4868,"osed":4869,"Ġimagining":4870,"Ġneighborhoods":4871,"Ġbar":4872,"isy":4873,"Ġtemperatures":4874,"Ġsides":4875,"iture":4876,"Ġfurniture":4877,"ball":4878,"Ġdaunting":4879,"Ġovercoming":4880,"Ġlower":4881,"lines":4882,"oll":4883,"Ġnowhere":4884,"Ġmixing":4885,"Ġlocked":4886,"ĠChe":4887,"Ġtold":4888,"orthy":4889,"Ġequally":4890,"Ġexperiencing":4891,"Ġsecur":4892,"Ġscient":4893,"Ġthrowing":4894,"Ġlets":4895,"Ġincredi":4896,"ater":4897,"Ġunful":4898,"flies":4899,"Ġdescri":4900,"ĠEnjoying":4901,"Ġunfamiliar":4902,"Ġscre":4903,"Ġfluff":4904,"Ġinstin":4905,"Ġbridge":4906,"Ġbes":4907,"Ġsteep":4908,"Ġunfulf":4909,"Ġnoisy":4910,"utes":4911,"Ġgranted":4912,"Ġracing":4913,"Ġmoder":4914,"Ġfrequently":4915,"Ġtesting":4916,"Ġtests":4917,"amples":4918,"atives":4919,"Ġunity":4920,"Ġexamples":4921,"vest":4922,"Ġlay":4923,"Ġsadly":4924,"ĠCl":4925,"dding":4926,"Ġfeatures":4927,"Ġrides":4928,"Ġacknowledge":4929,"Ġexpensive":4930,"Ġparticip":4931,"Ġhydrated":4932,"Ġfunction":4933,"Ġappreciated":4934,"ental":4935,"Ġavoiding":4936,"ĠNow":4937,"Ġculture":4938,"Ġsolving":4939,"Ġhopeless":4940,"Ġmysteries":4941,"Ġrestaurants":4942,"fession":4943,"Ġprotection":4944,"Ġbins":4945,"Ġprograms":4946,"Ġbirthday":4947,"Ġcelebration":4948,"Ġrats":4949,"Ġstanding":4950,"together":4951,"Ġships":4952,"Ġjacket":4953,"Ġdisplay":4954,"repared":4955,"Ġflowing":4956,"Ġtwo":4957,"olding":4958,"Ġtraditions":4959,"Ġfluffy":4960,"Ġbrightening":4961,"Ġphone":4962,"Ġreview":4963,"Ġaspect":4964,"Ġimage":4965,"Ġmotivate":4966,"my":4967,"Ġvary":4968,"Ġreports":4969,"Ġinspiration":4970,"Ġsqu":4971,"Ġhous":4972,"Ġirritating":4973,"ĠCaring":4974,"Ġded":4975,"izes":4976,"Ġquicker":4977,"onnected":4978,"Ġreflections":4979,"Ġunwanted":4980,"Ġdiverse":4981,"Ġtogetherness":4982,"Ġboots":4983,"Ġcards":4984,"Ġaim":4985,"Ġstir":4986,"Ġartwork":4987,"Ġorganizations":4988,"ĠShadows":4989,"Ġtun":4990,"bles":4991,"Ġwake":4992,"Ġregain":4993,"Ġhats":4994,"ĠEduc":4995,"Ġartist":4996,"Ġmanagement":4997,"oc":4998,"Ġshowed":4999,"Ġmention":5000,"itude":5001,"Ġbeings":5002,"Ġfreshness":5003,"alked":5004,"ĠChoosing":5005,"Ġpoints":5006,"ĠHappiness":5007,"berries":5008,"Ġsurrounding":5009,"Ġswe":5010,"Ġheads":5011,"Ġemerg":5012,"Ġhiking":5013,"Ġdesires":5014,"eases":5015,"ĠGarden":5016,"Ġflights":5017,"Ġexercises":5018,"Ġsecurity":5019,"ĠWarm":5020,"Ġblocking":5021,"Ġreaders":5022,"Ġsore":5023,"bts":5024,"Ġdeli":5025,"ĠBaking":5026,"Ġgoodbye":5027,"Ġdescribe":5028,"izz":5029,"Ġweighing":5030,"Ġwires":5031,"ĠArt":5032,"Ġtangled":5033,"rinking":5034,"Ġdraining":5035,"Ġrays":5036,"Ġcombin":5037,"imming":5038,"Ġprepar":5039,"zing":5040,"Ġtries":5041,"Ġguidance":5042,"ummy":5043,"Ġshore":5044,"Ġhighlight":5045,"Ġunprepared":5046,"undry":5047,"Ġvers":5048,"Ġpayments":5049,"Ġdancing":5050,"Ġloving":5051,"Ġoccasions":5052,"ĠMo":5053,"Ġwindy":5054,"Ġsway":5055,"Ġsponges":5056,"Ġcontribute":5057,"Ġfinances":5058,"Ġnutr":5059,"ug":5060,"Ġaff":5061,"Ġinsights":5062,"ĠHolding":5063,"Ġinvolve":5064,"Ġlemon":5065,"Ġlaundry":5066,"Ġknots":5067,"Ġwonderfully":5068,"aff":5069,"Ġdev":5070,"Ġaud":5071,"irts":5072,"ify":5073,"Ġaltogether":5074,"ished":5075,"Ġlies":5076,"Ġdrawings":5077,"ĠImag":5078,"Ġtravels":5079,"Ġattractions":5080,"Ġbutterflies":5081,"Ġchores":5082,"Ġrot":5083,"Ġprofits":5084,"agement":5085,"Ġenr":5086,"ĠAt":5087,"Ġstudy":5088,"Ġsticking":5089,"Ġhouses":5090,"Ġenergized":5091,"Ġended":5092,"Ġreceipts":5093,"Ġexperienced":5094,"ĠSupporting":5095,"Ġafford":5096,"Ġshaking":5097,"Ġoption":5098,"mp":5099,"Ġcross":5100,"Ġcooked":5101,"Ġdrag":5102,"Ġmanners":5103,"Ġbravery":5104,"Ġwaters":5105,"Ġstepping":5106,"issing":5107,"Ġwing":5108,"Ġcorners":5109,"ĠDrinking":5110,"Ġselfish":5111,"Ġoversh":5112,"Ġunnot":5113,"Ġmaintaining":5114,"Ġlesson":5115,"Ġstrang":5116,"Ġsays":5117,"ots":5118,"Ġclears":5119,"Ġsofter":5120,"Ġdim":5121,"ĠDogs":5122,"ants":5123,"Ġmouths":5124,"Ġworn":5125,"Ġfollowing":5126,"Ġeffici":5127,"uries":5128,"Ġhappiest":5129,"urt":5130,"Ġdiseases":5131,"Ġfrustrates":5132,"Ġclimb":5133,"Ġwarn":5134,"Ġherbs":5135,"Ġodors":5136,"ĠFlowers":5137,"Ġpolishing":5138,"Ġunending":5139,"ipes":5140,"Ġlaughed":5141,"ostal":5142,"Ġstub":5143,"iven":5144,"room":5145,"Ġunchanging":5146,"ratitude":5147,"ding":5148,"Ġthrown":5149,"Ġprovides":5150,"Ġexperiment":5151,"Ġaspects":5152,"Ġtells":5153,"Ġlegs":5154,"izza":5155,"ased":5156,"Ġoutfits":5157,"Ġresponsibly":5158,"Ġillness":5159,"Ġwalked":5160,"Ġoranges":5161,"Ġraining":5162,"Ġshocked":5163,"Ġsweetness":5164,"Ġplaytime":5165,"Ġunfold":5166,"Ġfos":5167,"Ġbones":5168,"Ġthankful":5169,"Ġnames":5170,"Ġunite":5171,"ored":5172,"ĠMissing":5173,"Ġwarms":5174,"Ġclimbing":5175,"Ġcandles":5176,"Ġmethod":5177,"Ġunnoticed":5178,"Ġvast":5179,"Ġconsum":5180,"Ġfloat":5181,"Ġgrace":5182,"Ġincredible":5183,"use":5184,"Ġpud":5185,"ĠFood":5186,"Ġsteaming":5187,"Ġtiredness":5188,"pring":5189,"ĠTrust":5190,"Ġtrend":5191,"ĠSwimming":5192,"unk":5193,"Ġwilling":5194,"ĠOpen":5195,"dges":5196,"Ġdismiss":5197,"Ġpipes":5198,"pts":5199,"ĠSpring":5200,"arted":5201,"Ġadjustments":5202,"Ġgloves":5203,"Ġengines":5204,"Ġrubbing":5205,"Ġisol":5206,"esear":5207,"Ġtied":5208,"Ġyummy":5209,"Ġharms":5210,"tains":5211,"eds":5212,"ouder":5213,"Ġlouder":5214,"Ġstomachs":5215,"Ġrock":5216,"Ġcreated":5217,"Ġmodern":5218,"Ġspices":5219,"ledging":5220,"Ġengage":5221,"Ġinjuries":5222,"Ġhurry":5223,"Ġinfluences":5224,"Ġincluded":5225,"Ġbands":5226,"Ġage":5227,"Ġsupposed":5228,"hearted":5229,"Ġholiday":5230,"Ġgenu":5231,"gest":5232,"Ġcakes":5233,"Ġsimplest":5234,"Ġhung":5235,"ĠCol":5236,"Ġlonging":5237,"Ġshelves":5238,"reed":5239,"ckets":5240,"Ġballo":5241,"Ġdisas":5242,"Ġpurch":5243,"Ġproperties":5244,"ĠCommunication":5245,"Ġdistracting":5246,"ering":5247,"Ġbuilt":5248,"Ġtack":5249,"Ġwan":5250,"Ġgall":5251,"Ġbub":5252,"ĠLaughter":5253,"Ġunable":5254,"ĠIsn":5255,"Ġcurtains":5256,"ĠCats":5257,"Ġaccompl":5258,"Ġresilience":5259,"ĠDis":5260,"Ġscares":5261,"Ġscent":5262,"Ġcrawling":5263,"Ġconstruction":5264,"Ġworkplace":5265,"Ġscientists":5266,"cu":5267,"Ġunke":5268,"ĠSeeing":5269,"Ġinstincts":5270,"Ġheight":5271,"Ġcooperate":5272,"Ġsticks":5273,"Ġpause":5274,"Ġrushing":5275,"Ġpointless":5276,"Ġdedication":5277,"ĠLetting":5278,"Ġflexible":5279,"Ġexpecting":5280,"Ġfilling":5281,"Ġreveal":5282,"care":5283,"Ġwore":5284,"Ġoceans":5285,"Ġcarefree":5286,"Ġexpenses":5287,"Ġtalent":5288,"Ġhungry":5289,"Ġremains":5290,"Ġpassion":5291,"Ġunl":5292,"Ġnumbers":5293,"acked":5294,"Ġstraw":5295,"ales":5296,"Ġdisrespectful":5297,"Ġwrit":5298,"ĠPract":5299,"Ġobserve":5300,"Ġur":5301,"Ġobst":5302,"Ġbeneath":5303,"Ġwasteful":5304,"alities":5305,"ductive":5306,"Ġinspires":5307,"od":5308,"ĠQ":5309,"Ġobstac":5310,"Ġpool":5311,"Ġshall":5312,"Ġstock":5313,"ĠWishing":5314,"Ġhill":5315,"adow":5316,"Ġplayground":5317,"Ġsust":5318,"Ġscarier":5319,"Ġinterested":5320,"Ġgave":5321,"Ġshelter":5322,"Ġtoast":5323,"Ġstable":5324,"Ġholes":5325,"Ġcomforts":5326,"Ġwander":5327,"Ġunproductive":5328,"Ġpizza":5329,"Ġreviews":5330,"Ġcreations":5331,"Ġdram":5332,"Ġpresence":5333,"Ġrecovery":5334,"Ġrepeating":5335,"Ġfabrics":5336,"Ġbri":5337,"Ġzoo":5338,"Ġsustain":5339,"Ġmad":5340,"Ġpresentation":5341,"oint":5342,"Ġshoulders":5343,"Ġbrightened":5344,"imy":5345,"Ġsensitive":5346,"Ġsource":5347,"Ġovershadow":5348,"Ġneglected":5349,"fessional":5350,"Ġpassed":5351,"Ġbesides":5352,"cap":5353,"ĠToday":5354,"Ġfoster":5355,"Ġqualities":5356,"ĠSn":5357,"ĠSad":5358,"Ġcrit":5359,"Ġinvest":5360,"ĠStories":5361,"ĠAnd":5362,"worthy":5363,"Ġconcent":5364,"Ġcarelessness":5365,"Ġimpulses":5366,"Ġcontribut":5367,"Ġforgetting":5368,"elev":5369,"Ġresear":5370,"Ġstudies":5371,"Ġnutri":5372,"ically":5373,"Ġstaff":5374,"Ġobstacles":5375,"Ġcushions":5376,"ĠClear":5377,"Ġcorrect":5378,"Ġmelt":5379,"ĠHappy":5380,"Ġadults":5381,"ĠConnect":5382,"Ġunfairly":5383,"Ġbalancing":5384,"Ġfires":5385,"Ġsoftly":5386,"Ġsuccessful":5387,"Ġschedules":5388,"Ġpests":5389,"Ġarching":5390,"elevision":5391,"Ġpour":5392,"ĠBir":5393,"Ġjunk":5394,"Ġbuds":5395,"dly":5396,"Ġtelevision":5397,"ĠAg":5398,"Ġtails":5399,"Ġpages":5400,"quality":5401,"Ġdeals":5402,"Ġstandards":5403,"Ġinvolves":5404,"Ġconven":5405,"tings":5406,"Ġnutrients":5407,"Ġbiggest":5408,"Ġviewers":5409,"ĠEducation":5410,"Ġenrich":5411,"Ġpatients":5412,"Ġsatisfied":5413,"Ġstrive":5414,"Ġlanguages":5415,"rap":5416,"Ġthoughtless":5417,"Ġperce":5418,"Ġrecognition":5419,"Ġcrops":5420,"cogn":5421,"aight":5422,"ider":5423,"irely":5424,"Ġstraight":5425,"Ġentirely":5426,"Ġadmire":5427,"Ġempt":5428,"Ġdirections":5429,"Ġaudience":5430,"Ġmarks":5431,"Ġhang":5432,"mpt":5433,"Ġglow":5434,"Ġstrengths":5435,"Ġdisrupts":5436,"Ġsever":5437,"Ġspl":5438,"Ġguests":5439,"ties":5440,"ĠAl":5441,"Ġunkempt":5442,"asy":5443,"Ġaccepting":5444,"ipping":5445,"Ġsnea":5446,"Ġregret":5447,"Ġunorganized":5448,"Ġsettings":5449,"Ġfearsome":5450,"Ġbottles":5451,"Ġfigures":5452,"Ġdisagreements":5453,"Ġpromoting":5454,"Ġplates":5455,"Ġexists":5456,"ulner":5457,"Ġcapturing":5458,"arr":5459,"ĠStrange":5460,"Ġhass":5461,"Ġperi":5462,"Ġvulner":5463,"Ġtreating":5464,"Ġfading":5465,"Ġevenings":5466,"Ġhug":5467,"ĠTheir":5468,"Ġlightness":5469,"Ġticking":5470,"ining":5471,"Ġdoubts":5472,"Ġuncover":5473,"Ġlightning":5474,"Ġtoes":5475,"Ġinnov":5476,"Ġminutes":5477,"Ġsmel":5478,"ĠWorry":5479,"Ġwiser":5480,"Ġgestures":5481,"Ġpasseng":5482,"Ġhassle":5483,"Ġgiven":5484,"Ġcharge":5485,"ĠEncouraging":5486,"ĠQu":5487,"Ġdiscouraging":5488,"ĠVery":5489,"Ġcontain":5490,"Ġholidays":5491,"Ġaren":5492,"Ġjoke":5493,"Ġunheard":5494,"Ġproviding":5495,"Ġtickets":5496,"Ġpockets":5497,"Ġrestore":5498,"Ġconsideration":5499,"Ġslower":5500,"Ġug":5501,"Ġvib":5502,"Ġflames":5503,"Ġgenuine":5504,"ĠTom":5505,"Ġspill":5506,"Ġprotests":5507,"Ġimpression":5508,"Ġencouragement":5509,"Ġpainted":5510,"Ġcreeping":5511,"Ġuncertainties":5512,"Ġyours":5513,"Ġbegins":5514,"osy":5515,"Ġevol":5516,"Ġincreasing":5517,"ĠChecking":5518,"Ġgratitude":5519,"Ġvan":5520,"Ġendings":5521,"Ġreb":5522,"ĠSnee":5523,"Ġmold":5524,"Ġhumid":5525,"Ġresponses":5526,"Ġstudying":5527,"Ġhabitats":5528,"Ġdevices":5529,"ĠGetting":5530,"Ġstain":5531,"ĠBad":5532,"eting":5533,"Ġruns":5534,"Ġeducate":5535,"Ġsending":5536,"Ġpreparation":5537,"Ġbricks":5538,"Ġstands":5539,"Ġtelling":5540,"Ġsandcast":5541,"Ġsorrow":5542,"ades":5543,"Ġecosy":5544,"ĠGardening":5545,"Ġecosyst":5546,"Ġoutings":5547,"Ġrespecting":5548,"Ġsettle":5549,"eries":5550,"ĠAgreed":5551,"Ġunn":5552,"Ġrooms":5553,"ĠPracticing":5554,"Ġugly":5555,"Ġdistracted":5556,"Ġseats":5557,"ĠMost":5558,"Ġguns":5559,"Ġpulls":5560,"Ġbump":5561,"Ġunkindness":5562,"Ġbow":5563,"Ġoccasion":5564,"hic":5565,"Ġcatching":5566,"Ġbaked":5567,"Ġsold":5568,"Ġraces":5569,"Ġdesserts":5570,"Ġkeys":5571,"Ġlistened":5572,"Ġefficiently":5573,"Ġringing":5574,"Ġvideos":5575,"Ġcompanions":5576,"Ġinterruptions":5577,"Ġcontributions":5578,"Ġappoint":5579,"Ġmentioned":5580,"Ġrepeated":5581,"Ġwhatever":5582,"Ġbills":5583,"Ġsau":5584,"Ġfights":5585,"Ġdelayed":5586,"Ġhardly":5587,"ph":5588,"Ġbush":5589,"uing":5590,"Ġemptiness":5591,"Ġsweeter":5592,"ĠNew":5593,"riendly":5594,"Ġbowl":5595,"Ġcords":5596,"Ġpressing":5597,"Ġunfulfilled":5598,"oes":5599,"asty":5600,"Ġimagined":5601,"Ġvessels":5602,"Ġblend":5603,"Ġbecame":5604,"ĠPrep":5605,"Ġrotten":5606,"ĠPreparing":5607,"ipment":5608,"Ġrelationship":5609,"Ġcreeps":5610,"Ġparticular":5611,"Ġpassengers":5612,"Ġequipment":5613,"ĠSneezing":5614,"orn":5615,"Ġvibes":5616,"ĠTomorrow":5617,"rees":5618,"Ġdur":5619,"Ġhardest":5620,"Ġcomfortably":5621,"Ġoffering":5622,"Ġshares":5623,"Ġaside":5624,"Ġrates":5625,"Ġdistr":5626,"Ġplayers":5627,"Ġdecoration":5628,"Ġscream":5629,"Ġrecognized":5630,"Ġprints":5631,"Ġrestless":5632,"Ġkitchens":5633,"Ġrecognizing":5634,"Ġwarnings":5635,"Ġaltern":5636,"Ġlemonade":5637,"Ġaller":5638,"icycle":5639,"Ġtouches":5640,"Ġfans":5641,"Ġbicycle":5642,"Ġreturning":5643,"Ġexcus":5644,"isons":5645,"riving":5646,"Ġentire":5647,"Ġcandy":5648,"isting":5649,"oping":5650,"ĠWeather":5651,"Ġlaughs":5652,"Ġsewing":5653,"Ġentertaining":5654,"esher":5655,"ĠStrong":5656,"ued":5657,"Ġfresher":5658,"Ġflour":5659,"Ġpond":5660,"Ġattach":5661,"Ġlibr":5662,"Ġpossibility":5663,"iffer":5664,"Ġcreature":5665,"ĠChild":5666,"Ġsupports":5667,"ressing":5668,"Ġuser":5669,"ords":5670,"Ġtackle":5671,"Ġchore":5672,"ĠOn":5673,"Ġmatches":5674,"Ġcrowds":5675,"Ġcooperation":5676,"Ġthinks":5677,"afety":5678,"Ġpace":5679,"Ġwondered":5680,"ulpt":5681,"ĠOr":5682,"Ġdusty":5683,"isiting":5684,"ixing":5685,"ĠSafety":5686,"Ġannoyances":5687,"Ġsnowm":5688,"Ġlearns":5689,"Ġnurt":5690,"Ġdrives":5691,"Ġregardless":5692,"onom":5693,"Ġbeaches":5694,"storm":5695,"Ġinstant":5696,"ĠImagining":5697,"telling":5698,"Ġsculpt":5699,"anic":5700,"Ġsink":5701,"ĠConnecting":5702,"Ġwag":5703,"Ġdesk":5704,"Ġchef":5705,"Ġgoods":5706,"ĠSounds":5707,"Ġannoys":5708,"Ġprocesses":5709,"Ġdeadlines":5710,"Ġneedles":5711,"Ġdepth":5712,"Ġunfortunately":5713,"Ġmoist":5714,"Ġconcentrate":5715,"Ġexplan":5716,"ĠBirds":5717,"flowers":5718,"Ġguiding":5719,"licity":5720,"ading":5721,"azy":5722,"brell":5723,"Ġmaps":5724,"Ġincon":5725,"Ġweighs":5726,"Ġefficient":5727,"Ġnasty":5728,"Ġobject":5729,"Ġeconom":5730,"Ġstrawberries":5731,"Ġmuse":5732,"Ġcombinations":5733,"ĠBl":5734,"Ġfarming":5735,"Ġser":5736,"ĠRes":5737,"Ġripp":5738,"Ġforming":5739,"Ġfairly":5740,"Ġtear":5741,"ĠDriving":5742,"Ġthanks":5743,"Ġmisle":5744,"Ġcrunch":5745,"Ġelect":5746,"ibility":5747,"Ġvulnerable":5748,"Ġfence":5749,"Ġshirts":5750,"ĠResting":5751,"Ġlifesty":5752,"Ġthreatening":5753,"Ġsickness":5754,"eg":5755,"kward":5756,"itting":5757,"ĠDark":5758,"Ġresult":5759,"Ġstorytelling":5760,"Ġdesigned":5761,"Ġum":5762,"Ġgrossed":5763,"Ġobserving":5764,"Ġumbrell":5765,"Ġevoke":5766,"Ġfinishing":5767,"Ġresearch":5768,"ĠWashing":5769,"ls":5770,"Ġfestival":5771,"Ġslimy":5772,"Ġtwice":5773,"Ġagreements":5774,"Ġpens":5775,"Ġsees":5776,"Ġcontrast":5777,"Ġweeds":5778,"Ġachievements":5779,"oop":5780,"inded":5781,"Ġvibe":5782,"Ġkicking":5783,"Ġstability":5784,"Ġchose":5785,"Ġmisunderstanding":5786,"ells":5787,"Ġputs":5788,"atter":5789,"Ġawkward":5790,"Ġbuzz":5791,"onf":5792,"Ġunfairness":5793,"ĠWorrying":5794,"Ġpride":5795,"ĠMoving":5796,"Ġmoonlight":5797,"Ġcoping":5798,"Ġslips":5799,"Ġmarkets":5800,"Ġdeciding":5801,"Ġmental":5802,"Ġgrime":5803,"minded":5804,"Ġrepeat":5805,"Ġban":5806,"Ġexercising":5807,"Ġunready":5808,"Ġdisgusts":5809,"Ġnighttime":5810,"Ġburnt":5811,"Ġgrains":5812,"Ġargue":5813,"Ġalike":5814,"apping":5815,"ringing":5816,"ches":5817,"Ġadap":5818,"ficial":5819,"ĠCold":5820,"Ġuncomfortably":5821,"Ġtie":5822,"Ġmostly":5823,"Ġsizes":5824,"ĠComfort":5825,"Ġstatements":5826,"Ġboun":5827,"Ġburned":5828,"Ġarguing":5829,"ĠPos":5830,"ĠOld":5831,"Ġcherished":5832,"Ġpupp":5833,"ky":5834,"Ġchalking":5835,"Ġwarmly":5836,"Ġrecords":5837,"Ġboss":5838,"ĠJust":5839,"Ġjudged":5840,"Ġrepl":5841,"ĠAdding":5842,"Ġentertainment":5843,"Ġconfr":5844,"Ġpicked":5845,"cies":5846,"Ġremark":5847,"itiz":5848,"Ġunlike":5849,"Ġpuddles":5850,"Ġplain":5851,"Ġcatches":5852,"Ġtempor":5853,"Ġmelting":5854,"ĠChildren":5855,"Ġsurvival":5856,"Ġkites":5857,"ĠCertain":5858,"Ġlucky":5859,"icking":5860,"ĠEm":5861,"Ġpaintings":5862,"days":5863,"Ġrelate":5864,"Ġcuts":5865,"Ġflood":5866,"Ġapproaches":5867,"Ġshades":5868,"istic":5869,"ĠShe":5870,"overs":5871,"Ġpleasing":5872,"Ġcrying":5873,"Ġlibrary":5874,"Ġfits":5875,"plan":5876,"Ġcombination":5877,"Ġcanc":5878,"istent":5879,"gle":5880,"Ġtheories":5881,"Ġarms":5882,"Ġbelieving":5883,"Ġdistraction":5884,"Ġintentions":5885,"Ġlandscape":5886,"Ġgrown":5887,"Ġaffordable":5888,"Ġfulfilled":5889,"anag":5890,"Ġperformances":5891,"ised":5892,"Ġunknowns":5893,"Ġpumping":5894,"enty":5895,"Ġbeneficial":5896,"Ġgallery":5897,"tenance":5898,"Ġamusing":5899,"Ġacceptable":5900,"Ġlocking":5901,"ivers":5902,"encies":5903,"Ġhandled":5904,"Ġlingering":5905,"Ġacknowledging":5906,"Ġbearable":5907,"Ġcomments":5908,"ggy":5909,"Ġimproved":5910,"Ġdoctors":5911,"think":5912,"Ġrealizing":5913,"Ġcompetitions":5914,"Ġoperations":5915,"ĠFun":5916,"Ġunmanag":5917,"Ġpriorities":5918,"Ġunmanageable":5919,"Ġemb":5920,"Ġuntrust":5921,"Ġlacking":5922,"Ġwishes":5923,"Ġrecycle":5924,"Ġintim":5925,"Ġurg":5926,"ĠHoping":5927,"Ġunkindly":5928,"Ġcollab":5929,"Ġstopped":5930,"ups":5931,"Ġbushes":5932,"arrass":5933,"ifferent":5934,"Ġtrigg":5935,"ĠStorms":5936,"Ġcommitment":5937,"Ġcollars":5938,"ĠRespect":5939,"ower":5940,"ĠVisiting":5941,"Ġcomed":5942,"Ġpots":5943,"ĠBringing":5944,"Ġreconnect":5945,"Ġrights":5946,"Ġwheels":5947,"Ġwishing":5948,"ĠCom":5949,"Ġparties":5950,"Ġembarrass":5951,"Ġelectr":5952,"Ġmen":5953,"Ġdut":5954,"Ġpill":5955,"etter":5956,"Ġhoney":5957,"Ġchick":5958,"Ġexploration":5959,"Ġjourn":5960,"Ġghosts":5961,"eness":5962,"Ġadvance":5963,"Ġjoyfully":5964,"Ġattached":5965,"ether":5966,"Ġmaintenance":5967,"walk":5968,"Ġext":5969,"Ġthrows":5970,"ĠPol":5971,"ĠBetter":5972,"Ġobservations":5973,"for":5974,"Ġlips":5975,"Ġrebuild":5976,"Ġunres":5977,"Ġbites":5978,"Ġmedic":5979,"Ġwhether":5980,"aim":5981,"Ġkite":5982,"Ġtemporary":5983,"Ġcreatively":5984,"ident":5985,"ĠWanting":5986,"Ġattempts":5987,"Ġsupply":5988,"Ġhorns":5989,"Ġtruths":5990,"Ġguessing":5991,"Ġclassic":5992,"Ġtunes":5993,"Ġbubbles":5994,"Ġspr":5995,"Ġyounger":5996,"indful":5997,"urally":5998,"orage":5999,"cover":6000,"Ġdeter":6001,"Ġstorage":6002,"Ġrings":6003,"Ġcherishing":6004,"Ġdrops":6005,"Ġconvenience":6006,"ĠBy":6007,"Ġcoins":6008,"Ġclasses":6009,"wor":6010,"eded":6011,"Ġsneezed":6012,"Ġstopping":6013,"ĠWearing":6014,"Ġmessiness":6015,"Ġbrands":6016,"Ġrequests":6017,"Ġvehic":6018,"Ġcitiz":6019,"Ġnaturally":6020,"Ġpractical":6021,"Ġbits":6022,"Ġharmless":6023,"ĠHearing":6024,"Ġshakes":6025,"Ġblooms":6026,"Ġleftovers":6027,"Ġtire":6028,"Ġstrict":6029,"Ġunsettle":6030,"Ġexcuses":6031,"Ġballoon":6032,"Ġbees":6033,"Ġfutures":6034,"Ġstayed":6035,"Ġreligions":6036,"Ġinnoc":6037,"Ġalternatives":6038,"Ġuntrustworthy":6039,"Ġstems":6040,"Ġfav":6041,"Ġincreases":6042,"Ġjuicy":6043,"Ġextre":6044,"ĠMeet":6045,"Ġuntie":6046,"Ġunlock":6047,"Ġteams":6048,"medi":6049,"Ġbudgets":6050,"Ġtwisting":6051,"Ġdial":6052,"Ġimmedi":6053,"Ġfinal":6054,"Ġrainb":6055,"Ġpouring":6056,"Ġserving":6057,"Ġcracks":6058,"Ġallergies":6059,"Ġunaf":6060,"ury":6061,"Ġages":6062,"Ġwished":6063,"isp":6064,"ĠRunning":6065,"Ġsustainable":6066,"Ġcitizens":6067,"Ġawa":6068,"Ġgroc":6069,"Ġenvironmental":6070,"Ġtrusted":6071,"Ġbattle":6072,"Ġfavour":6073,"Ġdropping":6074,"Ġsteady":6075,"Ġpretend":6076,"Ġlab":6077,"while":6078,"Ġdialog":6079,"ightly":6080,"Ġsymbolize":6081,"ods":6082,"ĠCo":6083,"ĠSweet":6084,"Ġperiods":6085,"Ġdistress":6086,"Ġcancel":6087,"Ġcups":6088,"Ġfails":6089,"Ġeag":6090,"ils":6091,"ucky":6092,"ppings":6093,"akers":6094,"Ġcarries":6095,"ĠBoth":6096,"Ġemergencies":6097,"Ġbanan":6098,"ucks":6099,"ĠSuch":6100,"Ġcleanup":6101,"Ġmanaged":6102,"Ġjournal":6103,"Ġworthwhile":6104,"book":6105,"Ġunse":6106,"Ġclaim":6107,"Ġexhib":6108,"Ġstrengthens":6109,"Ġhorrible":6110,"Ġpromise":6111,"Ġtradition":6112,"Ġscreen":6113,"Ġsandcastles":6114,"Ġsauce":6115,"ef":6116,"Ġtouched":6117,"Ġfavourite":6118,"Ġtougher":6119,"Ġannoyance":6120,"going":6121,"Ġdisli":6122,"Ġfades":6123,"Ġversat":6124,"Ġspin":6125,"ifting":6126,"Ġworkout":6127,"Ġwinning":6128,"Ġsubject":6129,"Ġnutrition":6130,"Ġunfun":6131,"Ġharshly":6132,"Ġthumbs":6133,"ĠAd":6134,"Ġsooner":6135,"ĠReg":6136,"Ġben":6137,"Ġdent":6138,"Ġgrounded":6139,"Ġsweat":6140,"Ġcamp":6141,"idence":6142,"Ġstroll":6143,"Ġresist":6144,"Ġwellbeing":6145,"Ġfootball":6146,"acy":6147,"gia":6148,"ostalgia":6149,"Ġsales":6150,"Ġstretches":6151,"gic":6152,"Ġbrav":6153,"Ġodor":6154,"Ġmisleading":6155,"Ġsmashed":6156,"valued":6157,"reaking":6158,"Ġcreamy":6159,"Ġbravely":6160,"Ġnoses":6161,"Ġinner":6162,"Ġprofessional":6163,"Ġfixes":6164,"Ġhes":6165,"Ġopportunity":6166,"Ġrenew":6167,"Ġshifts":6168,"Ġunafraid":6169,"reg":6170,"vings":6171,"ĠWill":6172,"ormal":6173,"Ġprotected":6174,"Ġhaun":6175,"Ġshouting":6176,"Ġrecall":6177,"Ġpossibly":6178,"Ġharming":6179,"Ġunbright":6180,"Ġintimid":6181,"Ġscreens":6182,"Ġdisasters":6183,"Ġsake":6184,"Ġhowling":6185,"ptance":6186,"idents":6187,"Ġbold":6188,"Ġfallen":6189,"asp":6190,"inter":6191,"Ġcracking":6192,"Ġresilient":6193,"Ġeager":6194,"bled":6195,"Ġlatest":6196,"Ġpencils":6197,"Ġremarkable":6198,"Ġunrecogn":6199,"ĠDifferent":6200,"Ġwasn":6201,"Ġseveral":6202,"Ġintimidating":6203,"corn":6204,"Ġlighting":6205,"Ġongoing":6206,"friendly":6207,"Ġsidewalk":6208,"Ġsuccesses":6209,"warming":6210,"Ġsweets":6211,"ancy":6212,"Ġasked":6213,"Ġsavings":6214,"ĠMist":6215,"Ġparticipate":6216,"Ġappointment":6217,"Ġcounter":6218,"Ġaccur":6219,"Ġtravelers":6220,"Ġumbrella":6221,"Ġviewp":6222,"Ġmetals":6223,"ĠGoing":6224,"Ġspicy":6225,"Ġuntan":6226,"Ġchew":6227,"what":6228,"Ġroofs":6229,"Ġtrigger":6230,"Ġgrand":6231,"Ġwaking":6232,"Ġtroubled":6233,"Ġtow":6234,"ĠDressing":6235,"Ġdisreg":6236,"Ġheartwarming":6237,"Ġpolitics":6238,"Ġheated":6239,"Ġdeliver":6240,"Ġrolls":6241,"ĠSadness":6242,"Ġhumidity":6243,"Ġcandle":6244,"Ġchem":6245,"Ġvivid":6246,"Ġunfor":6247,"Ġfleeting":6248,"Ġsomewhat":6249,"Ġmonster":6250,"ours":6251,"sweet":6252,"Ġdisregard":6253,"Ġsunflowers":6254,"Ġpurposes":6255,"Ġlifestyle":6256,"Ġbiting":6257,"Ġvol":6258,"Ġquietness":6259,"Ġliquids":6260,"ĠMistakes":6261,"Ġmuseum":6262,"Ġversatile":6263,"icies":6264,"Ġtalents":6265,"Ġpolicies":6266,"Ġdecorating":6267,"Ġunsettled":6268,"Ġsparkle":6269,"ĠHon":6270,"Ġgrad":6271,"Ġinvade":6272,"ĠSleep":6273,"Ġcluttered":6274,"Ġoneself":6275,"Ġwid":6276,"Ġdiscussed":6277,"Ġserved":6278,"Ġcy":6279,"Ġorig":6280,"ĠSci":6281,"Ġleaking":6282,"ograp":6283,"ĠOpening":6284,"Ġcrunchy":6285,"Ġbuzzing":6286,"Ġflourish":6287,"Ġappearing":6288,"Ġreceiving":6289,"Ġsus":6290,"Ġbittersweet":6291,"Ġburns":6292,"Ġcou":6293,"Ġducks":6294,"Ġheights":6295,"Ġamounts":6296,"Ġflows":6297,"Ġfond":6298,"oining":6299,"Ġdisconnected":6300,"ĠJoining":6301,"Ġwider":6302,"Ġmend":6303,"Ġjewelry":6304,"Ġsneezes":6305,"Ġmelod":6306,"iers":6307,"Ġyucky":6308,"born":6309,"Ġproduction":6310,"Ġcycles":6311,"Ġpopcorn":6312,"Ġrocks":6313,"Ġinnocent":6314,"Ġbare":6315,"Ġsof":6316,"Ġjudging":6317,"Ġappet":6318,"Ġpinning":6319,"ced":6320,"Ġpa":6321,"Ġoverhead":6322,"Ġleaks":6323,"Ġdentist":6324,"Ġsoaking":6325,"Ġrises":6326,"Ġappearances":6327,"Ġshaped":6328,"Ġdelivery":6329,"Ġinjury":6330,"Ġstockings":6331,"vable":6332,"wise":6333,"ened":6334,"Ġdiets":6335,"Ġmelodies":6336,"Ġrelieve":6337,"Ġwounded":6338,"Ġbeginning":6339,"Ġcrushed":6340,"Ġbeat":6341,"Ġpe":6342,"Ġcompare":6343,"Ġpersonality":6344,"Ġdialogue":6345,"ĠEng":6346,"Ġphotograp":6347,"Ġmedicine":6348,"Ġsusp":6349,"Ġtoppings":6350,"Ġjumpy":6351,"Ġmelts":6352,"Ġsipping":6353,"Ġbend":6354,"alf":6355,"Ġech":6356,"lying":6357,"Ġsimplicity":6358,"Ġclosing":6359,"Ġunmindful":6360,"ĠSunlight":6361,"Ġchicken":6362,"Ġdisp":6363,"Ġcurves":6364,"ror":6365,"Ġsquirr":6366,"Ġarrived":6367,"Ġreass":6368,"Ġrelated":6369,"Ġsparks":6370,"arter":6371,"rig":6372,"ĠLoud":6373,"Ġdecorate":6374,"Ġcoat":6375,"Ġbrown":6376,"Ġcomfy":6377,"Ġcrossed":6378,"ĠSnakes":6379,"ĠThunder":6380,"Ġhits":6381,"ĠStress":6382,"Ġdeterm":6383,"Ġemergency":6384,"Ġripple":6385,"Ġflick":6386,"Ġmas":6387,"Ġexpression":6388,"ĠStill":6389,"capes":6390,"ĠPositive":6391,"Ġsunsets":6392,"beat":6393,"Ġspecies":6394,"Ġcrum":6395,"Ġisolated":6396,"Ġappetite":6397,"Ġble":6398,"Ġrethink":6399,"Ġprec":6400,"Ġuntidy":6401,"Ġshaping":6402,"Ġwriters":6403,"Ġartic":6404,"Ġwashed":6405,"ums":6406,"Ġwoke":6407,"ete":6408,"ĠSear":6409,"Ġskilled":6410,"Ġeleg":6411,"Ġrepeatedly":6412,"Ġstubborn":6413,"ĠSearching":6414,"ĠLit":6415,"Ġmatching":6416,"Ġproductivity":6417,"Ġbark":6418,"Ġgoodness":6419,"apid":6420,"azing":6421,"Ġmisunders":6422,"ged":6423,"Ġextreme":6424,"ĠSure":6425,"Ġbug":6426,"ĠStret":6427,"Ġbananas":6428,"itious":6429,"Ġdislikes":6430,"ĠDra":6431,"Ġinstructions":6432,"Ġrapid":6433,"Ġwatering":6434,"Ġsymbols":6435,"ĠStretching":6436,"elines":6437,"ched":6438,"Ġfancy":6439,"Ġtwisted":6440,"te":6441,"ĠDrawing":6442,"cing":6443,"Ġfitness":6444,"Ġhorror":6445,"lo":6446,"Ġstur":6447,"Ġrum":6448,"ĠRel":6449,"Ġintrig":6450,"Ġbored":6451,"Ġdurable":6452,"Ġmisunderstood":6453,"ĠQuiet":6454,"Ġunrecognized":6455,"Ġsetback":6456,"ĠCertainly":6457,"Ġredu":6458,"ĠReally":6459,"Ġpushed":6460,"Ġnutritious":6461,"Ġhappenings":6462,"Ġswaying":6463,"Ġchefs":6464,"lph":6465,"Ġfreeing":6466,"ĠSoft":6467,"Ġbridges":6468,"cy":6469,"Ġcaution":6470,"Ġwomen":6471,"Ġconfuse":6472,"Ġsmoothies":6473,"Ġinterrupt":6474,"Ġsnowmen":6475,"Ġsmarter":6476,"Ġcracked":6477,"Ġthriving":6478,"Ġdecre":6479,"Ġcomplaints":6480,"Ġdrama":6481,"Ġjumps":6482,"Ġborrow":6483,"atural":6484,"Ġwidely":6485,"Ġhowls":6486,"Ġharmed":6487,"Ġplease":6488,"Ġlifeless":6489,"Ġuntrue":6490,"Ġforces":6491,"Ġlayer":6492,"table":6493,"ĠWinter":6494,"Ġhitting":6495,"Ġconfront":6496,"grounds":6497,"uch":6498,"Ġhike":6499,"Ġsalty":6500,"Ġentertained":6501,"Ġinput":6502,"Ġbrakes":6503,"Ġstartle":6504,"Ġspoons":6505,"fting":6506,"Ġguides":6507,"Ġslightly":6508,"Ġsalads":6509,"Ġscrat":6510,"Ġcarts":6511,"roy":6512,"tons":6513,"Ġbackground":6514,"Ġears":6515,"Ġcruelty":6516,"Ġattending":6517,"cument":6518,"Ġtempting":6519,"Ġdestroy":6520,"Ġbin":6521,"Ġhel":6522,"Ġdrains":6523,"ppers":6524,"ĠOnly":6525,"Ġawait":6526,"Ġcrash":6527,"ĠSil":6528,"Ġexperimenting":6529,"attered":6530,"Ġpresents":6531,"Ġparticularly":6532,"Ġgradually":6533,"ĠIce":6534,"Ġdef":6535,"Ġsneak":6536,"ians":6537,"llows":6538,"Ġotherwise":6539,"Ġknown":6540,"Ġlacks":6541,"Ġeconomy":6542,"Ġicy":6543,"Ġbuttons":6544,"Ġensuring":6545,"Ġworksp":6546,"Ġdisappears":6547,"Ġcast":6548,"Ġate":6549,"Ġlining":6550,"Ġboxes":6551,"Ġfollows":6552,"ĠPolishing":6553,"Ġunforget":6554,"ĠSail":6555,"ĠPets":6556,"Ġsale":6557,"cept":6558,"Ġselling":6559,"Ġbelow":6560,"Ġtiming":6561,"Ġadvancements":6562,"ees":6563,"Ġours":6564,"Ġadventur":6565,"ĠOuch":6566,"Ġrushed":6567,"Ġsweater":6568,"Ġpurchases":6569,"Ġsent":6570,"Ġuseless":6571,"Ġplenty":6572,"Ġvac":6573,"Ġgracefully":6574,"ĠMeeting":6575,"Ġtires":6576,"Ġflooding":6577,"ĠRegular":6578,"oints":6579,"Ġgreasy":6580,"Ġwagging":6581,"Ġsturdy":6582,"Ġusers":6583,"Ġcollaboration":6584,"Ġviewpoints":6585,"Ġwherever":6586,"Ġcorks":6587,"Ġcarriages":6588,"Ġunforgettable":6589,"zes":6590,"Ġtale":6591,"Ġbrainstorm":6592,"Ġsets":6593,"Ġunvalued":6594,"ĠUs":6595,"lit":6596,"Ġcalled":6597,"Ġsmashing":6598,"Ġintriguing":6599,"Ġpiles":6600,"Ġdistances":6601,"Ġraises":6602,"ĠPic":6603,"Ġhalf":6604,"Ġroute":6605,"ĠEmot":6606,"Ġchasing":6607,"Ġarr":6608,"Ġsounded":6609,"Ġfestive":6610,"ĠPicn":6611,"Ġdocument":6612,"Ġcooks":6613,"Ġapproaching":6614,"Ġsplash":6615,"Ġunseen":6616,"Ġboil":6617,"umping":6618,"Ġtracks":6619,"wr":6620,"Ġcoin":6621,"sive":6622,"opes":6623,"Ġrepresentatives":6624,"making":6625,"Ġexchanges":6626,"Ġmoisture":6627,"Ġexpand":6628,"Ġcowork":6629,"Ġrusty":6630,"icals":6631,"Ġpuppy":6632,"Ġsuspense":6633,"Ġgap":6634,"Ġdaylight":6635,"Ġthreads":6636,"ikes":6637,"istance":6638,"Ġsoldiers":6639,"Ġheld":6640,"Ġeducating":6641,"Ġlayers":6642,"Ġchemicals":6643,"unders":6644,"Ġmanner":6645,"Ġlosses":6646,"ĠPicnics":6647,"Ġbak":6648,"imate":6649,"Ġphones":6650,"Ġupbeat":6651,"Ġstillness":6652,"Ġpollut":6653,"isies":6654,"Ġmult":6655,"Ġtastier":6656,"Ġcollective":6657,"Ġmod":6658,"Ġwarming":6659,"Ġtomat":6660,"Ġguidelines":6661,"Ġadventurous":6662,"ugg":6663,"Ġmirr":6664,"Ġmales":6665,"Ġweights":6666,"omplete":6667,"ostalgic":6668,"ponsible":6669,"Ġadvant":6670,"Ġlightens":6671,"Ġresolut":6672,"Ġdrift":6673,"Ġcalls":6674,"Ġassist":6675,"bling":6676,"Ġinfluenc":6677,"riage":6678,"Ġbacky":6679,"ĠWhile":6680,"ĠEmotions":6681,"awn":6682,"Ġbank":6683,"Ġcrashing":6684,"Ġgaps":6685,"Ġkne":6686,"Ġuplifted":6687,"Ġreduces":6688,"Ġlifet":6689,"Ġtears":6690,"dom":6691,"owing":6692,"Ġbounce":6693,"Ġgroceries":6694,"cuments":6695,"Ġdocuments":6696,"Ġauthors":6697,"Ġattacks":6698,"Ġimmediately":6699,"Ġuntangle":6700,"Ġindividual":6701,"Ġdestination":6702,"Ġgrasp":6703,"Ġdevelopments":6704,"Ġchecks":6705,"Ġecosystems":6706,"uly":6707,"Ġcen":6708,"Ġcalms":6709,"aked":6710,"Ġcourse":6711,"Ġburdensome":6712,"lphins":6713,"bal":6714,"ĠWouldn":6715,"iversity":6716,"Ġut":6717,"urning":6718,"Ġedges":6719,"Ġplot":6720,"ĠSur":6721,"agious":6722,"Ġvent":6723,"Ġcontagious":6724,"Ġlifetime":6725,"Ġhowever":6726,"ĠTeam":6727,"Ġelements":6728,"Ġlandscapes":6729,"ĠLon":6730,"Ġjudgments":6731,"Ġirritation":6732,"Ġtightness":6733,"Ġbothered":6734,"utting":6735,"Ġislands":6736,"Ġinterrupts":6737,"Ġexperiments":6738,"Ġpurchase":6739,"Ġpolite":6740,"ĠLoneliness":6741,"Ġinstantly":6742,"Ġhaunted":6743,"Ġdrawn":6744,"essions":6745,"Ġemotionally":6746,"Ġintern":6747,"Ġunneeded":6748,"Ġcafe":6749,"ounting":6750,"ĠCher":6751,"Ġleftover":6752,"Ġadapting":6753,"makers":6754,"Ġsculptures":6755,"Ġfrightens":6756,"ĠHealing":6757,"Ġmoldy":6758,"ummer":6759,"Ġaddressing":6760,"Ġhighlights":6761,"Ġinconven":6762,"forward":6763,"ĠLight":6764,"Ġrefuse":6765,"Ġdrained":6766,"Ġlabels":6767,"Ġant":6768,"Ġpul":6769,"Ġdeb":6770,"ĠSailing":6771,"Ġdeepen":6772,"Ġmusical":6773,"Ġpushes":6774,"ĠDust":6775,"ĠSummer":6776,"Ġtowns":6777,"Ġpressures":6778,"Ġdressed":6779,"Ġvanish":6780,"Ġnormally":6781,"Ġsmelly":6782,"ĠTruly":6783,"Ġstraightforward":6784,"Ġwedding":6785,"Ġacceptance":6786,"Ġstuffy":6787,"down":6788,"Ġfriendlier":6789,"Ġcontact":6790,"Ġknees":6791,"oyal":6792,"ĠHiding":6793,"ĠMom":6794,"Ġstatue":6795,"ĠRainy":6796,"riers":6797,"ĠFixing":6798,"ĠCho":6799,"ĠMoments":6800,"Ġbedtime":6801,"Ġclaims":6802,"Ġutens":6803,"Ġvit":6804,"ache":6805,"Ġcollects":6806,"Ġmenu":6807,"Ġbarriers":6808,"iant":6809,"Ġfearfully":6810,"Ġtying":6811,"ĠEngaging":6812,"Ġsuit":6813,"Ġsmelled":6814,"Ġunr":6815,"Ġtrails":6816,"Ġlocks":6817,"Ġrainbow":6818,"Ġcomput":6819,"Ġattic":6820,"Ġcrumbs":6821,"ĠSetting":6822,"Ġyog":6823,"Ġscr":6824,"Ġincomplete":6825,"Ġpolished":6826,"Ġphoto":6827,"Ġbackyard":6828,"Ġunli":6829,"Ġexchanging":6830,"Ġporters":6831,"Ġabsor":6832,"ĠCherishing":6833,"underst":6834,"Ġdiversity":6835,"Ġdownt":6836,"ĠTeamwork":6837,"inal":6838,"ĠTrees":6839,"Ġtra":6840,"Ġcomparisons":6841,"Ġvitam":6842,"Ġcheaper":6843,"Ġknives":6844,"Ġworkspace":6845,"Ġident":6846,"ĠHowever":6847,"Ġopenness":6848,"Ġeaten":6849,"Ġdreaming":6850,"ghing":6851,"lding":6852,"Ġduties":6853,"Ġthree":6854,"Ġmispl":6855,"ĠLaughing":6856,"Ġstrangely":6857,"Ġpulled":6858,"Ġdowntown":6859,"ĠComp":6860,"Ġmech":6861,"Ġtheme":6862,"ĠImpro":6863,"Ġunfolds":6864,"Ġsheet":6865,"Ġfairer":6866,"Ġsoups":6867,"ĠFolding":6868,"Ġrecommendations":6869,"Ġcolle":6870,"Ġbehaviour":6871,"Ġshutting":6872,"Ġunnormal":6873,"Ġelectric":6874,"Ġvehicles":6875,"Ġutensils":6876,"Ġshifting":6877,"ĠAsking":6878,"Ġbeds":6879,"Ġgems":6880,"ĠCuri":6881,"Ġaccepted":6882,"Ġbirthdays":6883,"Ġclassroom":6884,"ĠSc":6885,"Ġloyal":6886,"Ġgear":6887,"Ġtrays":6888,"qual":6889,"Ġblades":6890,"Ġsnowy":6891,"Ġunfulfilling":6892,"ote":6893,"Ġconclusions":6894,"ĠScience":6895,"Ġgesture":6896,"Ġcenter":6897,"Ġburdened":6898,"Ġinternet":6899,"Ġevolve":6900,"Ġstored":6901,"Ġbaths":6902,"Ġlakes":6903,"Ġtreatments":6904,"Ġoffered":6905,"Ġcrawl":6906,"ploy":6907,"Ġlinked":6908,"works":6909,"Ġspilling":6910,"Ġfake":6911,"Ġinvent":6912,"Ġvaluing":6913,"Ġpanic":6914,"Ġvegetable":6915,"Ġads":6916,"ĠMon":6917,"ĠMore":6918,"Ġglue":6919,"ext":6920,"Ġeco":6921,"Ġmapping":6922,"Ġsoak":6923,"Ġselves":6924,"Ġdisaster":6925,"ĠCuriosity":6926,"Ġstove":6927,"Ġactual":6928,"Ġemploy":6929,"Ġdaisies":6930,"Ġconsistent":6931,"Ġtip":6932,"Ġscattered":6933,"Ġclash":6934,"Ġnecks":6935,"cons":6936,"atable":6937,"ellent":6938,"ĠSitting":6939,"Ġsignals":6940,"Ġstrategy":6941,"Ġnurturing":6942,"otect":6943,"ĠSoup":6944,"Ġfollowed":6945,"Ġforecasts":6946,"Ġcolleag":6947,"breaking":6948,"Ġtrusting":6949,"board":6950,"Ġcompanionship":6951,"Ġpaid":6952,"Ġreus":6953,"Ġcrazy":6954,"Ġaccounts":6955,"Ġthicker":6956,"Ġlocation":6957,"man":6958,"Ġdw":6959,"Ġdisorganized":6960,"Ġplanets":6961,"ĠThese":6962,"ĠFlying":6963,"ĠRest":6964,"Ġconsume":6965,"erful":6966,"Ġwins":6967,"Ġsparkling":6968,"Ġpuzzle":6969,"Ġly":6970,"ĠUnc":6971,"Ġunstable":6972,"Ġassistance":6973,"Ġcharming":6974,"ĠPerfect":6975,"Ġunderest":6976,"Ġcircu":6977,"Ġloses":6978,"Ġbrushes":6979,"Ġunthinking":6980,"Ġrustling":6981,"ĠAlso":6982,"rics":6983,"Ġremed":6984,"ĠCon":6985,"ĠNostalgia":6986,"Ġachieving":6987,"Ġleadership":6988,"Ġtraits":6989,"Ġforests":6990,"Ġempower":6991,"Ġwandering":6992,"Ġshown":6993,"ĠFam":6994,"Ġneatly":6995,"Ġgreatest":6996,"Ġripe":6997,"Ġconsumers":6998,"Ġdramatic":6999,"Ġexplanation":7000,"allow":7001,"Ġwaving":7002,"Ġsilent":7003,"Ġbitterness":7004,"ĠFamily":7005,"Ġcheerfulness":7006,"Ġdigital":7007,"Ġpillows":7008,"icked":7009,"Ġfilth":7010,"Ġsmoothie":7011,"ĠTrusting":7012,"Ġscarf":7013,"Ġsoaked":7014,"ĠRed":7015,"Ġdemands":7016,"Ġsetbacks":7017,"Ġshoppers":7018,"Ġsnowball":7019,"Ġincreased":7020,"Ġjam":7021,"Ġmisuse":7022,"Ġmarriage":7023,"epend":7024,"ĠAc":7025,"icky":7026,"Ġblame":7027,"ĠLiving":7028,"Ġfurry":7029,"Ġspoke":7030,"Ġremo":7031,"Ġdisturbed":7032,"Ġunche":7033,"ĠOrgan":7034,"bed":7035,"ptions":7036,"eph":7037,"acks":7038,"Ġvisibility":7039,"Ġconstru":7040,"Ġphysically":7041,"Ġachievement":7042,"ĠHonesty":7043,"Ġlyrics":7044,"Ġbackup":7045,"Ġstartled":7046,"Ġstrikes":7047,"Ġmisplaced":7048,"Ġairp":7049,"Ġdental":7050,"ĠImproving":7051,"Ġfu":7052,"Ġweighed":7053,"planned":7054,"Ġtrap":7055,"Ġtighter":7056,"Ġpollen":7057,"Ġecosystem":7058,"Ġcomedy":7059,"Ġresolution":7060,"Ġsheets":7061,"Ġsadd":7062,"Ġprivacy":7063,"ĠJoy":7064,"Ġprecaut":7065,"Ġexcellent":7066,"ĠEnding":7067,"Ġsaddest":7068,"made":7069,"esents":7070,"Ġheating":7071,"ubbing":7072,"Ġadvantage":7073,"Ġcases":7074,"Ġunequal":7075,"Ġresolved":7076,"Ġaccomplishment":7077,"Ġhills":7078,"Ġdeadline":7079,"Ġrepresents":7080,"Ġgraceful":7081,"Ġcircums":7082,"Ġthunderst":7083,"Ġfunctions":7084,"ĠEverything":7085,"Ġpuzzles":7086,"rif":7087,"Ġfocuses":7088,"Ġtraditional":7089,"Ġplaced":7090,"Ġtag":7091,"Ġwaited":7092,"Ġdisappointments":7093,"mission":7094,"Ġunderestimate":7095,"lecting":7096,"Ġappli":7097,"Ġsoftness":7098,"Ġcalling":7099,"Ġunpredictability":7100,"ĠSmiling":7101,"Ġfrightful":7102,"Ġhistories":7103,"Ġjackets":7104,"ught":7105,"onds":7106,"Ġunener":7107,"Ġtaught":7108,"Ġscore":7109,"Ġconfidently":7110,"pressing":7111,"ĠGl":7112,"Ġbakery":7113,"Ġhaven":7114,"osting":7115,"Ġrelatable":7116,"Ġreacting":7117,"ĠBlue":7118,"Ġprecautions":7119,"Ġshells":7120,"Ġpresented":7121,"Ġrar":7122,"Ġbrushing":7123,"alling":7124,"Ġcircumstances":7125,"Ġnostalgic":7126,"let":7127,"Ġgenres":7128,"Ġunreal":7129,"atience":7130,"ĠExpressing":7131,"Ġvisible":7132,"Ġreacts":7133,"ĠRespecting":7134,"Ġties":7135,"ĠYesterday":7136,"though":7137,"ieties":7138,"ĠStitching":7139,"Ġrestful":7140,"cient":7141,"Ġoverly":7142,"Ġlifted":7143,"Ġignores":7144,"Ġeducational":7145,"Ġballoons":7146,"load":7147,"rop":7148,"Ġtruck":7149,"Ġcrisp":7150,"Ġpleasantly":7151,"ĠGrow":7152,"Ġfloors":7153,"reen":7154,"Ġunpredictably":7155,"Ġsquirrels":7156,"ping":7157,"eria":7158,"Ġunconnected":7159,"Ġpowerless":7160,"Ġmindfulness":7161,"sting":7162,"Ġshy":7163,"Ġtongues":7164,"Ġexplanations":7165,"sty":7166,"Ġhonor":7167,"mers":7168,"water":7169,"Ġworkload":7170,"caping":7171,"Ġhom":7172,"enic":7173,"Ġterrif":7174,"Ġservants":7175,"Ġinnovation":7176,"cl":7177,"Ġbending":7178,"Ġgiant":7179,"Ġalarm":7180,"Ġheartbreaking":7181,"Ġstartling":7182,"Ġbackgrounds":7183,"Ġthoughtfully":7184,"Ġnations":7185,"Ġheading":7186,"Ġsugary":7187,"Ġloop":7188,"Ġpermission":7189,"Ġfailure":7190,"vent":7191,"vious":7192,"Ġtos":7193,"Ġmember":7194,"Ġjoined":7195,"Ġobvious":7196,"Ġresolving":7197,"Ġelegant":7198,"Ġfier":7199,"Ġpasting":7200,"Ġframes":7201,"ooks":7202,"Ġbloss":7203,"Ġdrawers":7204,"Ġcomputer":7205,"hus":7206,"Ġmail":7207,"ĠCollecting":7208,"Ġunplanned":7209,"Ġfailing":7210,"Ġacted":7211,"ĠBal":7212,"Ġquestioning":7213,"ĠChocolate":7214,"Ġdetermination":7215,"happy":7216,"Ġdivid":7217,"ĠHealthy":7218,"Ġfondly":7219,"nel":7220,"ĠSending":7221,"ĠAcknow":7222,"arks":7223,"Ġplanted":7224,"Ġstrangers":7225,"Ġaccomplished":7226,"Ġinconvenient":7227,"iders":7228,"Ġcouldn":7229,"Ġpresenting":7230,"Ġbathroom":7231,"Ġsailors":7232,"Ġdisappearing":7233,"Ġuncheerful":7234,"Ġconce":7235,"Ġbuses":7236,"ĠDeep":7237,"Ġindepend":7238,"Ġpersonalities":7239,"Ġfestiv":7240,"Ġsoar":7241,"Ġcoz":7242,"aining":7243,"Ġmirror":7244,"nier":7245,"Ġsafest":7246,"Ġzones":7247,"husi":7248,"Ġlazy":7249,"Ġendlessly":7250,"Ġdisagreement":7251,"bly":7252,"Ġancient":7253,"Ġspoils":7254,"Ġdecrease":7255,"Ġplum":7256,"Ġthous":7257,"Ġcomforted":7258,"Ġpromised":7259,"keys":7260,"Ġnurture":7261,"Ġunlikely":7262,"Ġconcepts":7263,"aves":7264,"Ġeasing":7265,"Ġdirtiness":7266,"Ġdistressing":7267,"hand":7268,"adget":7269,"ĠHum":7270,"Ġexpressions":7271,"Ġmothers":7272,"Ġcritical":7273,"inform":7274,"Ġcap":7275,"Ġearn":7276,"Ġgadget":7277,"Ġunconf":7278,"Ġembarrassed":7279,"ĠMonkeys":7280,"Ġdolphins":7281,"Ġran":7282,"ume":7283,"ĠLast":7284,"'ve":7285,"ĠCould":7286,"Ġrelieved":7287,"Ġaccurate":7288,"Ġvitamins":7289,"Ġlearners":7290,"ĠPlants":7291,"ĠJumping":7292,"Ġdragging":7293,"Ġfostering":7294,"Ġten":7295,"Ġlisteners":7296,"ocked":7297,"Ġshak":7298,"Ġadorable":7299,"Ġprotective":7300,"ĠSticky":7301,"Ġpetals":7302,"Ġurgent":7303,"ĠAut":7304,"Ġslopes":7305,"ĠBooks":7306,"Ġwisdom":7307,"Ġirres":7308,"Ġfaith":7309,"ĠCar":7310,"Ġrespectfully":7311,"ancakes":7312,"Ġbreezes":7313,"Ġfitting":7314,"covering":7315,"ulations":7316,"wracking":7317,"Ġtone":7318,"Ġforks":7319,"Ġskirts":7320,"Ġcoverage":7321,"Ġwars":7322,"Ġunexcited":7323,"Ġstained":7324,"Ġscratch":7325,"etry":7326,"Ġalthough":7327,"Ġappliances":7328,"itar":7329,"ĠMixing":7330,"Ġrewarded":7331,"ĠKnow":7332,"Ġterm":7333,"Ġcoughs":7334,"Ġunnatural":7335,"ĠWool":7336,"Ġcommunicating":7337,"Ġdamaging":7338,"ĠSnacks":7339,"Ġunconfident":7340,"Ġpiled":7341,"Ġunworthy":7342,"Ġtrained":7343,"Ġthreatened":7344,"ĠColor":7345,"Ġoils":7346,"Ġrhythms":7347,"Ġacknowled":7348,"Ġbench":7349,"ĠAcknowledging":7350,"catching":7351,"Ġsparkles":7352,"Ġcanceled":7353,"ism":7354,"Ġache":7355,"Ġsorted":7356,"Ġnets":7357,"ĠCotton":7358,"Ġwrapp":7359,"ouples":7360,"ĠHot":7361,"Ġbrand":7362,"emade":7363,"ĠLocking":7364,"Ġenriches":7365,"Ġsunr":7366,"Ġdesigners":7367,"Ġserves":7368,"Ġgrap":7369,"ĠBreat":7370,"Ġadvoc":7371,"Ġcomplaining":7372,"Ġgrandm":7373,"Ġchees":7374,"ĠConf":7375,"Ġvaried":7376,"Ġgreed":7377,"Ġsleepy":7378,"Ġthoughtfulness":7379,"ĠCleanliness":7380,"Ġunprofessional":7381,"Ġnap":7382,"Ġslowing":7383,"Ġterrifying":7384,"Ġtends":7385,"Ġcouples":7386,"Ġstood":7387,"ĠSat":7388,"Ġtables":7389,"Ġpositions":7390,"Ġfruity":7391,"Ġcaptiv":7392,"Ġhesit":7393,"ĠBreathing":7394,"ĠDancing":7395,"Ġtaller":7396,"ĠFeelings":7397,"Ġgarage":7398,"ĠMapping":7399,"Ġskip":7400,"Ġguitar":7401,"Ġballs":7402,"Ġsmelling":7403,"ĠTravel":7404,"Ġroutes":7405,"Ġchairs":7406,"Ġpolluted":7407,"Ġingredient":7408,"ĠGloom":7409,"Ġrob":7410,"Ġcoughing":7411,"Ġsculpture":7412,"oms":7413,"ĠBo":7414,"Ġovens":7415,"fulness":7416,"Ġavoided":7417,"Ġcountryside":7418,"Ġgolden":7419,"Ġflexibility":7420,"Ġmechanic":7421,"ĠUncertain":7422,"belie":7423,"eth":7424,"Ġsunnier":7425,"olling":7426,"Ġrarely":7427,"ĠDream":7428,"Ġafternoons":7429,"Ġpreserving":7430,"Ġarrange":7431,"ĠSatur":7432,"ĠGloomy":7433,"Ġsits":7434,"Ġcrushing":7435,"lessly":7436,"Ġenergizing":7437,"Ġblew":7438,"ĠSurpris":7439,"ian":7440,"Ġchip":7441,"Ġminor":7442,"Ġtested":7443,"Ġsuccessfully":7444,"Ġhumanity":7445,"Ġcompassionate":7446,"Ġincludes":7447,"ĠMov":7448,"Ġtur":7449,"oos":7450,"ĠDon":7451,"Ġfoggy":7452,"Ġswing":7453,"Ġcloths":7454,"Ġjumped":7455,"Ġordered":7456,"Ġroses":7457,"Ġbudgeting":7458,"Ġdecides":7459,"siderate":7460,"ĠBalancing":7461,"ĠWater":7462,"Ġbeside":7463,"rance":7464,"Ġmessed":7465,"Ġbursts":7466,"Ġtid":7467,"Ġdaytime":7468,"ĠFriendships":7469,"Ġcolours":7470,"Ġwelf":7471,"Ġeleph":7472,"Ġemployees":7473,"Ġwelfare":7474,"Ġpassions":7475,"Ġcultural":7476,"ĠSaturday":7477,"unte":7478,"Ġsavor":7479,"Ġhandy":7480,"Ġperceive":7481,"fly":7482,"Ġwhis":7483,"otally":7484,"ĠTotally":7485,"ĠWho":7486,"Ġarchite":7487,"rops":7488,"Ġcere":7489,"Ġhello":7490,"Ġpink":7491,"ĠYet":7492,"Ġsod":7493,"Ġunused":7494,"Ġgaining":7495,"Ġlie":7496,"Ġoverwhelm":7497,"Ġvision":7498,"Ġlimiting":7499,"Ġbutterfly":7500,"ĠMovies":7501,"sc":7502,"ware":7503,"Ġcoldness":7504,"Ġdisplays":7505,"Ġthreats":7506,"ĠSupport":7507,"Ġtimely":7508,"prove":7509,"ddings":7510,"Ġfilmmakers":7511,"Ġcozier":7512,"Ġweddings":7513,"Ġswings":7514,"Ġindustries":7515,"Ġupdated":7516,"Ġartistic":7517,"lasting":7518,"Ġung":7519,"Ġpromising":7520,"Ġcaptures":7521,"Ġattended":7522,"Ġmonsters":7523,"Ġbikes":7524,"Ġenlight":7525,"Ġenhances":7526,"Ġcoworkers":7527,"information":7528,"Ġfindings":7529,"Ġwines":7530,"Ġcomplexity":7531,"Ġraind":7532,"Ġstriking":7533,"Ġcounting":7534,"ooth":7535,"ĠHorses":7536,"ĠCows":7537,"Ġhund":7538,"Ġpancakes":7539,"Ġchills":7540,"ĠBer":7541,"ption":7542,"Ġfestivals":7543,"io":7544,"Ġslipped":7545,"Ġheighten":7546,"ĠUncertainty":7547,"Ġpeel":7548,"vesting":7549,"Ġglance":7550,"Ġairplan":7551,"Ġhangs":7552,"ĠUser":7553,"Ġairport":7554,"Ġhomemade":7555,"aising":7556,"Ġwrap":7557,"Ġexplored":7558,"Ġunhappiness":7559,"Ġecho":7560,"een":7561,"onder":7562,"Ġport":7563,"uts":7564,"Ġvet":7565,"Ġpost":7566,"ĠRecogn":7567,"Ġgenerally":7568,"Ġbelonging":7569,"Ġcouch":7570,"ĠOrganizing":7571,"Ġraindrops":7572,"oken":7573,"lex":7574,"ĠLeather":7575,"ĠSmoking":7576,"ĠAdvent":7577,"Ġvolunte":7578,"ĠAcce":7579,"ex":7580,"Ġairlines":7581,"Ġinsight":7582,"Ġbrief":7583,"Ġoriginal":7584,"Ġsoda":7585,"gress":7586,"Ġfeather":7587,"Ġunac":7588,"ĠTesting":7589,"Ġsoggy":7590,"ĠBrighter":7591,"hill":7592,"ley":7593,"Ġbeats":7594,"osal":7595,"Ġorders":7596,"Ġbacks":7597,"Ġmath":7598,"Ġrecyc":7599,"Ġrestr":7600,"Ġboosts":7601,"Ġthoughtlessly":7602,"Ġnests":7603,"osen":7604,"ĠRaising":7605,"Ġappeal":7606,"Ġsearched":7607,"Ġinconsiderate":7608,"Ġsou":7609,"Ġremembered":7610,"Ġvastness":7611,"Ġhealthcare":7612,"Ġticks":7613,"Ġcameras":7614,"Ġdemanding":7615,"ĠRelax":7616,"inge":7617,"Ġsignal":7618,"Ġtechnologies":7619,"Ġaffection":7620,"ĠPro":7621,"Ġnoticeable":7622,"Ġflew":7623,"Ġdegrees":7624,"Ġchewing":7625,"ĠDiscovering":7626,"Ġarticle":7627,"ĠLittle":7628,"ĠPatience":7629,"Ġfamous":7630,"Ġharmonious":7631,"Ġimpressions":7632,"Ġenlightening":7633,"Ġseas":7634,"Ġwrote":7635,"ĠPlanting":7636,"ccer":7637,"hygi":7638,"Ġshower":7639,"aws":7640,"belief":7641,"hygienic":7642,"ĠMoney":7643,"Ġlighthearted":7644,"Ġmisinformation":7645,"Ġcookie":7646,"ĠOut":7647,"Ġmining":7648,"Ġspinning":7649,"irty":7650,"alls":7651,"Ġincident":7652,"Ġarriving":7653,"Ġcheeses":7654,"ĠPo":7655,"Ġslice":7656,"Ġcostly":7657,"Ġnest":7658,"Ġunat":7659,"Ġappeared":7660,"Ġfoolishly":7661,"Ġperceptions":7662,"Ġunpr":7663,"Ġchosen":7664,"ĠMess":7665,"Ġrolled":7666,"Ġtune":7667,"Ġcritically":7668,"Ġsip":7669,"Ġdate":7670,"Ġstale":7671,"Ġwillingness":7672,"ĠColorful":7673,"Ġamaze":7674,"elebrat":7675,"Ġdismissed":7676,"Ġpave":7677,"Ġlived":7678,"ĠPeace":7679,"Ġpoetry":7680,"Ġsnowfl":7681,"Ġrapidly":7682,"ĠHumor":7683,"Ġdy":7684,"Ġpacked":7685,"ĠYellow":7686,"Ġprisons":7687,"Ġcling":7688,"Ġflutter":7689,"Ġillnesses":7690,"Ġrecycled":7691,"Ġwealth":7692,"Ġunhygienic":7693,"Ġsuff":7694,"Ġdisbelief":7695,"Ġmisty":7696,"ĠCelebrat":7697,"Ġconcerts":7698,"Ġstubbed":7699,"Ġsofa":7700,"Ġremedies":7701,"Ġath":7702,"Ġgreener":7703,"Ġblocks":7704,"Ġgrandmother":7705,"Ġkicked":7706,"Ġrele":7707,"Ġselfishly":7708,"Ġupon":7709,"ĠParks":7710,"Ġperformers":7711,"Ġovershadowed":7712,"Ġwrappers":7713,"Ġsession":7714,"Ġnon":7715,"Ġshowc":7716,"Ġcheering":7717,"Ġmelted":7718,"Ġhards":7719,"Ġfemales":7720,"Ġwritten":7721,"Ġworksh":7722,"Ġreson":7723,"Ġsevere":7724,"Ġunrealistic":7725,"itant":7726,"Ġcas":7727,"Ġlists":7728,"Ġcand":7729,"Ġusage":7730,"Ġperforming":7731,"ĠColors":7732,"Ġreplaced":7733,"Ġflickering":7734,"Ġsunrise":7735,"Ġmild":7736,"neath":7737,"ĠStea":7738,"Ġunderneath":7739,"Ġcontributes":7740,"ellig":7741,"ĠSnow":7742,"Ġcoco":7743,"Ġsolved":7744,"Ġhistor":7745,"Ġarches":7746,"Ġintellig":7747,"Ġaccessible":7748,"Ġcringe":7749,"asuring":7750,"ĠRubbing":7751,"Ġhairsty":7752,"ĠCheese":7753,"Ġdebates":7754,"Ġbiking":7755,"Ġarom":7756,"Ġleak":7757,"abb":7758,"Ġtrustworthy":7759,"Ġmanagers":7760,"Ġstiffness":7761,"Ġstretched":7762,"Ġattracts":7763,"Ġterms":7764,"Ġdirect":7765,"Ġkit":7766,"ilots":7767,"Ġswitch":7768,"Ġcompleted":7769,"Ġoptim":7770,"Ġstaring":7771,"ĠFru":7772,"ĠImprove":7773,"Ġadapts":7774,"Ġdates":7775,"Ġloos":7776,"Ġsoccer":7777,"ship":7778,"umpy":7779,"uous":7780,"Ġdough":7781,"Ġvict":7782,"Ġposs":7783,"Ġwellness":7784,"Ġfairy":7785,"Ġautomatically":7786,"Ġfolded":7787,"Ġdisappeared":7788,"ĠSec":7789,"Ġfilthy":7790,"Ġfort":7791,"Ġtrail":7792,"ilty":7793,"Ġguilty":7794,"ĠEducating":7795,"Ġelectricity":7796,"ĠRecognizing":7797,"active":7798,"aze":7799,"Ġamazes":7800,"Ġrubber":7801,"Ġdurability":7802,"Ġbay":7803,"Ġintr":7804,"Ġuneven":7805,"Ġcompleting":7806,"Ġfuel":7807,"ropri":7808,"ler":7809,"Ġcheers":7810,"ĠLong":7811,"Ġpopping":7812,"Ġbelongs":7813,"Ġphotograph":7814,"Ġpavement":7815,"Ġ'":7816,"inkle":7817,"Ġclearing":7818,"Ġinvolving":7819,"Ġdearly":7820,"Ġadjusting":7821,"Ġaddressed":7822,"Ġgadgets":7823,"Ġrad":7824,"Ġprofession":7825,"Ġcloset":7826,"lled":7827,"Ġacids":7828,"Ġseriousness":7829,"Ġdresses":7830,"Ġdivis":7831,"Ġabsence":7832,"Ġinfluenced":7833,"Ġsacri":7834,"Ġproducing":7835,"Ġreset":7836,"Ġwaits":7837,"ensive":7838,"Ġproduces":7839,"Ġoccurs":7840,"Ġinnovations":7841,"Ġunderstandings":7842,"Ġblind":7843,"Ġdrifting":7844,"Ġpatiently":7845,"Ġhesitant":7846,"Ġplots":7847,"ĠInse":7848,"Ġcrew":7849,"Ġbenches":7850,"Ġabsorb":7851,"Ġdread":7852,"ari":7853,"acteria":7854,"Ġfirm":7855,"Ġirritated":7856,"Ġdisposal":7857,"Ġrabb":7858,"Ġhomework":7859,"Ġunsatisf":7860,"Ġisolating":7861,"Ġunrespon":7862,"Ġslows":7863,"Ġclarify":7864,"Ġcaptivating":7865,"ĠOutdoor":7866,"Ġcycling":7867,"Ġbacteria":7868,"Ġfro":7869,"Ġfuller":7870,"Ġvegg":7871,"ĠInsects":7872,"voking":7873,"Ġalign":7874,"Ġcollected":7875,"Ġnotebook":7876,"ĠTraveling":7877,"connected":7878,"iver":7879,"Ġled":7880,"Ġoverfl":7881,"Ġideal":7882,"Ġpoems":7883,"Ġsecretaries":7884,"Ġexplaining":7885,"Ġenthusi":7886,"provoking":7887,"Ġverses":7888,"Ġtomato":7889,"Ġsnowflakes":7890,"ators":7891,"ĠAlex":7892,"ĠCutting":7893,"Ġcatchy":7894,"Ġpillow":7895,"Ġtoss":7896,"aign":7897,"Ġchains":7898,"Ġgloomier":7899,"Ġdrying":7900,"Ġsails":7901,"ĠNews":7902,"ĠMan":7903,"Ġinterconnected":7904,"Ġheals":7905,"Ġpreventing":7906,"reak":7907,"ĠCra":7908,"Ġbarbe":7909,"Ġlamp":7910,"Ġfloods":7911,"Ġrealities":7912,"Ġthroats":7913,"Ġsnowman":7914,"ody":7915,"orre":7916,"ĠLately":7917,"Ġgloominess":7918,"Ġrested":7919,"Ġprotects":7920,"Ġspee":7921,"Ġspoken":7922,"ĠShouldn":7923,"Ġreveals":7924,"Ġworkouts":7925,"isbe":7926,"shm":7927,"Ġbursting":7928,"Ġfactories":7929,"Ġgirls":7930,"ĠGardens":7931,"Ġcampaign":7932,"Ġrestrict":7933,"Ġfees":7934,"Ġgrumpy":7935,"Ġblocked":7936,"Ġtor":7937,"Ġharvest":7938,"cue":7939,"cture":7940,"ĠNight":7941,"Ġdivide":7942,"Ġentrance":7943,"Ġweaker":7944,"Ġcave":7945,"berry":7946,"Ġefficiency":7947,"Ġperiod":7948,"Ġsoften":7949,"Ġmaj":7950,"Ġspiders":7951,"ilting":7952,"Ġexhibit":7953,"Ġinit":7954,"ĠApp":7955,"Ġcontinuous":7956,"ĠUnfortun":7957,"Ġtalented":7958,"Ġcontainers":7959,"Ġbumps":7960,"ĠSilk":7961,"Ġdwell":7962,"Ġconstructive":7963,"ĠRelaxing":7964,"Ġdances":7965,"Ġdishon":7966,"Ġmultip":7967,"Ġadvocate":7968,"gar":7969,"Ġthor":7970,"Ġtoughest":7971,"Ġrelying":7972,"Ġoccurring":7973,"Ġsat":7974,"usive":7975,"Ġsuper":7976,"Ġaggress":7977,"Ġslither":7978,"Ġrubs":7979,"Ġtroublesome":7980,"Ġmelody":7981,"Ġreplacement":7982,"Ġembarrassing":7983,"Ġunenergetic":7984,"isbee":7985,"Ġtheirs":7986,"Ġappetizing":7987,"uming":7988,"ology":7989,"Ġaccessories":7990,"Ġreassuring":7991,"Ġom":7992,"Ġfaded":7993,"Ġcomedies":7994,"Ġthunderstorm":7995,"screen":7996,"ĠManaging":7997,"Ġnone":7998,"Ġpasted":7999,"Ġmixes":8000,"Ġbroad":8001,"Ġneckl":8002,"Ġirresponsible":8003,"Ġtorn":8004,"Ġunsp":8005,"ĠHallow":8006,"allows":8007,"ĠPlus":8008,"ĠHalloween":8009,"Ġliking":8010,"Ġgeneration":8011,"Ġlocations":8012,"Ġchir":8013,"ĠThings":8014,"Ġhonking":8015,"Ġdigest":8016,"Ġinterrupted":8017,"ixt":8018,"Ġnour":8019,"Ġsaved":8020,"ĠThen":8021,"Ġmarshm":8022,"Ġhesitate":8023,"Ġsacrif":8024,"ifying":8025,"ĠRiding":8026,"ashed":8027,"Ġartworks":8028,"Ġselections":8029,"Ġveggies":8030,"arily":8031,"oof":8032,"ĠTurning":8033,"Ġsmo":8034,"Ġarises":8035,"ĠRea":8036,"Ġmusicians":8037,"Ġstream":8038,"Ġcollections":8039,"Ġwallet":8040,"Ġtoothache":8041,"ĠAutumn":8042,"Ġsorting":8043,"ource":8044,"Ġlightly":8045,"Ġflu":8046,"Ġresource":8047,"Ġbland":8048,"Ġbatter":8049,"Ġunresponsive":8050,"Ġthorough":8051,"Ġwilt":8052,"Ġnoted":8053,"Ġfrisbee":8054,"Ġwraps":8055,"Ġroam":8056,"ĠGiving":8057,"Ġequality":8058,"Ġroller":8059,"Ġbuyers":8060,"Ġpreserve":8061,"Ġdisrupted":8062,"Ġdampen":8063,"Ġprofessionals":8064,"iences":8065,"tering":8066,"Ġspell":8067,"Ġfactory":8068,"Ġscrap":8069,"Ġgrazing":8070,"Ġstepped":8071,"Ġinstinct":8072,"Ġdevice":8073,"ĠUnfortunately":8074,"Ġrespects":8075,"Ġaccomplish":8076,"Ġconvenient":8077,"ispers":8078,"Ġcocoa":8079,"aster":8080,"Ġescaping":8081,"Ġproced":8082,"looking":8083,"Ġadaptable":8084,"Ġtensions":8085,"Ġperception":8086,"ĠPoor":8087,"Ġund":8088,"Ġsunscreen":8089,"Ġharb":8090,"Ġgalleries":8091,"Ġduty":8092,"Ġhundred":8093,"int":8094,"ashy":8095,"Ġwebs":8096,"Ġdouble":8097,"Ġrounding":8098,"bul":8099,"che":8100,"Ġproactive":8101,"Ġrelive":8102,"Ġunreason":8103,"ĠClouds":8104,"ĠAcc":8105,"ĠCal":8106,"Ġendure":8107,"Ġgathers":8108,"Ġviolently":8109,"Ġdullness":8110,"Ġkissing":8111,"Ġpromotes":8112,"Ġdivisions":8113,"Ġwilting":8114,"Ġpilots":8115,"ĠDig":8116,"Ġadvanced":8117,"Ġcools":8118,"Ġacknowledged":8119,"Ġlink":8120,"Ġprevious":8121,"ĠReaching":8122,"stand":8123,"Ġtit":8124,"Ġtidying":8125,"ĠGold":8126,"Ġmarshmallows":8127,"ars":8128,"Ġdebr":8129,"Ġmorale":8130,"Ġwetness":8131,"Ġathlet":8132,"Ġnecklace":8133,"Ġdebris":8134,"ined":8135,"used":8136,"Ġmeasuring":8137,"illa":8138,"Ġdebts":8139,"Ġfrustrate":8140,"ĠFalling":8141,"ĠBab":8142,"Ġelsewhere":8143,"Ġerase":8144,"ffering":8145,"Ġcritic":8146,"Ġfierce":8147,"Ġdying":8148,"Ġunless":8149,"Ġsum":8150,"Ġspider":8151,"Ġvaries":8152,"Ġkettles":8153,"Ġweakness":8154,"Ġcouple":8155,"Ġmodels":8156,"filled":8157,"Ġraw":8158,"Ġpersistent":8159,"ĠInviting":8160,"Ġattractive":8161,"ĠFrustrat":8162,"Ġhistorical":8163,"Ġpossessions":8164,"Ġstack":8165,"lling":8166,"ĠBr":8167,"Ġprocessed":8168,"Ġpurs":8169,"Ġcountless":8170,"Ġsustainability":8171,"Ġoptimistic":8172,"Ġwhispers":8173,"ĠAct":8174,"Ġcreation":8175,"Ġdifficulty":8176,"Ġuniqueness":8177,"Ġpinned":8178,"Ġappointments":8179,"Ġvacation":8180,"Ġglide":8181,"ĠOffering":8182,"Ġarticles":8183,"Ġunaccept":8184,"asm":8185,"Ġsounding":8186,"duced":8187,"Ġlinings":8188,"Ġsignificance":8189,"Ġexhaust":8190,"Ġphotography":8191,"ĠCelebrating":8192,"Ġathletes":8193,"Ġcud":8194,"Ġnotices":8195,"ĠDel":8196,"ĠCr":8197,"Ġdecay":8198,"ĠBea":8199,"Ġrepet":8200,"Ġpretending":8201,"manship":8202,"Ġwinding":8203,"ested":8204,"Ġriverb":8205,"ĠButter":8206,"Ġcopies":8207,"Ġshadowy":8208,"Ġscientific":8209,"Ġeth":8210,"Ġsle":8211,"ingly":8212,"onting":8213,"Ġjustice":8214,"Ġcoldest":8215,"Ġcurrently":8216,"Ġtruthful":8217,"Ġdisturbances":8218,"Ġunprotect":8219,"Ġfus":8220,"Ġbill":8221,"Ġunbe":8222,"Ġdamper":8223,"Ġbarking":8224,"ĠImprovement":8225,"edd":8226,"Ġampl":8227,"Ġcastles":8228,"Ġunspoken":8229,"Ġdiscour":8230,"Ġswift":8231,"Ġmeets":8232,"Ġpartners":8233,"Ġelephants":8234,"ĠQuick":8235,"Ġunbear":8236,"Ġpea":8237,"Ġpartner":8238,"Ġwooden":8239,"Ġpairs":8240,"Ġriverbank":8241,"Ġunprotected":8242,"Ġsorts":8243,"Ġnons":8244,"Ġincorre":8245,"tractive":8246,"ĠUne":8247,"Ġcombining":8248,"cal":8249,"ctic":8250,"Ġmisplace":8251,"ĠRec":8252,"Ġadvertising":8253,"Ġcrossing":8254,"Ġpuddle":8255,"Ġdramatically":8256,"ĠDreams":8257,"ĠFrustration":8258,"Ġunbearable":8259,"oved":8260,"Ġhaunting":8261,"Ġdece":8262,"Ġunfriendly":8263,"Ġpastries":8264,"Ġwintertime":8265,"Ġpunish":8266,"Ġparticipants":8267,"Ġspeech":8268,"Ġoutd":8269,"ervation":8270,"Ġeats":8271,"ĠDarkness":8272,"ob":8273,"Ġadop":8274,"Ġsharper":8275,"Ġbattles":8276,"Ġinvestigate":8277,"Ġvanilla":8278,"Ġfeathers":8279,"Ġnonsense":8280,"Ġoutdated":8281,"mates":8282,"tes":8283,"ooming":8284,"istently":8285,"Ġforgets":8286,"Ġreturned":8287,"Ġaccountable":8288,"Ġsandcastle":8289,"Ġcolleagues":8290,"lets":8291,"Ġpure":8292,"ĠYoun":8293,"ĠHist":8294,"Ġunpleasantness":8295,"Ġencouraged":8296,"Ġsensation":8297,"owering":8298,"oting":8299,"Ġwithstand":8300,"Ġfearing":8301,"Ġangering":8302,"nerving":8303,"Ġindependent":8304,"Ġdynam":8305,"Ġstalls":8306,"ĠWorms":8307,"Ġbrightest":8308,"ĠLove":8309,"Ġpeacefulness":8310,"Ġsimplify":8311,"Ġparent":8312,"Ġflashlights":8313,"Ġvehicle":8314,"Ġdocumentary":8315,"Ġtidiness":8316,"ĠCrafting":8317,"Ġbegan":8318,"ĠSpace":8319,"Ġtimer":8320,"ĠAccepting":8321,"ĠAccidents":8322,"ata":8323,"Ġcheek":8324,"Ġpaints":8325,"Ġincredibly":8326,"ĠConvers":8327,"Ġunattractive":8328,"Ġcandies":8329,"ĠHistory":8330,"list":8331,"ender":8332,"ĠMed":8333,"ĠFashion":8334,"andon":8335,"Ġreput":8336,"Ġboredom":8337,"Ġyoga":8338,"omile":8339,"amomile":8340,"Ġgathered":8341,"Ġmarketing":8342,"ĠSimp":8343,"ĠAlright":8344,"Ġevolves":8345,"ĠYoung":8346,"Ġinvesting":8347,"Ġgate":8348,"Ġcleans":8349,"Ġbehaves":8350,"Ġconsistently":8351,"Ġcombine":8352,"Ġcommitments":8353,"Ġmotions":8354,"Ġpackage":8355,"Ġmoderation":8356,"Ġfuss":8357,"ym":8358,"Ġabandon":8359,"Ġeases":8360,"Ġblown":8361,"Ġpredictable":8362,"Ġbubble":8363,"Ġdeliveries":8364,"Ġempowered":8365,"ĠSurprises":8366,"ugs":8367,"Ġclub":8368,"Ġdriver":8369,"Ġmistreat":8370,"Ġdamages":8371,"Ġloads":8372,"Ġurgency":8373,"Ġtank":8374,"Ġponder":8375,"ĠSaving":8376,"Ġcolour":8377,"Ġcasual":8378,"ĠUnex":8379,"ipped":8380,"Ġitch":8381,"ration":8382,"Ġscores":8383,"Ġcrave":8384,"Ġsweaty":8385,"Ġunnerving":8386,"Ġasleep":8387,"ĠNext":8388,"Ġfreezing":8389,"Ġpassionate":8390,"ĠGrowing":8391,"ĠUnexpected":8392,"Ġplayer":8393,"Ġfreshly":8394,"Ġvarieties":8395,"Ġcelebrated":8396,"Ġstitched":8397,"Ġsplashing":8398,"Ġmultiply":8399,"Ġchirping":8400,"reh":8401,"Ġhelpers":8402,"Ġwors":8403,"Ġstrain":8404,"Ġglasses":8405,"opping":8406,"Ġstrongest":8407,"Ġbuilders":8408,"opeful":8409,"ĠGratitude":8410,"Ġspeaks":8411,"chers":8412,"ĠScary":8413,"Ġsuffers":8414,"ĠSimplicity":8415,"Ġcomparing":8416,"Ġcolored":8417,"Ġrealizes":8418,"Ġloudness":8419,"Ġbeloved":8420,"Ġengineers":8421,"Ġtrading":8422,"Ġshelters":8423,"Ġhunt":8424,"ĠImagination":8425,"Ġscraps":8426,"ĠBabies":8427,"Ġformed":8428,"Ġhectic":8429,"Ġpra":8430,"ĠAll":8431,"Ġsundown":8432,"Ġsneaky":8433,"Ġripples":8434,"Ġshed":8435,"Ġchips":8436,"Ġhandmade":8437,"ĠCreativity":8438,"ĠCloud":8439,"imately":8440,"Ġunits":8441,"Ġfunding":8442,"Ġexplains":8443,"Ġsnap":8444,"Ġsatisfy":8445,"Ġnavig":8446,"Ġfeeding":8447,"consuming":8448,"Ġenthusiasm":8449,"fires":8450,"Ġmines":8451,"atient":8452,"Ġstickers":8453,"Ġprovoke":8454,"Ġbaskets":8455,"Ġstranger":8456,"Ġisolation":8457,"iching":8458,"icate":8459,"Ġoverp":8460,"Ġmushy":8461,"Ġenriching":8462,"Ġarchitecture":8463,"Ġradio":8464,"Ġinfect":8465,"ulips":8466,"Ġgrilled":8467,"rambled":8468,"Ġseating":8469,"Ġhotter":8470,"Ġtrades":8471,"ĠMessy":8472,"easy":8473,"rots":8474,"iscover":8475,"Ġnostalgia":8476,"icter":8477,"Ġreck":8478,"pleasant":8479,"Ġreplacing":8480,"Ġaroma":8481,"uc":8482,"Ġcarp":8483,"Ġtripped":8484,"Ġyogurt":8485,"Ġreputation":8486,"Ġgym":8487,"olved":8488,"ĠFishing":8489,"Ġdiscard":8490,"Ġaudiences":8491,"ĠMedical":8492,"ailed":8493,"Ġton":8494,"Ġsaves":8495,"Ġvine":8496,"ĠFarm":8497,"Ġhasn":8498,"Ġrainstorm":8499,"Ġnearly":8500,"Ġsweetly":8501,"Ġgrew":8502,"Ġalongside":8503,"Ġmarine":8504,"Ġbott":8505,"Ġhunger":8506,"ĠCopper":8507,"Ġhardships":8508,"ano":8509,"ĠBlack":8510,"Ġshaky":8511,"ĠConversations":8512,"ĠWet":8513,"Ġassistant":8514,"Ġuphill":8515,"Ġparking":8516,"Ġpuppies":8517,"Ġmixt":8518,"Ġdeepest":8519,"Ġincidents":8520,"Ġbells":8521,"Ġtechnique":8522,"Ġcramp":8523,"Ġgreeting":8524,"Ġhooks":8525,"Ġconfronting":8526,"Ġabandoned":8527,"Ġmish":8528,"ĠIgn":8529,"Ġgains":8530,"Ġsnows":8531,"ield":8532,"Ġsuggested":8533,"Ġshuts":8534,"iveness":8535,"Ġunrel":8536,"Ġsavory":8537,"Ġsessions":8538,"ulate":8539,"Ġbottom":8540,"Ġaid":8541,"ĠTry":8542,"Ġimpatient":8543,"Ġsport":8544,"Ġannoun":8545,"Ġzone":8546,"Ġwastefulness":8547,"Ġmodel":8548,"'ll":8549,"amed":8550,"Ġvisual":8551,"Ġpoem":8552,"Ġsimilarly":8553,"Ġcreak":8554,"Ġadaptations":8555,"Ġfailures":8556,"Ġsauces":8557,"Ġrainbows":8558,"Ġtomatoes":8559,"Ġsoaps":8560,"Ġalb":8561,"Ġupside":8562,"ĠShopping":8563,"Ġrecalling":8564,"ĠCloudy":8565,"ĠIgnoring":8566,"taking":8567,"Ġoutages":8568,"Ġtape":8569,"ization":8570,"finished":8571,"places":8572,"Ġcreepier":8573,"ray":8574,"ĠLack":8575,"Ġtransparen":8576,"Ġsacrifices":8577,"Ġhers":8578,"Ġclums":8579,"Ġunhopeful":8580,"Ġinsec":8581,"Ġdisturbs":8582,"Ġreported":8583,"Ġdivided":8584,"Ġamplify":8585,"ded":8586,"Ġdie":8587,"anged":8588,"Ġshouldn":8589,"Ġcoast":8590,"Ġfreshen":8591,"ĠThankfully":8592,"Ġwashes":8593,"Ġemerge":8594,"ĠCommunity":8595,"Ġrumbling":8596,"ĠAware":8597,"Ġgrimy":8598,"ĠCrying":8599,"Ġslices":8600,"Ġcheerfully":8601,"Ġviewing":8602,"Ġcomplicate":8603,"Ġstitches":8604,"Ġplumber":8605,"ĠAwareness":8606,"Ġyell":8607,"conscious":8608,"Ġairplane":8609,"Ġfive":8610,"icip":8611,"ĠCake":8612,"Ġinformative":8613,"ĠSmiles":8614,"ĠAlways":8615,"ĠEmbr":8616,"Ġtowels":8617,"Ġmasks":8618,"Ġunacceptable":8619,"Ġsinking":8620,"Ġment":8621,"Ġspare":8622,"Ġappreciates":8623,"Ġerrands":8624,"Ġmajor":8625,"ĠEmbracing":8626,"Ġcash":8627,"Ġworkplaces":8628,"Ġapply":8629,"umes":8630,"ĠLeaving":8631,"ĠPicking":8632,"Ġborrowed":8633,"Ġtoler":8634,"Ġstages":8635,"umbled":8636,"avender":8637,"Ġsellers":8638,"Ġungrateful":8639,"Ġresonate":8640,"fire":8641,"Ġplus":8642,"Ġsuits":8643,"Ġdetailed":8644,"Ġusefulness":8645,"Ġpumps":8646,"Ġinterrupting":8647,"fall":8648,"kind":8649,"Ġcarrots":8650,"Ġrope":8651,"Ġprevention":8652,"Ġenergize":8653,"Ġcoinc":8654,"Ġthoroughly":8655,"gr":8656,"ĠFiction":8657,"Ġhimself":8658,"Ġcrushes":8659,"Ġunfunny":8660,"Ġloosen":8661,"aired":8662,"Ġpays":8663,"Ġfailed":8664,"Ġvase":8665,"Ġuncon":8666,"Ġspotted":8667,"Ġcollectors":8668,"Ġknock":8669,"ĠSmooth":8670,"Ġcollabor":8671,"Ġwhisper":8672,"bulence":8673,"Ġdrown":8674,"Ġsensible":8675,"Ġwrapped":8676,"Ġpressured":8677,"Ġmaintained":8678,"ĠCalm":8679,"Ġunfinished":8680,"ĠHigh":8681,"ĠWine":8682,"Ġremem":8683,"ĠBreaking":8684,"Ġtransportation":8685,"Ġtower":8686,"ĠSteaming":8687,"ĠBeaut":8688,"Ġcoincidence":8689,"omed":8690,"ĠDoing":8691,"Ġstickiness":8692,"ĠWhich":8693,"ĠConfidence":8694,"Ġfi":8695,"Ġfet":8696,"Ġevidence":8697,"Ġrepaired":8698,"icycles":8699,"Ġidentity":8700,"Ġrained":8701,"Ġherbal":8702,"Ġgotten":8703,"ĠCozy":8704,"Ġantics":8705,"foot":8706,"sm":8707,"Ġburied":8708,"Ġslugg":8709,"avings":8710,"Ġrediscover":8711,"ĠKicking":8712,"Ġinvolvement":8713,"Ġcontainer":8714,"ĠKnowing":8715,"Ġsoul":8716,"Ġiniti":8717,"Ġsluggish":8718,"Ġpacking":8719,"Ġexposed":8720,"Ġcleaners":8721,"avity":8722,"away":8723,"Ġcustoms":8724,"Ġflavorful":8725,"Ġprioritizing":8726,"Ġarming":8727,"ĠMis":8728,"ĠCool":8729,"Ġbreathtaking":8730,"Ġpiano":8731,"Ġpreparations":8732,"Ġtones":8733,"Ġfrost":8734,"Ġagend":8735,"Ġsunb":8736,"Ġencounters":8737,"Ġphotographs":8738,"Ġharboring":8739,"ials":8740,"uis":8741,"Ġtulips":8742,"ĠHard":8743,"Ġkno":8744,"Ġexcess":8745,"Ġactively":8746,"Ġcharges":8747,"Ġinfluencing":8748,"Ġrepetitive":8749,"eap":8750,"Ġactors":8751,"Ġangle":8752,"Ġblending":8753,"Ġsettles":8754,"Ġinclusive":8755,"Ġfulfill":8756,"Ġcraftsmanship":8757,"Ġmuseums":8758,"Ġcolleague":8759,"Ġalarms":8760,"Ġscrambled":8761,"Ġcontext":8762,"Ġsettling":8763,"ĠDisappoin":8764,"Ġsweaters":8765,"Ġinventors":8766,"Ġhall":8767,"Ġdi":8768,"thinking":8769,"ĠAv":8770,"Ġfault":8771,"Ġskating":8772,"andom":8773,"Ġmeaningfully":8774,"Ġbeginners":8775,"Ġspecifically":8776,"Ġstrawberry":8777,"Ġswiftly":8778,"upp":8779,"Ġhays":8780,"inkles":8781,"Ġrounds":8782,"Ġrandom":8783,"ured":8784,"ĠSl":8785,"Ġkissed":8786,"Ġhayst":8787,"Ġfeature":8788,"Ġqueasy":8789,"Ġsolar":8790,"ĠChalk":8791,"Ġpolicy":8792,"ĠOct":8793,"Ġhelplessness":8794,"Ġtackling":8795,"Ġhaystack":8796,"Ġpathways":8797,"Ġhoriz":8798,"Ġsteamed":8799,"Ġshallow":8800,"Ġdistrust":8801,"Ġanticip":8802,"ober":8803,"Ġtides":8804,"Ġmakers":8805,"achie":8806,"Ġnervousness":8807,"ommon":8808,"Ġdestroyed":8809,"Ġthousands":8810,"ĠBoiling":8811,"Ġpunishments":8812,"Ġcramped":8813,"ĠAvoid":8814,"cer":8815,"Ġfount":8816,"iment":8817,"ooses":8818,"Ġunachie":8819,"Ġchooses":8820,"Ġsurger":8821,"Ġstricter":8822,"Ġexplor":8823,"oper":8824,"Ġfoundation":8825,"Ġpracticed":8826,"Ġpointing":8827,"Ġcupboard":8828,"Ġdampness":8829,"ĠSadly":8830,"Ġknocked":8831,"ĠOctober":8832,"atched":8833,"Ġlovers":8834,"Ġdroop":8835,"Ġbless":8836,"ĠSunflowers":8837,"Ġsquirrel":8838,"Ġmulti":8839,"Ġherself":8840,"Ġhaz":8841,"Ġchan":8842,"Ġtraps":8843,"aintain":8844,"Ġhero":8845,"Ġoddly":8846,"Ġash":8847,"needed":8848,"Ġbusier":8849,"Ġmissions":8850,"Ġtwenty":8851,"Ġglowing":8852,"Ġinnovative":8853,"Ġlifestyles":8854,"ĠUsually":8855,"Ġremoving":8856,"ĠCareless":8857,"check":8858,"ĠDisappoint":8859,"Ġdata":8860,"Ġstew":8861,"Ġchamomile":8862,"ĠEs":8863,"Ġheroes":8864,"Ġcloseness":8865,"ĠStraw":8866,"Ġupdate":8867,"Ġdisruptive":8868,"reflection":8869,"Ġcans":8870,"Ġox":8871,"ĠTall":8872,"ĠShall":8873,"ĠProm":8874,"Ġparticipating":8875,"Ġdisplayed":8876,"Ġrenewal":8877,"Ġvinegar":8878,"oving":8879,"Ġgravity":8880,"Ġpopularity":8881,"Ġrevealing":8882,"Ġsidewalks":8883,"Ġflicker":8884,"ĠBerry":8885,"Ġprocedures":8886,"Ġremembers":8887,"Ġsib":8888,"Ġtoll":8889,"etic":8890,"Ġshiver":8891,"ĠWhere":8892,"cessarily":8893,"Ġsilently":8894,"Ġtransforms":8895,"Ġoccasionally":8896,"Ġeconomic":8897,"Ġimmediate":8898,"Ġtiresome":8899,"Ġthousand":8900,"Ġexhausted":8901,"ĠAvoiding":8902,"erved":8903,"Ġfrown":8904,"Ġflashy":8905,"Ġseparation":8906,"Ġbonding":8907,"Ġitchy":8908,"Ġmultiple":8909,"mel":8910,"Ġbicycles":8911,"Ġstations":8912,"irling":8913,"Ġrenewable":8914,"Ġgraphic":8915,"Ġscrapbook":8916,"Ġunachievable":8917,"sol":8918,"Ġweap":8919,"ĠTe":8920,"Ġoffices":8921,"ĠLike":8922,"ĠTrains":8923,"Ġarrival":8924,"Ġelegance":8925,"Ġcapable":8926,"Ġfetch":8927,"Ġunif":8928,"Ġtap":8929,"ĠCook":8930,"Ġunwashed":8931,"Ġhandles":8932,"Ġregions":8933,"Ġsociet":8934,"Ġprevents":8935,"Ġstudied":8936,"ĠWorries":8937,"Ġstirring":8938,"ĠHonest":8939,"Ġshowcase":8940,"Ġward":8941,"Ġlugg":8942,"Ġdonate":8943,"Ġslide":8944,"Ġpollute":8945,"Ġcaptured":8946,"Ġuntrusting":8947,"Ġdispose":8948,"Ġluggage":8949,"iable":8950,"kin":8951,"land":8952,"inning":8953,"uses":8954,"ĠTou":8955,"ĠCover":8956,"Ġimpactful":8957,"Ġuninv":8958,"ĠProtect":8959,"Ġdedic":8960,"Ġsettled":8961,"Ġworkshops":8962,"Ġbarbecue":8963,"Ġclumsy":8964,"ĠCookies":8965,"Ġforced":8966,"Ġeverybody":8967,"Ġcombs":8968,"Ġconqu":8969,"ĠSto":8970,"Ġtripping":8971,"Ġrevis":8972,"Ġselfishness":8973,"ĠTechn":8974,"ĠCovering":8975,"Ġscales":8976,"Ġpackages":8977,"working":8978,"Ġbleak":8979,"ĠProtecting":8980,"Ġnewer":8981,"eavy":8982,"Ġresidents":8983,"Ġvisuals":8984,"brush":8985,"Ġpaperwork":8986,"Ġcrackers":8987,"Ġprinter":8988,"Ġjudges":8989,"Ġuntrou":8990,"Ġtunnel":8991,"ĠOnce":8992,"ĠPromoting":8993,"Ġmut":8994,"Ġappropri":8995,"Ġmessing":8996,"Ġprocessing":8997,"Ġstudent":8998,"Ġprinting":8999,"Ġunresponsible":9000,"Ġundone":9001,"Ġrevisit":9002,"cooked":9003,"gazing":9004,"lt":9005,"mar":9006,"Ġcried":9007,"Ġlavender":9008,"Ġspa":9009,"agger":9010,"Ġgreenery":9011,"ĠUlt":9012,"Ġglobal":9013,"Ġgrocery":9014,"Ġreassurance":9015,"ĠDelays":9016,"Ġmentally":9017,"ĠUltimately":9018,"forting":9019,"esky":9020,"Ġpesky":9021,"Ġshr":9022,"Ġgraze":9023,"Ġmessier":9024,"Ġcravings":9025,"Ġattracting":9026,"Ġownership":9027,"Ġwardro":9028,"Ġuninvited":9029,"con":9030,"Ġtarn":9031,"order":9032,"Ġreject":9033,"Ġexagger":9034,"iggle":9035,"Ġcurrents":9036,"Ġcontinuing":9037,"Ġpoisonous":9038,"Ġloyalty":9039,"Ġaggressive":9040,"Ġdedicated":9041,"gen":9042,"ĠSal":9043,"Ġgum":9044,"Ġpowders":9045,"Ġdeveloping":9046,"Ġadmit":9047,"Ġmask":9048,"Ġcoworker":9049,"Ġsuitable":9050,"ĠTouching":9051,"usion":9052,"Ġcin":9053,"Ġunjust":9054,"Ġblues":9055,"Ġbeforehand":9056,"ielding":9057,"ĠHosp":9058,"Ġsandy":9059,"Ġentering":9060,"Ġhabitat":9061,"Ġbouncing":9062,"Ġhorizon":9063,"Ġfountain":9064,"Ġuntroubled":9065,"inate":9066,"Ġchilling":9067,"Ġnegatives":9068,"Ġbasement":9069,"Ġdistracts":9070,"Ġunnecessarily":9071,"Ġdefine":9072,"Ġmiles":9073,"Ġevenly":9074,"Ġmism":9075,"Ġeffortlessly":9076,"ĠCheap":9077,"Ġearthqu":9078,"ĠNighttime":9079,"ĠRolling":9080,"Ġwrapping":9081,"Ġinvites":9082,"Ġpersons":9083,"Ġraised":9084,"ordinary":9085,"Ġscenari":9086,"Ġcombined":9087,"Ġvictories":9088,"Ġscenarios":9089,"cul":9090,"zen":9091,"zed":9092,"itation":9093,"Ġcompete":9094,"Ġgenre":9095,"Ġvanished":9096,"Ġumbrellas":9097,"Ġcarpet":9098,"Ġchannel":9099,"Ġgas":9100,"icul":9101,"Ġshot":9102,"Ġexpects":9103,"Ġbehaving":9104,"ĠGames":9105,"Ġcafes":9106,"Ġsquee":9107,"Ġstubbing":9108,"Ġblossoms":9109,"Ġdiscouraged":9110,"ban":9111,"normal":9112,"Ġol":9113,"chool":9114,"Ġchests":9115,"Ġjoyous":9116,"ĠRice":9117,"Ġblur":9118,"Ġgreet":9119,"Ġengagement":9120,"Ġcourtes":9121,"Ġknitting":9122,"Ġcommitted":9123,"ĠSimpl":9124,"Ġuninterested":9125,"Ġbarrier":9126,"Ġexhibition":9127,"Ġcamping":9128,"ĠTechnology":9129,"yielding":9130,"inely":9131,"Ġunyielding":9132,"Ġcompreh":9133,"Ġtraveled":9134,"Ġorganizers":9135,"Ġmotivates":9136,"Ġauthorities":9137,"Ġexcuse":9138,"ĠHospitals":9139,"Ġretr":9140,"eah":9141,"oles":9142,"Ġawe":9143,"aming":9144,"ĠPast":9145,"Ġdepressing":9146,"Ġlifel":9147,"Ġconsuming":9148,"Ġaccurately":9149,"min":9150,"ygen":9151,"Ġtour":9152,"Ġswirling":9153,"hold":9154,"Ġdiscounts":9155,"Ġexisted":9156,"Ġgender":9157,"Ġgenuinely":9158,"Ġurban":9159,"Ġclassrooms":9160,"Ġconquer":9161,"fers":9162,"entists":9163,"Ġfrosting":9164,"Ġsup":9165,"Ġoutlets":9166,"Ġkisses":9167,"Ġgust":9168,"ĠYeah":9169,"uling":9170,"ĠSchool":9171,"Ġarts":9172,"Ġmisused":9173,"Ġletdown":9174,"Ġpersistence":9175,"Ġanxieties":9176,"Ġblueberries":9177,"Ġpressed":9178,"Ġinspect":9179,"Ġknocking":9180,"Ġevolving":9181,"Ġants":9182,"ooting":9183,"vey":9184,"ĠTake":9185,"Ġcreators":9186,"Ġbelieved":9187,"llowing":9188,"Ġparticles":9189,"ĠBirth":9190,"Ġblossom":9191,"Ġcourtesy":9192,"Ġmer":9193,"Ġboy":9194,"Ġdive":9195,"Ġmisses":9196,"Ġunfree":9197,"Ġspoiling":9198,"Ġneglecting":9199,"Ġalternative":9200,"Ġceremon":9201,"Ġhairstyle":9202,"Ġoxygen":9203,"Ġquilt":9204,"Ġbalm":9205,"Ġreached":9206,"Ġhairc":9207,"Ġallowed":9208,"ĠGrowth":9209,"ĠKnowledge":9210,"ĠStrawberries":9211,"ris":9212,"Ġrow":9213,"ivities":9214,"ĠFish":9215,"istency":9216,"Ġprefers":9217,"Ġgardeners":9218,"Ġpolitic":9219,"Ġrepairing":9220,"Ġfantasy":9221,"Ġunresolved":9222,"Ġreusable":9223,"ĠDigging":9224,"Ġnavigating":9225,"Ġpan":9226,"osure":9227,"ĠWind":9228,"Ġlean":9229,"Ġgrooming":9230,"Ġsends":9231,"ĠPaying":9232,"Ġcontrolling":9233,"ĠOther":9234,"Ġbasins":9235,"Ġsuggests":9236,"Ġcooling":9237,"Ġovercooked":9238,"Ġoperate":9239,"Ġflashes":9240,"Ġadmiring":9241,"Ġovershadows":9242,"ĠPolit":9243,"Ġrobots":9244,"Ġoverflowing":9245,"ĠRep":9246,"Ġpains":9247,"Ġdetect":9248,"Ġdirtier":9249,"Ġdinners":9250,"Ġengineering":9251,"ĠSilver":9252,"ĠAdventure":9253,"ĠAdventures":9254,"uying":9255,"ĠYuck":9256,"angeable":9257,"Ġdiffering":9258,"Ġaccord":9259,"Ġphases":9260,"Ġrebuilding":9261,"Ġalbum":9262,"lings":9263,"wide":9264,"kept":9265,"ĠHeavy":9266,"ĠMud":9267,"Ġhealthily":9268,"Ġboating":9269,"Ġdried":9270,"Ġregulations":9271,"Ġdraws":9272,"Ġlittered":9273,"Ġcompetitive":9274,"Ġaccountability":9275,"kins":9276,"Ġtide":9277,"Ġalley":9278,"Ġgrades":9279,"Ġdesert":9280,"Ġunderground":9281,"Ġsparking":9282,"Ġsells":9283,"ĠClim":9284,"Ġcastle":9285,"Ġadopt":9286,"Ġtransparency":9287,"ux":9288,"gging":9289,"ĠBuying":9290,"Ġperfection":9291,"Ġfreeze":9292,"Ġtallest":9293,"Ġaches":9294,"Ġbelonged":9295,"Ġbarely":9296,"Ġdrags":9297,"Ġbanks":9298,"ĠCompan":9299,"Ġcomprehend":9300,"fr":9301,"gling":9302,"okes":9303,"Ġthirty":9304,"Ġleader":9305,"Ġworldwide":9306,"Ġbuckets":9307,"Ġaccum":9308,"ĠKids":9309,"Ġgoodbyes":9310,"Ġportions":9311,"ĠClimbing":9312,"Ġwakes":9313,"Ġnause":9314,"Ġdisorder":9315,"Ġprote":9316,"Ġdespair":9317,"Ġrisking":9318,"Ġordering":9319,"ĠScientists":9320,"Ġdetermined":9321,"Ġcereal":9322,"Ġmixture":9323,"melon":9324,"Ġmismatched":9325,"Ġjumbled":9326,"Ġoutwe":9327,"ĠMil":9328,"Ġflaws":9329,"Ġattent":9330,"Ġpersonally":9331,"Ġdisruptions":9332,"Ġunchangeable":9333,"ĠMeetings":9334,"Ġfrozen":9335,"iculous":9336,"Ġoutweigh":9337,"Ġafar":9338,"Ġcoaster":9339,"Ġgreens":9340,"Ġridiculous":9341,"Ġmislead":9342,"ĠBeautiful":9343,"inen":9344,"Ġsite":9345,"Ġstare":9346,"Ġplat":9347,"Ġagreed":9348,"Ġcliff":9349,"Ġmiser":9350,"Ġrealistic":9351,"ĠLinen":9352,"Ġtriv":9353,"Ġavoids":9354,"Ġunderwater":9355,"ĠWhite":9356,"Ġrichness":9357,"Ġplumbing":9358,"Ġweapons":9359,"des":9360,"Ġsub":9361,"Ġspice":9362,"Ġpricing":9363,"ĠObs":9364,"Ġgrease":9365,"Ġserene":9366,"Ġvolume":9367,"Ġwardrobe":9368,"based":9369,"inous":9370,"Ġmeats":9371,"Ġench":9372,"ĠDirty":9373,"Ġuncommon":9374,"Ġclimates":9375,"Ġpraise":9376,"icating":9377,"Ġexposure":9378,"urious":9379,"Ġunbelie":9380,"Ġintelligence":9381,"ĠSecrets":9382,"Ġslithering":9383,"Ġ\"":9384,"Ġbul":9385,"Ġstoring":9386,"Ġoverthink":9387,"Ġuntou":9388,"Ġstargazing":9389,"Ġwears":9390,"box":9391,"Ġspeeds":9392,"Ġdwelling":9393,"Ġpoliticians":9394,"Ġunbelievable":9395,"Ġtel":9396,"Ġlux":9397,"Ġsoaring":9398,"Ġimm":9399,"Ġastr":9400,"Ġexpectation":9401,"ĠShort":9402,"Ġprovided":9403,"hysical":9404,"Ġlanding":9405,"Ġchurches":9406,"Ġunrest":9407,"Ġturbulence":9408,"Ġominous":9409,"itter":9410,"Ġspine":9411,"ths":9412,"ĠExp":9413,"ĠOkay":9414,"abs":9415,"ev":9416,"Ġconservation":9417,"Ġfireplace":9418,"Ġdisturbance":9419,"Ġtotal":9420,"ĠCommunicating":9421,"Ġrotting":9422,"Ġdebate":9423,"ĠCooler":9424,"Ġtiss":9425,"Ġstink":9426,"Ġfunds":9427,"Ġovernight":9428,"opening":9429,"Ġresponds":9430,"Ġdryness":9431,"Ġpicks":9432,"Ġhunting":9433,"Ġcontentment":9434,"Ġexpanding":9435,"Ġreused":9436,"face":9437,"Ġted":9438,"Ġbarn":9439,"ĠPhysical":9440,"Ġdries":9441,"Ġdullest":9442,"Ġhugs":9443,"Ġenchanting":9444,"gized":9445,"ocus":9446,"uf":9447,"onaut":9448,"ĠTax":9449,"Ġseal":9450,"Ġchap":9451,"Ġconvey":9452,"Ġasso":9453,"ĠSheep":9454,"Ġwinters":9455,"Ġsetup":9456,"Ġensures":9457,"Ġexhibits":9458,"Ġmaster":9459,"Ġtrucks":9460,"cloth":9461,"Ġunreliable":9462,"ĠCompanies":9463,"Ġassoci":9464,"pret":9465,"Ġfate":9466,"Ġtox":9467,"Ġstring":9468,"aches":9469,"Ġpreference":9470,"Ġheadache":9471,"Ġfolds":9472,"Ġclocks":9473,"ĠUnderstandably":9474,"Ġbasketball":9475,"healthy":9476,"Ġpolluting":9477,"Ġrabbit":9478,"ĠThick":9479,"Ġadult":9480,"Ġplaygrounds":9481,"ĠGr":9482,"Ġscratchy":9483,"Ġintelligent":9484,"ett":9485,"Ġtracking":9486,"Ġbasis":9487,"ificial":9488,"ĠDiscuss":9489,"ĠPasta":9490,"Ġuntouched":9491,"cor":9492,"ps":9493,"elet":9494,"Ġbi":9495,"Ġworker":9496,"Ġseconds":9497,"Ġartificial":9498,"Ġignor":9499,"ĠChr":9500,"Ġsyn":9501,"Ġextraordinary":9502,"Ġdevelops":9503,"Ġtransforming":9504,"Ġunlo":9505,"Ġdefensive":9506,"ĠApples":9507,"Ġdishonesty":9508,"ĠCarelessness":9509,"ĠDisappointment":9510,"Ġcomment":9511,"Ġproduced":9512,"achable":9513,"Ġclin":9514,"Ġclues":9515,"Ġrelates":9516,"Ġdonating":9517,"ĠPre":9518,"Ġeffectiveness":9519,"Ġimpacting":9520,"Ġassume":9521,"Ġconcentration":9522,"Ġpours":9523,"ĠCoal":9524,"Ġcampaigns":9525,"Ġplatform":9526,"inations":9527,"Ġfried":9528,"Ġmill":9529,"reading":9530,"Ġcontrolled":9531,"Ġunusually":9532,"Ġmint":9533,"Ġunwelcome":9534,"Ġkicks":9535,"Ġremaining":9536,"Ġgarlic":9537,"Ġprioritized":9538,"Ġintention":9539,"Ġenhancing":9540,"Ġsprays":9541,"ĠBerries":9542,"ĠPeaceful":9543,"ĠFruit":9544,"solving":9545,"ĠObserving":9546,"ĠChrist":9547,"paced":9548,"ucing":9549,"Ġfences":9550,"Ġforth":9551,"Ġunexpl":9552,"covery":9553,"ĠShowing":9554,"Ġreply":9555,"Ġparked":9556,"Ġwildfires":9557,"ĠSunday":9558,"Ġfluttering":9559,"Ġfortun":9560,"Ġreckless":9561,"itivity":9562,"Ġhost":9563,"Ġshield":9564,"ĠExerc":9565,"Ġhears":9566,"Ġboards":9567,"Ġshortly":9568,"Ġhousehold":9569,"Ġtablecloth":9570,"Ġgrief":9571,"Ġneatness":9572,"Ġintake":9573,"ĠCreative":9574,"Ġpackaging":9575,"Ġdismissive":9576,"ĠPractice":9577,"Ġinvestments":9578,"Ġidentify":9579,"Ġmiserable":9580,"Ġbaff":9581,"Ġjar":9582,"Ġlog":9583,"erson":9584,"Ġrelies":9585,"Ġupsets":9586,"Ġprompt":9587,"ĠLittering":9588,"clock":9589,"Ġcontinuously":9590,"minute":9591,"Ġbeans":9592,"getting":9593,"Ġprof":9594,"Ġoverthinking":9595,"erier":9596,"Ġapps":9597,"Ġrainwater":9598,"Ġsensing":9599,"Ġformal":9600,"Ġcomplaint":9601,"ĠForgetting":9602,"Ġrenewed":9603,"etti":9604,"eem":9605,"ĠMar":9606,"ĠMach":9607,"esteem":9608,"Ġdrastic":9609,"ĠLifting":9610,"Ġswallow":9611,"Ġmatched":9612,"ĠFears":9613,"Ġresponding":9614,"mas":9615,"keep":9616,"Ġescal":9617,"Ġclay":9618,"ĠCompl":9619,"Ġshoel":9620,"Ġpleased":9621,"Ġjoins":9622,"Ġphase":9623,"Ġintended":9624,"Ġpredictions":9625,"Ġdisrespected":9626,"phones":9627,"Ġelectron":9628,"Ġrabbits":9629,"ĠPolitical":9630,"ĠMachines":9631,"educ":9632,"ĠAny":9633,"Ġsolves":9634,"ĠTraining":9635,"Ġsyrup":9636,"Ġassign":9637,"Ġsprout":9638,"Ġpaired":9639,"Ġintro":9640,"Ġattentive":9641,"ripe":9642,"Ġpatches":9643,"ĠSticking":9644,"ĠNatural":9645,"Ġthinner":9646,"Ġreporting":9647,"Ġfatig":9648,"Ġunreasonably":9649,"onauts":9650,"ah":9651,"Ġsting":9652,"ĠWasting":9653,"Ġsailed":9654,"Ġdesc":9655,"Ġimpulsive":9656,"Ġurge":9657,"Ġpeek":9658,"Ġechoing":9659,"Ġsiblings":9660,"educated":9661,"Ġmang":9662,"Ġpor":9663,"Ġforgetful":9664,"Ġpreferred":9665,"Ġparade":9666,"Ġdisconnect":9667,"Ġethical":9668,"Ġignorance":9669,"Ġpies":9670,"understand":9671,"Ġdock":9672,"Ġuncom":9673,"Ġcontains":9674,"Ġcruelly":9675,"Ġpotat":9676,"Ġexplained":9677,"Ġsuspenseful":9678,"Ġthunderstorms":9679,"Ġgrapes":9680,"Ġuniforms":9681,"ĠSalt":9682,"Ġolive":9683,"ĠChristmas":9684,"Ġcareers":9685,"Ġcheerier":9686,"Ġcrust":9687,"Ġcoolness":9688,"Ġfairs":9689,"Ġcompeting":9690,"Ġinteractive":9691,"Ġencountering":9692,"Ġlayout":9693,"ĠClosing":9694,"Ġparticipation":9695,"Ġmoisturi":9696,"eddar":9697,"ghetti":9698,"areful":9699,"Ġsmud":9700,"Ġkindnesses":9701,"ĠObjects":9702,"ĠGaining":9703,"Ġlandf":9704,"Ġtreasured":9705,"Ġrevive":9706,"Ġtimeless":9707,"Ġslept":9708,"Ġhazards":9709,"ĠMilk":9710,"bally":9711,"ipe":9712,"Ġcuis":9713,"unching":9714,"Ġbever":9715,"ĠHiking":9716,"Ġtrendy":9717,"Ġunawake":9718,"ĠOrange":9719,"Ġpepper":9720,"Ġmutual":9721,"Ġdescrib":9722,"Ġicing":9723,"Ġbends":9724,"Ġlivel":9725,"Ġreun":9726,"Ġrails":9727,"Ġangles":9728,"Ġnorms":9729,"ĠRepe":9730,"Ġoffic":9731,"Ġwatermelon":9732,"Ġunpleased":9733,"Ġclouded":9734,"Ġsharpness":9735,"Ġscariest":9736,"Ġreliability":9737,"Ġdocumentaries":9738,"Ġnauseous":9739,"eling":9740,"Ġuneducated":9741,"ĠMor":9742,"Ġliter":9743,"Ġcoex":9744,"Ġplayfully":9745,"ggling":9746,"Ġbooksh":9747,"Ġshady":9748,"Ġminim":9749,"Ġthrills":9750,"Ġintens":9751,"Ġremoved":9752,"Ġdivides":9753,"ĠFruits":9754,"Ġcage":9755,"Ġyards":9756,"Ġtrace":9757,"Ġcondu":9758,"Ġwrites":9759,"Ġexplo":9760,"Ġswirl":9761,"ĠChalleng":9762,"Ġdestinations":9763,"Ġcourageous":9764,"Ġinteraction":9765,"Ġhaunt":9766,"felt":9767,"Ġseash":9768,"Ġbitten":9769,"ĠThought":9770,"Ġexpressed":9771,"ĠSteel":9772,"Ġrefund":9773,"ĠNe":9774,"Ġcommunicated":9775,"Ġseasoning":9776,"Ġseasonal":9777,"uality":9778,"olog":9779,"Ġdeveloped":9780,"Ġpredators":9781,"Ġsymbolizes":9782,"Ġcries":9783,"Ġseven":9784,"Ġwonderland":9785,"Ġflashing":9786,"Ġcrimes":9787,"Ġlotion":9788,"Ġimagery":9789,"Ġpowers":9790,"Ġweighty":9791,"Ġglobally":9792,"ĠOranges":9793,"Ġshaken":9794,"Ġhairstyles":9795,"Ġunsatisfied":9796,"Ġtitles":9797,"Ġsummers":9798,"Ġdynamics":9799,"Ġfulfillment":9800,"Ġreuse":9801,"Ġshell":9802,"ĠSand":9803,"ams":9804,"aped":9805,"ĠCons":9806,"Ġgardener":9807,"Ġshortages":9808,"Ġdependable":9809,"Ġnarrat":9810,"Ġprett":9811,"ĠSpreading":9812,"ĠWarmer":9813,"ĠArtists":9814,"Ġvolunteering":9815,"Ġincorrectly":9816,"Ġhaircut":9817,"fry":9818,"ator":9819,"Ġshook":9820,"lls":9821,"Ġspar":9822,"proof":9823,"Ġvend":9824,"Ġtrem":9825,"Ġpresentable":9826,"Ġschoolwork":9827,"Ġcarto":9828,"Ġcancelled":9829,"Ġbattery":9830,"eline":9831,"Ġuniting":9832,"ulation":9833,"Ġshooting":9834,"Ġasks":9835,"Ġworkday":9836,"izzy":9837,"Ġnovel":9838,"Ġunfit":9839,"Ġrods":9840,"Ġnervously":9841,"Ġbreathable":9842,"Ġundervalued":9843,"Ġgrilling":9844,"Ġfunctioning":9845,"ĠSleeping":9846,"Ġtrivial":9847,"ĠDiscussing":9848,"Ġlandfills":9849,"ĠSing":9850,"Ġguest":9851,"Ġlasted":9852,"Ġdecl":9853,"Ġprize":9854,"Ġunsightly":9855,"Ġdishonest":9856,"ĠActivities":9857,"house":9858,"oiled":9859,"Ġwipe":9860,"Ġaston":9861,"Ġcoats":9862,"Ġheartfelt":9863,"Ġpoking":9864,"Ġcreaking":9865,"Ġplayfulness":9866,"force":9867,"Ġwebsites":9868,"vin":9869,"immer":9870,"arned":9871,"Ġsweetest":9872,"Ġconsistency":9873,"Ġteachings":9874,"Ġphr":9875,"Ġrefreshes":9876,"Ġstatus":9877,"ĠWords":9878,"ĠHealth":9879,"Ġinvestment":9880,"Ġuncovered":9881,"ĠJoyful":9882,"Ġunenergized":9883,"Ġoverpowering":9884,"Ġearthquakes":9885,"Ġseashells":9886,"ey":9887,"ĠPutting":9888,"lications":9889,"Ġfireworks":9890,"Ġfreedoms":9891,"Ġelectrical":9892,"Ġfierc":9893,"Ġsocieties":9894,"ĠStocking":9895,"safe":9896,"Ġciv":9897,"iliz":9898,"str":9899,"Ġgrabs":9900,"shaped":9901,"Ġwelcomed":9902,"Ġwatchful":9903,"Ġsnug":9904,"Ġpolice":9905,"Ġreacted":9906,"Ġpresentations":9907,"ĠFollowing":9908,"Ġscarves":9909,"Ġsympt":9910,"Ġpursue":9911,"ĠButterflies":9912,"Ġexplorers":9913,"ĠSinging":9914,"Ġther":9915,"Ġstake":9916,"joyful":9917,"ĠEither":9918,"Ġroasted":9919,"Ġpolitely":9920,"aware":9921,"Ġimaginative":9922,"Ġattracted":9923,"Ġachieved":9924,"Ġanswering":9925,"Ġprepares":9926,"rooms":9927,"Ġnourish":9928,"Ġworsen":9929,"Ġannounce":9930,"ĠEscaping":9931,"Ġsymptoms":9932,"Ġunor":9933,"Ġproof":9934,"agic":9935,"Ġrepeats":9936,"Ġfosters":9937,"Ġurgently":9938,"Ġindependence":9939,"mares":9940,"Ġceremony":9941,"Ġporch":9942,"ered":9943,"Ġlend":9944,"ĠItal":9945,"changing":9946,"Ġimper":9947,"Ġeasiest":9948,"Ġnormalcy":9949,"ĠBurning":9950,"Ġsuggesting":9951,"Ġfoolishness":9952,"Ġdecorated":9953,"Ġwitnessing":9954,"ĠDistract":9955,"ĠConnection":9956,"Ġswinging":9957,"Ġtossed":9958,"Ġsmoky":9959,"Ġtitle":9960,"Ġmishaps":9961,"Ġdiam":9962,"Ġshrink":9963,"Ġmerrier":9964,"Ġunexplain":9965,"Ġfiercely":9966,"Ġunorig":9967,"Ġchalked":9968,"ĠWax":9969,"ĠColl":9970,"Ġregrets":9971,"Ġfiles":9972,"Ġmeantime":9973,"ĠImagine":9974,"Ġwilted":9975,"ĠChallenges":9976,"gment":9977,"Ġcages":9978,"Ġmaker":9979,"Ġfullest":9980,"Ġstruggled":9981,"Ġcurl":9982,"Ġknotted":9983,"Ġbottled":9984,"Ġvulnerability":9985,"Ġworkshop":9986,"Ġfrogs":9987,"ĠFarmers":9988,"Ġprotein":9989,"cere":9990,"Ġwri":9991,"Ġwob":9992,"Ġsection":9993,"Ġworris":9994,"ĠFre":9995,"Ġmates":9996,"airs":9997,"Ġrecon":9998,"Ġuniquely":9999,"Ġpicnicking":10000,"Ġsparkled":10001,"Ġspinach":10002,"Ġreusing":10003,"Ġairplanes":10004,"Ġdeceiving":10005,"Ġblessings":10006,"Ġastronauts":10007,"Ġunoriginal":10008,"Ġworrisome":10009,"Ġlad":10010,"Ġoutlet":10011,"Ġlooming":10012,"Ġdeer":10013,"ĠFamil":10014,"Ġcarried":10015,"Ġboils":10016,"Ġstressing":10017,"Ġuncleanliness":10018,"Ġsolidly":10019,"Ġthrives":10020,"Ġunmotiv":10021,"ĠUnt":10022,"Ġcombat":10023,"Ġwriter":10024,"Ġorigin":10025,"Ġechoes":10026,"Ġfibers":10027,"ĠMisunderstand":10028,"Ġimperfect":10029,"ĠFamilies":10030,"rel":10031,"satisf":10032,"Ġhint":10033,"Ġleng":10034,"Ġquir":10035,"Ġdonations":10036,"ĠPizza":10037,"Ġbrewing":10038,"Ġvisually":10039,"Ġwildly":10040,"Ġcommittees":10041,"Ġfashionable":10042,"ĠClothing":10043,"ĠClutter":10044,"Ġcriticism":10045,"Ġdiscarded":10046,"food":10047,"wear":10048,"Ġtar":10049,"Ġbang":10050,"rew":10051,"Ġyelling":10052,"Ġcheddar":10053,"ĠWork":10054,"Ġleash":10055,"Ġhearty":10056,"Ġreader":10057,"deness":10058,"Ġminer":10059,"Ġinsist":10060,"Ġuntruth":10061,"Ġremedy":10062,"Ġunreasonable":10063,"Ġcoexist":10064,"isible":10065,"asters":10066,"Ġpaus":10067,"Ġstead":10068,"Ġspades":10069,"Ġinvisible":10070,"Ġreaches":10071,"Ġcostumes":10072,"Ġjudgement":10073,"Ġsocializing":10074,"Ġtransformation":10075,"ĠBrass":10076,"ĠUntil":10077,"worms":10078,"Ġmur":10079,"Ġweary":10080,"ĠFem":10081,"Ġnightlight":10082,"Ġmanuf":10083,"ĠNeg":10084,"ique":10085,"Ġdesigning":10086,"Ġdelights":10087,"Ġknotting":10088,"Ġsecurely":10089,"Ġfunctional":10090,"Ġbubbling":10091,"Ġtowel":10092,"Ġmanufact":10093,"Ġaqu":10094,"inkling":10095,"Ġplacing":10096,"Ġexcept":10097,"ĠGreen":10098,"Ġsprinkle":10099,"Ġscrub":10100,"Ġashamed":10101,"Ġspaghetti":10102,"ĠFemale":10103,"kers":10104,"tion":10105,"anitary":10106,"Ġfan":10107,"fined":10108,"Ġdisappoints":10109,"ĠNice":10110,"Ġteas":10111,"Ġlargest":10112,"Ġalmonds":10113,"Ġrustle":10114,"ĠPossibly":10115,"ĠCarrying":10116,"Ġwhistle":10117,"ĠCollab":10118,"alax":10119,"Ġgalax":10120,"Ġunsh":10121,"Ġsew":10122,"Ġmug":10123,"Ġscur":10124,"sets":10125,"Ġboiled":10126,"avelling":10127,"Ġunderfoot":10128,"ĠGerms":10129,"Ġjogging":10130,"Ġarmies":10131,"Ġextrem":10132,"Ġbriefly":10133,"Ġreleasing":10134,"aintaining":10135,"Ġprofound":10136,"Ġlun":10137,"ĠDry":10138,"ĠDolphins":10139,"ĠMaintaining":10140,"Ġtyp":10141,"Ġunpol":10142,"Ġcreams":10143,"Ġfootwear":10144,"Ġsumm":10145,"Ġincorrect":10146,"Ġinsecure":10147,"Ġhallway":10148,"Ġtoxic":10149,"Ġdrastically":10150,"Ġreconsider":10151,"tention":10152,"Ġbakers":10153,"chie":10154,"Ġdissatisf":10155,"Ġcli":10156,"Ġcompost":10157,"appropri":10158,"Ġmidst":10159,"Ġrequired":10160,"Ġfactor":10161,"ĠSmoke":10162,"Ġstrike":10163,"Ġjudgmental":10164,"Ġawaits":10165,"Ġnapkins":10166,"Ġarrangements":10167,"Ġlid":10168,"ĠDou":10169,"cipl":10170,"Ġarising":10171,"Ġangers":10172,"ĠFin":10173,"ĠFire":10174,"Ġsket":10175,"ĠNuts":10176,"Ġcontrols":10177,"Ġfaraway":10178,"Ġmagaz":10179,"Ġmirrors":10180,"Ġposture":10181,"Ġchapter":10182,"ĠDays":10183,"oli":10184,"ĠBelie":10185,"Ġhighest":10186,"Ġcampfire":10187,"Ġrumors":10188,"Ġsurgery":10189,"ĠMisunderstandings":10190,"Ġlens":10191,"Ġpant":10192,"inkled":10193,"ĠHanging":10194,"Ġdiscipl":10195,"Ġunsanitary":10196,"Ġharshness":10197,"Ġspoilage":10198,"Ġbumpy":10199,"Ġcontrasts":10200,"Ġspray":10201,"Ġjams":10202,"Ġexcessive":10203,"ĠExercise":10204,"Ġbookshelf":10205,"vant":10206,"Ġwast":10207,"Ġpest":10208,"ĠTV":10209,"ified":10210,"ĠWedd":10211,"Ġloaf":10212,"Ġaflo":10213,"Ġairline":10214,"Ġowning":10215,"ĠShaking":10216,"Ġdependence":10217,"Ġparenting":10218,"Ġtransformations":10219,"Ġrubbed":10220,"Ġsouls":10221,"ĠWeddings":10222,"Ġafloat":10223,"Ġfats":10224,"Ġinf":10225,"irable":10226,"Ġconcept":10227,"thetic":10228,"step":10229,"Ġmarking":10230,"Ġstyling":10231,"Ġfarmer":10232,"ĠSocial":10233,"Ġcontinued":10234,"Ġchalky":10235,"ccoli":10236,"Ġachievable":10237,"Ġdisrupting":10238,"Ġunawareness":10239,"Ġsneaks":10240,"Ġweaknesses":10241,"ĠTaxes":10242,"Ġunlovely":10243,"break":10244,"Ġrein":10245,"ĠDes":10246,"Ġatten":10247,"ĠMindful":10248,"Ġfacil":10249,"azz":10250,"ĠLangu":10251,"Ġtyping":10252,"Ġheadlines":10253,"nov":10254,"Ġjuices":10255,"Ġunkept":10256,"Ġconstruct":10257,"ĠActually":10258,"Ġphrases":10259,"Ġaquari":10260,"bb":10261,"Ġsix":10262,"Ġdump":10263,"Ġpitch":10264,"ĠHer":10265,"ĠWhatever":10266,"Ġclocking":10267,"fective":10268,"Ġflock":10269,"Ġrudeness":10270,"lights":10271,"Ġmealtime":10272,"Ġswimmers":10273,"Ġimpressed":10274,"Ġmotivating":10275,"Ġfiguring":10276,"mindedness":10277,"ĠRelig":10278,"Ġrestricted":10279,"Ġdynamic":10280,"Ġfri":10281,"aten":10282,"Ġnur":10283,"Ġnood":10284,"Ġinappropri":10285,"Ġrang":10286,"Ġgoats":10287,"ĠIndoor":10288,"Ġsmoothness":10289,"Ġcompanion":10290,"Ġtemp":10291,"Ġresearchers":10292,"Ġminerals":10293,"ns":10294,"Ġver":10295,"Ġhues":10296,"Ġnoting":10297,"Ġtravelling":10298,"ags":10299,"ĠEle":10300,"Ġplaylist":10301,"Ġtrump":10302,"ĠCalling":10303,"Ġrip":10304,"Ġdrainage":10305,"Ġassump":10306,"Ġpools":10307,"Ġbumped":10308,"Ġbarks":10309,"ĠSecret":10310,"ersonal":10311,"Ġsan":10312,"Ġgem":10313,"Ġusable":10314,"Ġinterfer":10315,"erts":10316,"ĠPinning":10317,"ĠGather":10318,"Ġboosting":10319,"Ġpumped":10320,"Ġcafet":10321,"Ġspeeding":10322,"Ġsubjective":10323,"Ġvolunteers":10324,"Ġyellows":10325,"Ġfaulty":10326,"ĠBirthdays":10327,"Ġbaffling":10328,"Ġelectronics":10329,"Ġastonishing":10330,"ĠReligion":10331,"ints":10332,"iments":10333,"Ġprove":10334,"ĠRats":10335,"Ġdrank":10336,"ledg":10337,"Ġsoundly":10338,"ĠBe":10339,"Ġincome":10340,"Ġsinger":10341,"ĠTogetherness":10342,"Ġpicky":10343,"Ġghostly":10344,"ĠSpringtime":10345,"Ġsprinkles":10346,"ĠLitter":10347,"upport":10348,"Ġmillions":10349,"Ġvendors":10350,"Ġunjoyful":10351,"apting":10352,"Ġdownhill":10353,"Ġsincer":10354,"Ġtearing":10355,"Ġseafood":10356,"Ġpops":10357,"ĠAdapting":10358,"Ġviewpoint":10359,"ĠSimplifying":10360,"ĠLanguage":10361,"arp":10362,"urden":10363,"pecial":10364,"Ġstrokes":10365,"Ġcoasters":10366,"ĠFoods":10367,"Ġsites":10368,"ixed":10369,"Ġbreed":10370,"Ġexpresses":10371,"Ġbalances":10372,"Ġtempt":10373,"Ġgrill":10374,"Ġirritable":10375,"phants":10376,"attering":10377,"ĠAdjust":10378,"Ġborrowing":10379,"Ġrestrictions":10380,"ĠAller":10381,"Ġsuperv":10382,"Ġlungs":10383,"ĠElephants":10384,"ĠGathering":10385,"anish":10386,"ĠMet":10387,"stop":10388,"ĠFing":10389,"Ġuncooper":10390,"Ġuncareful":10391,"Ġsecuring":10392,"Ġsnacking":10393,"Ġchecklist":10394,"Ġcontest":10395,"ĠMyster":10396,"Ġhorned":10397,"Ġlocate":10398,"Ġstandard":10399,"Ġgripping":10400,"Ġalerts":10401,"ĠSpanish":10402,"Ġsplashes":10403,"ĠDreaming":10404,"Ġpotatoes":10405,"Ġprettier":10406,"ĠAllergies":10407,"Ġbiz":10408,"arre":10409,"Ġoat":10410,"Ġoverre":10411,"Ġbeauties":10412,"ĠResear":10413,"Ġcolds":10414,"Ġwrongly":10415,"Ġapolog":10416,"Ġpaintbrush":10417,"Ġadaptation":10418,"Ġcleverness":10419,"Ġaiming":10420,"Ġpudding":10421,"ĠFunny":10422,"Ġtossing":10423,"Ġcuddle":10424,"Ġpantry":10425,"Ġdiscipline":10426,"ledgeable":10427,"Ġbizarre":10428,"Ġthir":10429,"Ġfour":10430,"Ġcig":10431,"Ġhilar":10432,"Ġgaze":10433,"Ġham":10434,"ĠTreat":10435,"Ġking":10436,"Ġcode":10437,"Ġnightmares":10438,"meal":10439,"ĠBra":10440,"Ġelev":10441,"Ġtwinkling":10442,"Ġmidnight":10443,"Ġconsciously":10444,"Ġdisheartened":10445,"Ġtransition":10446,"Ġinjured":10447,"Ġclimbed":10448,"ifference":10449,"Ġdelivered":10450,"Ġdefend":10451,"Ġmechan":10452,"ĠAutomatic":10453,"Ġpeeling":10454,"Ġtolerate":10455,"Ġagenda":10456,"Ġstinky":10457,"Ġtedious":10458,"Ġclients":10459,"test":10460,"eoff":10461,"Ġdom":10462,"Ġyouth":10463,"ghters":10464,"Ġmagn":10465,"Ġrose":10466,"Ġinterpret":10467,"Ġadvances":10468,"Ġhotel":10469,"ĠSpoiled":10470,"Ġabsent":10471,"Ġdaughters":10472,"Ġvividly":10473,"Ġvacu":10474,"Ġsnowballs":10475,"Ġrelevant":10476,"Ġsunburn":10477,"Ġappropriately":10478,"Ġclinic":10479,"Ġcuisines":10480,"Ġconduct":10481,"Ġhilarious":10482,"ĠBravery":10483,"has":10484,"Ġmural":10485,"Ġoak":10486,"Ġshipping":10487,"ĠWar":10488,"igs":10489,"ĠPri":10490,"Ġmush":10491,"Ġchatter":10492,"Ġreasoning":10493,"Ġbehaviours":10494,"Ġindicate":10495,"Ġsilkworms":10496,"Ġshameful":10497,"Ġgrips":10498,"Ġmeasurements":10499,"Ġmagically":10500,"Ġoccurred":10501,"Ġtransformed":10502,"ĠArg":10503,"Ġsquish":10504,"Ġmedicines":10505,"ĠRecently":10506,"Ġassumptions":10507,"Ġuncooperative":10508,"Ġiced":10509,"Ġthrew":10510,"Ġdanced":10511,"Ġdied":10512,"ighting":10513,"Ġdisple":10514,"Ġcong":10515,"Ġtact":10516,"Ġheaviest":10517,"ĠEl":10518,"ertime":10519,"Ġshowers":10520,"Ġelement":10521,"ĠNostalgic":10522,"Ġdrier":10523,"Ġsharply":10524,"Ġseparated":10525,"Ġmindsets":10526,"Ġauthent":10527,"Ġsquare":10528,"Ġversus":10529,"Ġethics":10530,"ĠSlow":10531,"ĠHonestly":10532,"Ġcinem":10533,"dress":10534,"ained":10535,"ĠPumping":10536,"ushi":10537,"Ġtwinkle":10538,"Ġempowering":10539,"Ġforgive":10540,"ĠPresent":10541,"ĠFriendship":10542,"ĠSeason":10543,"Ġdepths":10544,"Ġbanana":10545,"Ġretracing":10546,"Ġexplode":10547,"Ġunmotivating":10548,"Ġoverreact":10549,"worth":10550,"zzy":10551,"elly":10552,"Ġeight":10553,"Ġwhipped":10554,"ĠSam":10555,"ratulations":10556,"Ġknowledgeable":10557,"ĠPict":10558,"Ġtranqu":10559,"Ġdecorative":10560,"Ġunhealth":10561,"Ġanswered":10562,"Ġinteracts":10563,"ĠNoises":10564,"Ġrevisiting":10565,"Ġsquir":10566,"ĠQuality":10567,"Ġaccumulate":10568,"Ġsynthetic":10569,"cues":10570,"Ġunent":10571,"Ġunites":10572,"Ġagile":10573,"Ġcareer":10574,"ĠReal":10575,"Ġcris":10576,"Ġsliding":10577,"Ġstresses":10578,"pression":10579,"Ġdepart":10580,"Ġindifference":10581,"Ġbasil":10582,"Ġterr":10583,"Ġinteg":10584,"Ġmelanch":10585,"ĠProper":10586,"Ġunreachable":10587,"Ġpracticality":10588,"Ġpeels":10589,"Ġunsatisfying":10590,"Ġinsecur":10591,"Ġtarnished":10592,"ĠRepeating":10593,"Ġofficials":10594,"Ġdiamonds":10595,"Ġsummertime":10596,"Ġcafeteria":10597,"mber":10598,"sight":10599,"Ġdus":10600,"icious":10601,"ĠToo":10602,"Ġjustify":10603,"ĠFighting":10604,"Ġresched":10605,"Ġemails":10606,"aziness":10607,"Ġslight":10608,"Ġthankfully":10609,"Ġhighly":10610,"Ġbroccoli":10611,"Ġshortc":10612,"Ġemphas":10613,"Ġironing":10614,"Ġlunches":10615,"Ġrecovering":10616,"ĠRelations":10617,"Ġcontacting":10618,"Ġarchitects":10619,"Ġsqueeze":10620,"Ġgusts":10621,"ĠCollaboration":10622,"Ġwastes":10623,"Ġtactics":10624,"ĠPictures":10625,"fy":10626,"keoff":10627,"Ġba":10628,"Ġunan":10629,"Ġalter":10630,"ĠSli":10631,"Ġtapping":10632,"Ġtakeoff":10633,"ĠFair":10634,"rowing":10635,"Ġpatch":10636,"Ġtomorrows":10637,"abil":10638,"Ġtwitch":10639,"ructive":10640,"Ġunburden":10641,"Ġclassmates":10642,"Ġprisoners":10643,"Ġabsorbs":10644,"Ġunexplainable":10645,"case":10646,"fere":10647,"gu":10648,"Ġwhips":10649,"cially":10650,"Ġposters":10651,"apan":10652,"Ġguilt":10653,"Ġlistener":10654,"Ġvalley":10655,"Ġsmiled":10656,"ĠIns":10657,"Ġmarkers":10658,"Ġgrassy":10659,"Ġavailability":10660,"ĠJapan":10661,"Ġsorrowful":10662,"Ġirrespon":10663,"Ġcolourful":10664,"Ġinitiatives":10665,"ĠFingers":10666,"Ġcrisis":10667,"ĠRelationships":10668,"Ġunansw":10669,"cost":10670,"good":10671,"rity":10672,"Ġhinder":10673,"Ġinjust":10674,"Ġsealing":10675,"ĠMold":10676,"Ġplanners":10677,"Ġinterfere":10678,"Ġcommut":10679,"Ġcomposting":10680,"Ġreadiness":10681,"Ġbrew":10682,"ĠBro":10683,"ĠBreak":10684,"Ġsugars":10685,"Ġfinancially":10686,"Ġhydration":10687,"ĠCloth":10688,"Ġinsightful":10689,"Ġagendas":10690,"ĠMindfulness":10691,"ĠArguments":10692,"ĠElastic":10693,"Ġine":10694,"ossi":10695,"Ġmyths":10696,"storms":10697,"beh":10698,"amel":10699,"Ġuncaring":10700,"ĠWeeds":10701,"Ġharves":10702,"Ġrestoring":10703,"Ġstoryline":10704,"Ġunsupport":10705,"Ġmanages":10706,"Ġvoicing":10707,"Ġcharging":10708,"Ġcombines":10709,"Ġtimeline":10710,"Ġdismissing":10711,"Ġbrainstorming":10712,"Ġcrispy":10713,"Ġelephant":10714,"Ġshoelaces":10715,"Ġintegrity":10716,"building":10717,"fair":10718,"moving":10719,"Ġed":10720,"Ġgoo":10721,"aret":10722,"Ġkid":10723,"Ġfaults":10724,"Ġchopping":10725,"ĠCoping":10726,"Ġstorybook":10727,"Ġuninsp":10728,"Ġheadphones":10729,"Ġgovernments":10730,"Ġlibraries":10731,"Ġrumor":10732,"husiastic":10733,"Ġvictory":10734,"Ġbatteries":10735,"Ġcollaborate":10736,"Ġtarget":10737,"Ġcigaret":10738,"Ġkingdom":10739,"Ġdusk":10740,"dough":10741,"go":10742,"ron":10743,"uate":10744,"ubs":10745,"Ġanew":10746,"Ġlaying":10747,"reative":10748,"Ġrescue":10749,"Ġdeepens":10750,"Ġconcret":10751,"abl":10752,"ĠSharp":10753,"Ġcloses":10754,"Ġfloats":10755,"tended":10756,"Ġversions":10757,"Ġreplies":10758,"expression":10759,"Ġnourishing":10760,"Ġauthentic":10761,"Ġconcrete":10762,"Ġfer":10763,"Ġbun":10764,"itten":10765,"Ġhi":10766,"Ġdisarr":10767,"ĠSar":10768,"Ġexpired":10769,"ĠEgg":10770,"ĠRet":10771,"Ġblends":10772,"Ġbuildup":10773,"istics":10774,"Ġdecent":10775,"Ġroughness":10776,"flower":10777,"Ġirritate":10778,"Ġtangy":10779,"Ġmenus":10780,"Ġchickens":10781,"Ġbroaden":10782,"Ġbeverages":10783,"Ġliterature":10784,"Ġapologize":10785,"Ġirresponsibly":10786,"Ġsushi":10787,"isher":10788,"Ġfert":10789,"Ġwhose":10790,"Ġrekind":10791,"ĠTren":10792,"Ġranges":10793,"Ġlogic":10794,"ĠMount":10795,"Ġreflected":10796,"Ġsolitude":10797,"ĠPublic":10798,"Ġbreeds":10799,"ĠInst":10800,"ĠDecor":10801,"Ġfilters":10802,"Ġhonk":10803,"Ġwallets":10804,"ĠUnique":10805,"Ġlimitations":10806,"Ġconditioning":10807,"Ġshocks":10808,"Ġsteal":10809,"Ġstrained":10810,"ĠFarms":10811,"Ġexaggerate":10812,"Ġescalate":10813,"Ġextremely":10814,"Ġunanswered":10815,"Ġdisarray":10816,"ĠTrends":10817,"Ġpans":10818,"Ġgiggle":10819,"Ġhowl":10820,"Ġquant":10821,"ortion":10822,"Ġdonation":10823,"ĠLuck":10824,"ĠPersonal":10825,"Ġbasics":10826,"Ġproportion":10827,"Ġdestructive":10828,"Ġprinted":10829,"ĠFlood":10830,"Ġhighlighting":10831,"Ġtriggers":10832,"Ġpean":10833,"Ġarranged":10834,"Ġtidier":10835,"Ġkitten":10836,"Ġresourceful":10837,"Ġpursuing":10838,"ĠSmoothies":10839,"smelling":10840,"Ġlifelong":10841,"Ġgalaxies":10842,"ĠInsurance":10843,"hor":10844,"iny":10845,"Ġwages":10846,"using":10847,"Ġhire":10848,"Ġow":10849,"Ġtrunk":10850,"ĠAm":10851,"Ġflown":10852,"Ġuncreative":10853,"Ġcloudiest":10854,"Ġindifferent":10855,"ĠFearfulness":10856,"Ġconclude":10857,"Ġresearching":10858,"ĠRecycling":10859,"Ġinfections":10860,"Ġpromptly":10861,"Ġmanufactur":10862,"Ġunenthusiastic":10863,"Ġbait":10864,"Ġtummy":10865,"onst":10866,"ayed":10867,"iming":10868,"Ġreds":10869,"Ġshots":10870,"Ġsunflower":10871,"Ġtakeout":10872,"Ġresh":10873,"Ġmoons":10874,"Ġlawn":10875,"Ġdawn":10876,"Ġunfolding":10877,"Ġfilter":10878,"Ġdistaste":10879,"Ġcomplexities":10880,"Ġselecting":10881,"Ġdemonst":10882,"Ġoccurren":10883,"Ġglobe":10884,"Ġuntangling":10885,"Ġventure":10886,"ĠAppreci":10887,"Ġdeclutter":10888,"Ġunpolished":10889,"Ġfacilities":10890,"ĠSarah":10891,"ĠFlooding":10892,"ane":10893,"Ġseries":10894,"Ġais":10895,"Ġcoun":10896,"Ġstates":10897,"Ġconvin":10898,"Ġsamp":10899,"Ġmission":10900,"ĠBus":10901,"ĠStability":10902,"Ġconfuses":10903,"Ġdryer":10904,"Ġbloomed":10905,"ĠSoci":10906,"Ġstriving":10907,"Ġzoos":10908,"Ġrobot":10909,"ĠAcceptance":10910,"olesome":10911,"Ġlength":10912,"Ġoatmeal":10913,"Ġcinema":10914,"earned":10915,"Ġgossi":10916,"Ġjazz":10917,"ĠDa":10918,"Ġtricked":10919,"quent":10920,"upied":10921,"Ġdeeds":10922,"siders":10923,"sized":10924,"ĠPupp":10925,"Ġslides":10926,"ĠShips":10927,"umption":10928,"ĠNoise":10929,"Ġadvantages":10930,"Ġtender":10931,"Ġvolunteer":10932,"Ġresonates":10933,"Ġanticipation":10934,"Ġplatforms":10935,"Ġmurky":10936,"Ġdissatisfaction":10937,"dressed":10938,"ĠEggs":10939,"ĠPuppies":10940,"Ġet":10941,"ony":10942,"Ġwhist":10943,"ĠYikes":10944,"Ġuneaten":10945,"Ġwrinkled":10946,"renching":10947,"Ġperman":10948,"Ġrefuses":10949,"ĠShoes":10950,"Ġprizes":10951,"Ġofferings":10952,"Ġtiniest":10953,"Ġunthink":10954,"Ġstealing":10955,"Ġfragility":10956,"ĠComparing":10957,"Ġmilder":10958,"Ġdreadful":10959,"Ġwebsite":10960,"Ġpeaches":10961,"Ġaquarium":10962,"ĠSociety":10963,"Ġbedding":10964,"ĠTaste":10965,"Ġjelly":10966,"Ġposter":10967,"Ġwarmest":10968,"ĠFast":10969,"Ġresid":10970,"Ġlongest":10971,"umble":10972,"ixable":10973,"Ġturnout":10974,"Ġribb":10975,"Ġimpacted":10976,"Ġconsumption":10977,"Ġencountered":10978,"Ġmagician":10979,"Ġsteer":10980,"Ġstewards":10981,"ĠFlags":10982,"Ġbars":10983,"Ġparticipates":10984,"Ġaccuracy":10985,"Ġpeppers":10986,"Ġacknowledgment":10987,"ĠDistractions":10988,"Ġinappropriate":10989,"ĠSeasons":10990,"Ġfou":10991,"Ġce":10992,"aded":10993,"iry":10994,"ellations":10995,"Ġreads":10996,"rows":10997,"Ġexpressive":10998,"Ġrecreat":10999,"Ġignite":11000,"Ġorganic":11001,"Ġbathing":11002,"Ġreconnecting":11003,"Ġinnocence":11004,"Ġprecise":11005,"Ġscrubbing":11006,"Ġairports":11007,"Ġrejection":11008,"Ġaccordingly":11009,"related":11010,"Ġsamples":11011,"drop":11012,"know":11013,"sided":11014,"wrenching":11015,"tane":11016,"Ġquit":11017,"Ġbrac":11018,"Ġescapes":11019,"Ġmuck":11020,"Ġimproper":11021,"Ġchallenged":11022,"Ġrig":11023,"Ġdrills":11024,"ĠTrade":11025,"Ġunintention":11026,"Ġunusable":11027,"Ġovercast":11028,"Ġlinens":11029,"Ġspeakers":11030,"ĠWaves":11031,"Ġguided":11032,"ocating":11033,"effective":11034,"Ġhardship":11035,"Ġpeak":11036,"Ġuncontr":11037,"Ġsealed":11038,"ĠFrequent":11039,"ĠClothes":11040,"Ġtart":11041,"Ġsled":11042,"Ġoct":11043,"Ġinks":11044,"Ġrearr":11045,"otion":11046,"sever":11047,"Ġawak":11048,"Ġadore":11049,"Ġpersever":11050,"Ġwatered":11051,"couragement":11052,"Ġshovel":11053,"plugs":11054,"Ġrooft":11055,"Ġempath":11056,"Ġcharged":11057,"Ġcomplications":11058,"ĠEncouragement":11059,"Ġstrangest":11060,"Ġlabel":11061,"Ġresolutions":11062,"Ġvitamin":11063,"Ġoverflow":11064,"Ġblurry":11065,"Ġvacuum":11066,"Ġmanufacturers":11067,"Ġoctop":11068,"fight":11069,"itives":11070,"Ġtopping":11071,"Ġlaziness":11072,"Ġpaws":11073,"Ġoily":11074,"Ġbeating":11075,"Ġunivers":11076,"Ġprank":11077,"Ġgrim":11078,"ami":11079,"Ġrainco":11080,"Ġexcl":11081,"ĠPushing":11082,"ĠPoll":11083,"Ġcooker":11084,"ĠWeek":11085,"Ġunfixable":11086,"Ġsincere":11087,"Ġshaded":11088,"ewing":11089,"Ġheadaches":11090,"Ġstrengthening":11091,"Ġpreservation":11092,"Ġhousing":11093,"Ġdragon":11094,"Ġwags":11095,"Ġreleased":11096,"Ġfirmly":11097,"Ġdroopy":11098,"Ġluxurious":11099,"ĠMetal":11100,"Ġhammers":11101,"Ġquantity":11102,"Ġrigid":11103,"host":11104,"viding":11105,"Ġborn":11106,"atch":11107,"Ġfed":11108,"arant":11109,"unks":11110,"Ġgeo":11111,"Ġbetray":11112,"Ġextern":11113,"ĠSpecial":11114,"igg":11115,"Ġcocon":11116,"Ġfox":11117,"Ġreleases":11118,"Ġdrove":11119,"Ġdesired":11120,"Ġadditives":11121,"Ġearplugs":11122,"Ġcheckup":11123,"Ġthickness":11124,"ĠGhost":11125,"Ġcupc":11126,"ĠSpicy":11127,"ĠChildhood":11128,"Ġbarefoot":11129,"Ġmailbox":11130,"ĠProviding":11131,"Ġomelet":11132,"Ġlinks":11133,"Ġtissues":11134,"ĠBelieving":11135,"Ġsquishy":11136,"Ġunthinkable":11137,"Ġfoul":11138,"bought":11139,"Ġcab":11140,"ette":11141,"ĠHair":11142,"acce":11143,"icks":11144,"Ġclings":11145,"Ġworkdays":11146,"ĠEmp":11147,"Ġblaming":11148,"Ġloudest":11149,"Ġadditions":11150,"Ġbusyness":11151,"Ġmetap":11152,"Ġsnowfall":11153,"Ġreminis":11154,"Ġhopelessness":11155,"orns":11156,"Ġdisliked":11157,"Ġorigins":11158,"Ġmistreated":11159,"ĠItalian":11160,"Ġexternal":11161,"dling":11162,"Ġtheater":11163,"ĠTw":11164,"Ġjun":11165,"Ġvill":11166,"top":11167,"ĠRecovery":11168,"Ġbackdrop":11169,"ĠLoose":11170,"ĠInsp":11171,"Ġunwilling":11172,"Ġheats":11173,"Ġsparkly":11174,"ĠSunsets":11175,"ĠFearful":11176,"Ġlurks":11177,"Ġproudly":11178,"Ġsquea":11179,"ĠBoard":11180,"Ġportray":11181,"ĠDigestion":11182,"Ġfatigue":11183,"Ġnarratives":11184,"Ġthirsty":11185,"ĠBroken":11186,"Ġmetaphor":11187,"ansp":11188,"Ġwiggle":11189,"Ġaching":11190,"ĠIron":11191,"Ġhikes":11192,"Ġpal":11193,"Ġrenov":11194,"Ġunad":11195,"stress":11196,"Ġcheated":11197,"Ġguarant":11198,"Ġbackp":11199,"ĠLow":11200,"Ġspotting":11201,"Ġpopulations":11202,"boards":11203,"Ġdialogues":11204,"ocused":11205,"Ġintensity":11206,"Ġsteadily":11207,"ĠLuckily":11208,"bl":11209,"lig":11210,"Ġped":11211,"Ġunfe":11212,"ads":11213,"entials":11214,"Ġruling":11215,"Ġdefe":11216,"Ġexpands":11217,"Ġoverhe":11218,"Ġcommands":11219,"ĠFalse":11220,"Ġskipping":11221,"Ġmisled":11222,"Ġemail":11223,"ĠInter":11224,"Ġmusty":11225,"ĠTransp":11226,"Ġsneaking":11227,"Ġvacations":11228,"ĠMuddy":11229,"ĠExperts":11230,"Ġassignments":11231,"Ġwriggling":11232,"Ġreinforce":11233,"ĠMountains":11234,"Ġceiling":11235,"fighters":11236,"Ġlush":11237,"Ġpit":11238,"Ġfrying":11239,"ongs":11240,"Ġclubs":11241,"Ġaftert":11242,"ĠExper":11243,"Ġtighten":11244,"Ġamongst":11245,"namon":11246,"Ġtechnical":11247,"Ġpunished":11248,"Ġobservant":11249,"Ġvarying":11250,"Ġsentences":11251,"Ġseaside":11252,"Ġannounced":11253,"Ġrekindle":11254,"acceptance":11255,"eed":11256,"Ġmic":11257,"Ġhosting":11258,"Ġden":11259,"ĠYum":11260,"osaur":11261,"Ġtrop":11262,"ĠHome":11263,"Ġhopping":11264,"Ġven":11265,"Ġclips":11266,"Ġbelieves":11267,"Ġskyline":11268,"Ġvisitor":11269,"Ġdeliciously":11270,"weight":11271,"Ġfruitful":11272,"Ġsimilarities":11273,"Ġseparately":11274,"Ġlocals":11275,"Ġdiners":11276,"ĠTeachers":11277,"Ġweaken":11278,"Ġversion":11279,"Ġdimmer":11280,"written":11281,"Ġidentities":11282,"Ġbroader":11283,"Ġrecklessly":11284,"Ġsurgeries":11285,"Ġlady":11286,"Ġquirks":11287,"Ġreschedule":11288,"Ġpeanut":11289,"Ġgossip":11290,"The":11291,"eve":11292,"Ġoutbreak":11293,"ĠSongs":11294,"Ġupkeep":11295,"Ġexpense":11296,"ĠThin":11297,"Ġmindfully":11298,"ĠRout":11299,"ĠBitter":11300,"Ġrests":11301,"ĠOil":11302,"ĠGre":11303,"Ġfinishes":11304,"Ġbirdhouse":11305,"ribly":11306,"Ġpinch":11307,"Ġstatues":11308,"Ġsensations":11309,"Ġpairing":11310,"ĠComed":11311,"Ġunravel":11312,"Ġcentered":11313,"commun":11314,"Ġpuri":11315,"unction":11316,"Ġunle":11317,"Ġtragic":11318,"Ġaloud":11319,"Ġimpatience":11320,"Ġest":11321,"ovember":11322,"Ġglim":11323,"ĠLook":11324,"Ġroasting":11325,"ĠNovember":11326,"Ġpurple":11327,"Ġsteams":11328,"Ġtruthfulness":11329,"Ġdisruption":11330,"Ġallergy":11331,"Ġremarks":11332,"Ġorigami":11333,"Ġflickers":11334,"Ġrumbles":11335,"ĠReducing":11336,"Ġaromas":11337,"Ġworsens":11338,"Ġcreaks":11339,"Ġfiber":11340,"ĠAdjusting":11341,"Ġinjustice":11342,"Ġreshape":11343,"Ġsank":11344,"atters":11345,"alled":11346,"omp":11347,"Ġshimmer":11348,"ĠHob":11349,"astics":11350,"rations":11351,"Ġcoord":11352,"aper":11353,"Ġmisbeh":11354,"Ġuneasiness":11355,"Ġdripping":11356,"Ġpointed":11357,"Ġfastest":11358,"amps":11359,"Ġunbreak":11360,"Ġwitnessed":11361,"ĠcafÃ©s":11362,"Ġbarbecues":11363,"Ġinitial":11364,"Ġinfectious":11365,"Ġassociate":11366,"Ġciviliz":11367,"Ġattende":11368,"Ġconstructively":11369,"Ġverify":11370,"Ġshortcuts":11371,"Ġunsupported":11372,"ĠReturning":11373,"Ġaftertaste":11374,"Ġunbreakable":11375,"Ġcivilizations":11376,"love":11377,"Ġcaves":11378,"Ġrom":11379,"ĠWonder":11380,"Ġvoid":11381,"amb":11382,"ĠCounting":11383,"Ġrainfall":11384,"Ġcompliments":11385,"Ġadvancing":11386,"Ġbedroom":11387,"Ġpins":11388,"orters":11389,"ĠSmells":11390,"Ġmotives":11391,"Ġstuffed":11392,"Ġadmired":11393,"Ġeconomies":11394,"ĠComforting":11395,"Ġprocedure":11396,"Ġaccording":11397,"Ġteleph":11398,"Ġminimize":11399,"Ġsledding":11400,"Ġattendees":11401,"Ġsill":11402,"Ġcent":11403,"Ġcells":11404,"ellents":11405,"reeing":11406,"Ġlessens":11407,"ĠBig":11408,"Ġriders":11409,"ĠGifts":11410,"Ġflavours":11411,"flow":11412,"ĠKn":11413,"Ġrepellents":11414,"Ġdinosaur":11415,"Ġbirths":11416,"Ġpunishing":11417,"Ġdeterg":11418,"Ġappropriate":11419,"Ġcinnamon":11420,"Ġunfeeling":11421,"bows":11422,"lists":11423,"men":11424,"Ġyarn":11425,"ĠIts":11426,"osion":11427,"Ġtrim":11428,"Ġhover":11429,"antic":11430,"Ġconsiders":11431,"ĠMark":11432,"izable":11433,"ĠCooper":11434,"Ġcheered":11435,"ĠLem":11436,"Ġattacking":11437,"Ġunfl":11438,"Ġmattered":11439,"ĠStud":11440,"Ġreceives":11441,"ensely":11442,"Ġfirefighters":11443,"Ġmarry":11444,"Ġtoothp":11445,"Ġeyesore":11446,"arents":11447,"oops":11448,"Ġdecreases":11449,"Ġcomputers":11450,"Ġadvocating":11451,"Ġsuffocating":11452,"ĠSteam":11453,"Ġlifelike":11454,"Ġcartoons":11455,"Ġmushrooms":11456,"Ġtranquility":11457,"Ġcouncil":11458,"Ġcoconut":11459,"Ġbackpack":11460,"ĠHobbies":11461,"mons":11462,"prepared":11463,"inger":11464,"eop":11465,"imental":11466,"otes":11467,"Ġtrashy":11468,"Ġexact":11469,"ĠWise":11470,"Ġstrings":11471,"Ġremote":11472,"Ġflapping":11473,"Ġwrinkles":11474,"Ġholder":11475,"Ġcharger":11476,"Ġessentials":11477,"Ġadaptability":11478,"Ġclassical":11479,"Ġsourdough":11480,"ĠNoticing":11481,"Ġcontained":11482,"Ġunrecognizable":11483,"Ġsuspicious":11484,"Ġworkspaces":11485,"Ġblindly":11486,"Ġwhispering":11487,"aintained":11488,"Ġimmensely":11489,"Ġfortunate":11490,"Ġdescribes":11491,"Ġnurses":11492,"Ġcongratulations":11493,"ĠComedies":11494,"ĠCooperation":11495,"ially":11496,"vous":11497,"washing":11498,"itr":11499,"reds":11500,"Ġdense":11501,"enting":11502,"Ġtrunks":11503,"Ġstray":11504,"Ġdownp":11505,"Ġblaring":11506,"Ġmischie":11507,"umin":11508,"Ġviewer":11509,"Ġparades":11510,"Ġpollination":11511,"Ġunthoughtfully":11512,"ĠProse":11513,"Ġadmirable":11514,"ĠAgreeing":11515,"exp":11516,"imenting":11517,"Ġteles":11518,"Ġsparked":11519,"known":11520,"Ġtelephone":11521,"Ġmischievous":11522,"uture":11523,"Ġhelper":11524,"Ġropes":11525,"Ġhardworking":11526,"Ġcodes":11527,"ĠFuture":11528,"Ġgliding":11529,"Ġrelaxes":11530,"ĠCustom":11531,"Ġroars":11532,"Ġsleepless":11533,"broken":11534,"Ġeducated":11535,"ĠGri":11536,"Ġdusting":11537,"Ġcharity":11538,"ĠUnkind":11539,"Ġterribly":11540,"ĠOvercoming":11541,"covered":11542,"Ġchewed":11543,"Ġroaming":11544,"Ġanticipate":11545,"ĠInstead":11546,"Ġrecreate":11547,"taneous":11548,"ĠPollution":11549,"ĠRoutines":11550,"gers":11551,"happiness":11552,"ral":11553,"arity":11554,"ĠToy":11555,"ella":11556,"olic":11557,"ĠSelf":11558,"Ġapplications":11559,"ĠLoss":11560,"Ġforgetfulness":11561,"Ġcontents":11562,"Ġsnowstorm":11563,"ĠGener":11564,"Ġinsens":11565,"Ġsimplifying":11566,"Ġshifted":11567,"Ġfamiliarity":11568,"Ġfragr":11569,"Ġuncovering":11570,"ĠRegret":11571,"Ġtowers":11572,"ĠSurely":11573,"Ġarrangement":11574,"Ġharmoniously":11575,"Ġdisordered":11576,"ĠMarriage":11577,"Ġmango":11578,"Ġinfuri":11579,"Ġharvests":11580,"Ġgooey":11581,"ĠDecorating":11582,"Ġunaddressed":11583,"Ġting":11584,"Ġfisher":11585,"Ġbust":11586,"Ġpose":11587,"Ġstacked":11588,"Ġsadden":11589,"ĠSk":11590,"ĠRushing":11591,"ĠReflect":11592,"Ġexplores":11593,"ĠBugs":11594,"Ġsniff":11595,"Ġrepul":11596,"Ġsuccul":11597,"Ġovercame":11598,"Ġbattling":11599,"ĠComfortable":11600,"ĠPositivity":11601,"Ġhundreds":11602,"Ġmoisturiz":11603,"ĠNegative":11604,"Ġdistasteful":11605,"ĠAppreciating":11606,"ĠLemon":11607,"Ġinfuriating":11608,"cure":11609,"lived":11610,"vi":11611,"Ġwired":11612,"Ġmalf":11613,"Ġgazing":11614,"Ġshone":11615,"Ġchess":11616,"ĠWinning":11617,"Ġagrees":11618,"Ġaward":11619,"Ġhealer":11620,"ĠFree":11621,"Ġresur":11622,"ĠCrow":11623,"Ġenvironmentally":11624,"Ġslush":11625,"Ġmanual":11626,"Ġdisgustingly":11627,"Ġgaming":11628,"Ġsnapping":11629,"Ġruled":11630,"Ġdelighted":11631,"Ġpumpkin":11632,"Ġinteracting":11633,"Ġacidic":11634,"Ġsweating":11635,"Ġcontributing":11636,"ĠAcid":11637,"ĠConfusion":11638,"Ġshowcasing":11639,"Ġcasually":11640,"Ġintricate":11641,"Ġresidue":11642,"Ġperseverance":11643,"ĠExperimenting":11644,"giving":11645,"ium":11646,"rough":11647,"uled":11648,"anes":11649,"etics":11650,"icting":11651,"Ġunripe":11652,"plex":11653,"Ġmakeup":11654,"Ġlemons":11655,"Ġshoulder":11656,"ĠMine":11657,"Ġwrest":11658,"igns":11659,"Ġsweep":11660,"Ġregion":11661,"Ġtech":11662,"ĠGrateful":11663,"Ġgentler":11664,"Ġmargin":11665,"Ġmainly":11666,"Ġbuys":11667,"Ġfootstep":11668,"Ġadditional":11669,"Ġrevol":11670,"organization":11671,"Ġevolved":11672,"Ġreplaces":11673,"Ġvolc":11674,"ĠChoices":11675,"ĠSlowing":11676,"Ġtherap":11677,"Ġscurrying":11678,"Ġtrumpet":11679,"bting":11680,"fashion":11681,"oly":11682,"view":11683,"ino":11684,"Ġmouse":11685,"Ġinexp":11686,"outing":11687,"Ġreh":11688,"idden":11689,"actory":11690,"Ġrelied":11691,"ĠExc":11692,"Ġnoon":11693,"Ġcrunching":11694,"Ġmanip":11695,"ĠInk":11696,"Ġstickier":11697,"Ġrestroom":11698,"Ġschem":11699,"Ġcomplement":11700,"ĠUnpleasant":11701,"Ġoverlo":11702,"Ġpairings":11703,"Ġreassure":11704,"Ġarranging":11705,"ĠScissors":11706,"Ġsanitiz":11707,"Ġsincerely":11708,"ĠMysteries":11709,"fashioned":11710,"Ġmig":11711,"Ġpity":11712,"Ġsomber":11713,"Ġcleared":11714,"emed":11715,"Ġcaret":11716,"Ġinstall":11717,"ĠPle":11718,"Ġgloomiest":11719,"Ġwatches":11720,"Ġfreer":11721,"Ġmarching":11722,"Ġunwelcomed":11723,"Ġlawmakers":11724,"Ġcanvases":11725,"ĠSugar":11726,"Ġrequirements":11727,"ĠDisgust":11728,"Ġunnice":11729,"Ġdestroying":11730,"Ġindividuality":11731,"ĠOrganization":11732,"awareness":11733,"Ġjungle":11734,"ricult":11735,"uilt":11736,"Ġfif":11737,"Ġdiving":11738,"Ġagricult":11739,"estic":11740,"Ġcalories":11741,"ĠShouting":11742,"Ġmonit":11743,"Ġsleeps":11744,"Ġseparating":11745,"Ġexams":11746,"Ġrecharging":11747,"Ġspeedy":11748,"Ġsentimental":11749,"Ġtissue":11750,"Ġtablecloths":11751,"ĠThoughts":11752,"ableness":11753,"Ġcabin":11754,"communication":11755,"Ġmargins":11756,"niest":11757,"Ġanal":11758,"Ġtheft":11759,"ims":11760,"une":11761,"prom":11762,"acts":11763,"ĠSomeone":11764,"Ġchangeable":11765,"ĠFat":11766,"ĠRising":11767,"Ġchop":11768,"Ġexcites":11769,"Ġprey":11770,"Ġcomplains":11771,"tress":11772,"Ġswelling":11773,"Ġwaterproof":11774,"ĠInv":11775,"Ġuncomfortableness":11776,"Ġsecured":11777,"Ġpopulation":11778,"Ġbears":11779,"Ġscented":11780,"ĠStronger":11781,"Ġexhibitions":11782,"Ġchewy":11783,"Ġunlik":11784,"Ġfuels":11785,"Ġunacc":11786,"Ġcriticize":11787,"ĠPresenting":11788,"Ġterrit":11789,"ĠGenerally":11790,"aple":11791,"fs":11792,"fish":11793,"math":11794,"tw":11795,"ushy":11796,"Ġdip":11797,"Ġearning":11798,"image":11799,"ooled":11800,"Ġuneng":11801,"inducing":11802,"Ġrusting":11803,"ĠDay":11804,"ĠHidden":11805,"Ġplastics":11806,"Ġbru":11807,"Ġseeming":11808,"actions":11809,"Ġaftermath":11810,"igned":11811,"Ġcrop":11812,"Ġpoorer":11813,"Ġswims":11814,"ocks":11815,"ontent":11816,"Ġrevealed":11817,"ĠCoffee":11818,"lphin":11819,"Ġturtles":11820,"Ġpraised":11821,"Ġtarnish":11822,"freshing":11823,"Ġdominate":11824,"Ġunflattering":11825,"bon":11826,"maintained":11827,"nels":11828,"Ġu":11829,"Ġtu":11830,"inating":11831,"inated":11832,"Ġinmates":11833,"Ġineffective":11834,"Ġginger":11835,"Ġdolphin":11836,"ĠDead":11837,"olid":11838,"Ġspon":11839,"Ġleis":11840,"Ġgetaway":11841,"Ġapplying":11842,"Ġresistance":11843,"Ġmattress":11844,"ĠLiqu":11845,"Ġcarbon":11846,"Ġinvitation":11847,"abilities":11848,"Ġdependency":11849,"ĠSoap":11850,"Ġmarked":11851,"Ġlunchtime":11852,"Ġunattended":11853,"Ġmajestic":11854,"Ġdeceive":11855,"Ġlogical":11856,"Ġuncomfy":11857,"Ġimperfections":11858,"ĠBreakfast":11859,"Ġinequality":11860,"ĠLiquid":11861,"mark":11862,"erence":11863,"Ġfurious":11864,"Ġfizzy":11865,"Ġgir":11866,"Ġupgr":11867,"through":11868,"Ġscoop":11869,"Ġgrounds":11870,"Ġcaregi":11871,"Ġhealed":11872,"ĠComing":11873,"Ġlabor":11874,"Ġsweeten":11875,"Ġeaters":11876,"Ġsecretive":11877,"Ġduller":11878,"Ġfictional":11879,"Ġstreetlights":11880,"Ġstemmed":11881,"Ġbrushed":11882,"Ġbrothers":11883,"Ġintact":11884,"Ġreliance":11885,"ĠStars":11886,"Ġfragrance":11887,"ĠRainbows":11888,"Ġcharacteristics":11889,"ĠClarity":11890,"ĠDistance":11891,"Ġemptier":11892,"Ġsensational":11893,"Ġexaggerated":11894,"ĠMorning":11895,"ĠMornings":11896,"Ġmagazines":11897,"ĠDesign":11898,"Ġnoodles":11899,"sighted":11900,"ĠBusy":11901,"Ġpermanent":11902,"Ġcupcakes":11903,"Ġreinforcement":11904,"Ġpurif":11905,"Ġdownpour":11906,"vate":11907,"Ġpants":11908,"Ġmaze":11909,"Ġfrayed":11910,"Ġgrit":11911,"headed":11912,"ĠBan":11913,"Ġpoke":11914,"Ġtasteless":11915,"licated":11916,"ĠStorm":11917,"ĠShutting":11918,"Ġdrips":11919,"Ġfascinated":11920,"Ġbases":11921,"Ġrecovers":11922,"Ġlanded":11923,"Ġapproached":11924,"Ġscheduled":11925,"Ġhygienic":11926,"Ġgained":11927,"Ġbowls":11928,"Ġchemical":11929,"Ġinconvenience":11930,"Ġgreedy":11931,"grown":11932,"Ġluxury":11933,"ĠPrepar":11934,"Ġintroduce":11935,"Ġmangoes":11936,"Ġuntruthful":11937,"Ġtempers":11938,"Ġunburdened":11939,"ĠDaisies":11940,"Ġresurface":11941,"cr":11942,"gens":11943,"Ġir":11944,"Ġcitr":11945,"Ġmim":11946,"Ġtheat":11947,"ulting":11948,"ĠHas":11949,"Ġcomprom":11950,"Ġspins":11951,"Ġaging":11952,"ĠSigns":11953,"themed":11954,"ĠMatching":11955,"Ġexpiration":11956,"ĠThrowing":11957,"olution":11958,"def":11959,"ĠRules":11960,"Ġspiral":11961,"Ġpoisons":11962,"Ġrefocus":11963,"Ġunharm":11964,"Ġfarther":11965,"Ġclosure":11966,"Ġoccupied":11967,"ĠSmart":11968,"Ġmassive":11969,"ĠFlat":11970,"ĠClimate":11971,"Ġpassenger":11972,"Ġoverpower":11973,"smooth":11974,"Ġgreetings":11975,"ĠSimpler":11976,"Ġfortune":11977,"Ġwobbly":11978,"ĠWeekends":11979,"Ġfifty":11980,"off":11981,"Ġren":11982,"Ġunself":11983,"ĠTests":11984,"entially":11985,"vested":11986,"ilts":11987,"Ġcalend":11988,"Ġdarken":11989,"Ġdrum":11990,"Ġcompliment":11991,"Ġviewed":11992,"Ġpathway":11993,"Ġteammates":11994,"Ġhotels":11995,"Ġpotentially":11996,"ĠEveryday":11997,"Ġadapted":11998,"Ġsailbo":11999,"ĠWithout":12000,"ĠSmashing":12001,"Ġscheduling":12002,"Ġratings":12003,"Ġneighbour":12004,"Ġsquished":12005,"Ġallergens":12006,"ĠAdvertis":12007,"Ġcounteract":12008,"Ġcrashes":12009,"ĠSilence":12010,"Ġemployee":12011,"Ġfluct":12012,"Ġaccomplishments":12013,"Ġinitially":12014,"Ġuncomforting":12015,"Ġcourageously":12016,"Ġfridges":12017,"Ġmelancholic":12018,"Ġoctopuses":12019,"ĠInspiration":12020,"ĠKnitting":12021,"ĠPlease":12022,"ĠBanan":12023,"ĠPreparation":12024,"vals":12025,"Ġhiring":12026,"Ġunav":12027,"Ġshor":12028,"pled":12029,"Ġrasp":12030,"Ġgoodies":12031,"aint":12032,"present":12033,"ounding":12034,"Ġfame":12035,"nowled":12036,"acknowled":12037,"Ġblink":12038,"Ġwrinkle":12039,"avored":12040,"Ġleap":12041,"ĠBread":12042,"Ġrunny":12043,"Ġmorals":12044,"Ġpowerfully":12045,"Ġaccounting":12046,"ĠTrash":12047,"Ġrougher":12048,"Ġsnowing":12049,"Ġrounded":12050,"Ġdroppings":12051,"Ġattempted":12052,"Ġdisplaying":12053,"ĠCommunities":12054,"Ġconsumer":12055,"Ġadopting":12056,"Ġlivelier":12057,"Ġaisles":12058,"Ġconvince":12059,"Ġuncontroll":12060,"ĠTransport":12061,"ĠToys":12062,"Ġscheme":12063,"Ġunselfish":12064,"jud":12065,"Ġcul":12066,"Ġanch":12067,"Ġdizzy":12068,"Ġweave":12069,"Ġdisorganization":12070,"Ġoverripe":12071,"aceful":12072,"Ġappreh":12073,"Ġinvited":12074,"Ġinvading":12075,"ulling":12076,"ĠStamps":12077,"Ġcherry":12078,"Ġcozying":12079,"Ġprovider":12080,"Ġdreamy":12081,"Ġtoothbrush":12082,"Ġsmashes":12083,"Ġsurviving":12084,"Ġzoom":12085,"ĠCompassion":12086,"Ġunthinkingly":12087,"Ġearnings":12088,"ĠSurprising":12089,"Ġtanks":12090,"Ġmixtures":12091,"Ġfresheners":12092,"Ġretrace":12093,"Ġdescribed":12094,"ĠMoldy":12095,"Ġromantic":12096,"Ġmalfunction":12097,"Ġcaretakers":12098,"Ġagriculture":12099,"Ġcous":12100,"Ġhates":12101,"Ġinvested":12102,"Ġredo":12103,"Ġstumble":12104,"ĠTur":12105,"irations":12106,"Ġchart":12107,"Ġrin":12108,"ĠDro":12109,"Ġfry":12110,"prints":12111,"ĠMaps":12112,"Ġwishful":12113,"ĠFri":12114,"ĠPop":12115,"Ġangered":12116,"ĠDealing":12117,"Ġconsult":12118,"Ġshortage":12119,"Ġgrayness":12120,"ĠSmaller":12121,"Ġgrabbing":12122,"Ġbrill":12123,"Ġunsecure":12124,"Ġreduction":12125,"Ġaggressively":12126,"Ġcontexts":12127,"ĠEspecially":12128,"Ġoutweighs":12129,"iggles":12130,"Ġvenue":12131,"ĠGrey":12132,"Ġtucked":12133,"ĠBananas":12134,"acknowledged":12135,"[/":12136,"Ġsands":12137,"itage":12138,"Ġtoil":12139,"Ġye":12140,"Ġbeak":12141,"Ġformer":12142,"idiness":12143,"Ġnecess":12144,"Ġneither":12145,"Ġouter":12146,"ĠSewing":12147,"pectful":12148,"actors":12149,"Ġwarmed":12150,"Ġuncons":12151,"Ġbuddy":12152,"Ġcray":12153,"ĠPacking":12154,"Ġbreakthrough":12155,"Ġpopped":12156,"Ġhandwashing":12157,"iquette":12158,"Ġheritage":12159,"Ġuplifts":12160,"Ġfatter":12161,"Ġstretchy":12162,"Ġbreezy":12163,"Ġcontribution":12164,"Ġscratches":12165,"Ġunsatisfactory":12166,"Ġbulb":12167,"ĠSlipping":12168,"ĠFairness":12169,"Ġetiquette":12170,"ĠWonderful":12171,"Ġsanitizer":12172,"defense":12173,"ĠDropping":12174,"Ġunconscious":12175,"gl":12176,"nuts":12177,"Ġpub":12178,"Ġowe":12179,"Ġyield":12180,"Ġstup":12181,"Ġshattered":12182,"Ġrit":12183,"ĠDucks":12184,"ĠHats":12185,"ĠWas":12186,"priced":12187,"Ġkits":12188,"Ġstroke":12189,"ĠStand":12190,"Ġlightweight":12191,"Ġsuppli":12192,"Ġswam":12193,"ĠStrength":12194,"Ġpassw":12195,"energy":12196,"Ġrisen":12197,"Ġcontinually":12198,"Ġoverlooks":12199,"Ġcharities":12200,"ĠSundays":12201,"ficient":12202,"Ġcirc":12203,"Ġinnovate":12204,"Ġscratching":12205,"Ġcliffs":12206,"Ġpausing":12207,"Ġsketch":12208,"Ġhovering":12209,"Ġinsensitive":12210,"Ġstupid":12211,"Ġsuppliers":12212,"'d":12213,"dri":12214,"ffin":12215,"iscu":12216,"tants":12217,"Ġunacknowledged":12218,"Ġstairs":12219,"Ġfearless":12220,"ĠMixed":12221,"Ġdeck":12222,"Ġappl":12223,"ĠPulling":12224,"Ġopenings":12225,"Ġrestored":12226,"Ġprotesting":12227,"Ġsalon":12228,"Ġdiscontent":12229,"Ġcultiv":12230,"Ġspeaker":12231,"Ġperformed":12232,"Ġhatred":12233,"Ġattempting":12234,"Ġstocked":12235,"Ġrocky":12236,"Ġbumping":12237,"Ġflooded":12238,"Ġveter":12239,"Ġlamps":12240,"Ġtypical":12241,"Ġinsecurities":12242,"Ġrooftops":12243,"Ġtherapy":12244,"inoa":12245,"Ġterritory":12246,"Ġculinary":12247,"ĠStanding":12248,"dra":12249,"eves":12250,"will":12251,"isor":12252,"Ġlap":12253,"entle":12254,"ĠHoney":12255,"Ġexisting":12256,"blems":12257,"Ġcleanups":12258,"eaders":12259,"ĠEv":12260,"Ġcheat":12261,"Ġendang":12262,"Ġstressors":12263,"Ġpasts":12264,"ĠGentle":12265,"Ġspotlight":12266,"Ġproviders":12267,"Ġcrackling":12268,"colored":12269,"Ġpuzzled":12270,"Ġrecommendation":12271,"Ġcrosses":12272,"ĠOrnam":12273,"Ġbaker":12274,"Ġinvented":12275,"ĠProblems":12276,"Ġmistreatment":12277,"Ġsocietal":12278,"Ġassociated":12279,"Ġoccurrences":12280,"Ġraincoat":12281,"ĠLemonade":12282,"Ġfootsteps":12283,"usement":12284,"Ġreduced":12285,"Ġplatter":12286,"ĠAuth":12287,"Ġangri":12288,"ĠFertile":12289,"ooms":12290,"ĠCapt":12291,"Ġweekday":12292,"Ġdeserved":12293,"Ġslam":12294,"ears":12295,"Ġdairy":12296,"Ġendurance":12297,"Ġbehold":12298,"Ġhottest":12299,"Ġcorn":12300,"flavored":12301,"Ġblackboard":12302,"Ġdroplets":12303,"Ġlegal":12304,"Ġdistribut":12305,"Ġunappreciative":12306,"Ġskillful":12307,"Ġgrabbed":12308,"Ġsoreness":12309,"Ġunlucky":12310,"Ġsustainably":12311,"Ġnapkin":12312,"Ġhesitation":12313,"Ġcuddly":12314,"Ġfrowns":12315,"ĠRepair":12316,"ĠCompleting":12317,"Ġinterferes":12318,"Ġsquirming":12319,"ĠAmusement":12320,"atchable":12321,"ĠInteresting":12322,"Ġdetergent":12323,"ĠGratefulness":12324,"Ġbrilliant":12325,"Ġbiscu":12326,"itations":12327,"reach":12328,"Ġforese":12329,"plement":12330,"Ġreop":12331,"Ġevolution":12332,"Ġconfin":12333,"estri":12334,"agn":12335,"Ġrainstorms":12336,"Ġsolace":12337,"ggle":12338,"ĠBees":12339,"Ġsnaps":12340,"Ġflyers":12341,"Ġsharpen":12342,"Ġburgers":12343,"ension":12344,"Ġsandals":12345,"Ġnarrower":12346,"Ġorderly":12347,"ĠSpilling":12348,"Ġnetwork":12349,"ĠJam":12350,"Ġseller":12351,"Ġtransactions":12352,"Ġdescriptions":12353,"ĠQuite":12354,"Ġtemporarily":12355,"Ġscratched":12356,"Ġsacrifice":12357,"Ġnavigation":12358,"Ġblessing":12359,"Ġstews":12360,"Ġspacious":12361,"ĠSchools":12362,"Ġaccumul":12363,"Ġtypically":12364,"Ġbracelet":12365,"Ġcrayons":12366,"glass":12367,"Ġforesee":12368,"ina":12369,"Ġsways":12370,"Ġweb":12371,"Ġreappe":12372,"Ġstacking":12373,"ppy":12374,"Ġje":12375,"Ġbroth":12376,"Ġgoodwill":12377,"Ġupb":12378,"Ġmuffin":12379,"Ġscro":12380,"Ġintertw":12381,"Ġcommer":12382,"Ġglows":12383,"Ġmating":12384,"omfortable":12385,"Ġfinance":12386,"fitting":12387,"Ġpickles":12388,"Ġexchanged":12389,"Ġcostume":12390,"Ġboardwalk":12391,"ĠFreshness":12392,"Ġlurk":12393,"Ġreplacements":12394,"Ġassess":12395,"odils":12396,"ĠConsider":12397,"Ġrobins":12398,"ĠCelebrations":12399,"Ġexhaustion":12400,"Ġtolerance":12401,"designed":12402,"Ġliveli":12403,"Ġcartoon":12404,"Ġpedestri":12405,"Ġwrestling":12406,"Ġmimic":12407,"dream":12408,"oubt":12409,"Ġpou":12410,"Ġnaught":12411,"utral":12412,"ĠHis":12413,"ĠAiming":12414,"start":12415,"Ġvirt":12416,"Ġworkflow":12417,"Ġcommotion":12418,"ĠRece":12419,"Ġcraving":12420,"Ġdaff":12421,"Ġcurry":12422,"Ġrooted":12423,"Ġknotty":12424,"Ġvari":12425,"ĠPlay":12426,"ĠUnfair":12427,"Ġknit":12428,"Ġsuffered":12429,"Ġnational":12430,"izzas":12431,"ĠBlood":12432,"Ġunforgiving":12433,"ĠEngine":12434,"Ġprecision":12435,"balance":12436,"Ġremoval":12437,"ĠPrivate":12438,"ameleo":12439,"Ġempathize":12440,"Ġdefeated":12441,"Ġtoothpaste":12442,"uminum":12443,"Ġsucculents":12444,"Ġapprehensive":12445,"Ġtoilet":12446,"Ġpedestrians":12447,"Ġnaughty":12448,"Ġult":12449,"isty":12450,"Ġmere":12451,"oral":12452,"Ġpounds":12453,"Ġbeams":12454,"Ġgates":12455,"Ġstol":12456,"Ġdoll":12457,"Ġimplement":12458,"Ġdisput":12459,"Ġpric":12460,"estry":12461,"Ġresorting":12462,"Ġhealthiest":12463,"Ġuncared":12464,"ĠExpect":12465,"Ġmiscommunication":12466,"Ġrealization":12467,"istry":12468,"Ġunwinding":12469,"Ġsnugg":12470,"Ġquestionable":12471,"Ġrunners":12472,"Ġdrizz":12473,"Ġincomes":12474,"otivation":12475,"Ġvocal":12476,"Ġillustrat":12477,"Ġtrainers":12478,"Ġunappro":12479,"Ġelasticity":12480,"Ġdoubtful":12481,"ifications":12482,"Ġmilksh":12483,"Ġrefreshment":12484,"Ġprinci":12485,"Ġsensitivity":12486,"Ġaims":12487,"Ġsplatters":12488,"Ġunrespectful":12489,"books":12490,"Ġcrumpled":12491,"Ġventil":12492,"Ġturtle":12493,"Ġungr":12494,"Ġsmokes":12495,"Ġrepetition":12496,"Ġimmune":12497,"Ġuniversal":12498,"Ġpranks":12499,"Ġrevolting":12500,"Ġspontaneous":12501,"Ġpurifiers":12502,"ĠStormy":12503,"Ġcousin":12504,"Ġstolen":12505,"Ġdisputes":12506,"rich":12507,"Ã±":12508,"isely":12509,"Ġwiring":12510,"Ġshivers":12511,"ĠHand":12512,"Ġaluminum":12513,"Ġarmed":12514,"Ġvig":12515,"Ġposts":12516,"Ġcleanly":12517,"ĠLeaders":12518,"ĠInvesting":12519,"Ġtricking":12520,"Ġconserving":12521,"Ġshorts":12522,"Ġriverside":12523,"Ġtwigs":12524,"Ġphysics":12525,"Ġcomplicates":12526,"Ġmotivator":12527,"Ġlegends":12528,"Ġmeasured":12529,"Ġtangles":12530,"Ġcrashed":12531,"ĠRegularly":12532,"ĠMesses":12533,"Ġsleeves":12534,"Ġtransparent":12535,"Ġdeserts":12536,"Ġsubtle":12537,"ĠAnytime":12538,"Ġsmudges":12539,"ĠTreating":12540,"Ġtingle":12541,"Ġinexpensive":12542,"Ġgritty":12543,"lete":12544,"times":12545,"Ġdies":12546,"Ġdice":12547,"Ġpoth":12548,"Ġpizzas":12549,"tening":12550,"ounded":12551,"erienc":12552,"Ġmoody":12553,"Ġnewsp":12554,"Ġpersist":12555,"Ġunfocused":12556,"pressure":12557,"Ġsticker":12558,"Ġcoloring":12559,"Ġworthy":12560,"Ġmarath":12561,"Ġcircul":12562,"ĠProt":12563,"Ġrusted":12564,"Ġdecreasing":12565,"Ġfuzzy":12566,"Ġwrapper":12567,"Ġathlete":12568,"Ġdiscourage":12569,"Ġcollaborating":12570,"Ġtapestry":12571,"Ġoriginality":12572,"Ġguarantee":12573,"Ġleisure":12574,"ĠAdvertisements":12575,"Ġapplied":12576,"ĠEvents":12577,"ĠCapturing":12578,"Ġupbringing":12579,"eren":12580,"Ġweren":12581,"elets":12582,"oni":12583,"Ġdimming":12584,"Ġforcing":12585,"Ġsections":12586,"urable":12587,"Ġjars":12588,"ifies":12589,"Ġquinoa":12590,"Ġflap":12591,"ĠFactors":12592,"ĠCont":12593,"Ġmusician":12594,"uded":12595,"ĠSte":12596,"Ġrestock":12597,"Ġfoundations":12598,"Ġpassage":12599,"Ġconsent":12600,"Ġheater":12601,"Ġeducators":12602,"Ġdigs":12603,"Ġunmet":12604,"Ġoddities":12605,"Ġcourses":12606,"Ġentered":12607,"Ġsisters":12608,"Ġpreserved":12609,"Ġcluttering":12610,"ĠAnimal":12611,"ĠEarly":12612,"Ġflourishing":12613,"Ġsinks":12614,"ĠSurround":12615,"ĠComplicated":12616,"Ġannouncements":12617,"Ġcoordination":12618,"Ġcalendar":12619,"ĠTurbulence":12620,"Ġangrily":12621,"ĠProtests":12622,"dis":12623,"doubt":12624,"esome":12625,"Ġbee":12626,"ctar":12627,"oots":12628,"Ġunbroken":12629,"Ġstaple":12630,"Ġneutral":12631,"Ġnectar":12632,"Ġtraged":12633,"Ġgoodnight":12634,"ĠAp":12635,"Ġagreeing":12636,"Ġoverd":12637,"Ġoverdo":12638,"ĠEf":12639,"ĠRivers":12640,"Ġbackward":12641,"Ġswitching":12642,"Ġslicing":12643,"ools":12644,"ĠBub":12645,"Ġhurried":12646,"raf":12647,"Ġmilest":12648,"Ġcollaps":12649,"ĠpiÃ±":12650,"ĠSpong":12651,"Ġtimelines":12652,"ĠBoats":12653,"ĠImprovements":12654,"intage":12655,"Ġmishand":12656,"Ġvillage":12657,"Ġcaregivers":12658,"grap":12659,"lands":12660,"ovable":12661,"Ġmul":12662,"Ġhay":12663,"alnuts":12664,"Ġinh":12665,"ĠYear":12666,"Ġunpl":12667,"othy":12668,"Ġstabil":12669,"Ġshrinking":12670,"irst":12671,"Ġchases":12672,"Ġtramp":12673,"iggling":12674,"Ġsmallness":12675,"iece":12676,"ĠThunderst":12677,"Ġdownwards":12678,"wners":12679,"Ġanimated":12680,"Ġinvitations":12681,"Ġoldest":12682,"ĠStart":12683,"umps":12684,"Ġbury":12685,"Ġunsolved":12686,"Ġtwisty":12687,"Ġillusion":12688,"ews":12689,"Ġveins":12690,"Ġvalidation":12691,"Ġlingered":12692,"ĠFreshly":12693,"repair":12694,"Ġstirs":12695,"Ġheightened":12696,"Ġboldly":12697,"Ġdefense":12698,"Ġsentiment":12699,"Ġfestivities":12700,"Ġcuddling":12701,"ĠFinishing":12702,"Ġmechanics":12703,"Ġcommuting":12704,"Ġimproperly":12705,"Ġunlikable":12706,"Ġmuffins":12707,"falls":12708,"Ġtending":12709,"Ġcone":12710,"Ġmunching":12711,"Ġdanc":12712,"Ġdug":12713,"Ġpeeking":12714,"Ġwholesome":12715,"Ġstakes":12716,"dering":12717,"Ġrage":12718,"Ġcombing":12719,"Ġalt":12720,"oline":12721,"Ġseemingly":12722,"Ġpros":12723,"ĠMotivation":12724,"Ġgoat":12725,"Ġscams":12726,"ĠParents":12727,"Ġhumbling":12728,"ĠGu":12729,"ĠUp":12730,"Ġskins":12731,"Ġalmond":12732,"Ġrelieving":12733,"Ġformations":12734,"Ġforgiving":12735,"Ġmotivations":12736,"Ġoblig":12737,"Ġreviewing":12738,"Ġbrie":12739,"Ġembarrassment":12740,"Ġgradual":12741,"Ġgrandma":12742,"ĠProgress":12743,"ĠConstant":12744,"Ġcigarettes":12745,"Ġgeograp":12746,"ĠTwisting":12747,"Ġmicrow":12748,"Ġladyb":12749,"ĠStudying":12750,"Ġcompromise":12751,"Ġpriceless":12752,"ĠBubbles":12753,"ĠThunderstorms":12754,"saving":12755,"uary":12756,"watching":12757,"Ġtiles":12758,"Ġthorns":12759,"Ġaver":12760,"Ġfumes":12761,"Ġcasting":12762,"Ġcosting":12763,"Ġank":12764,"arting":12765,"arella":12766,"Ġbeet":12767,"Ġreign":12768,"Ġthinkers":12769,"Ġtrimming":12770,"Ġbrows":12771,"Ġspells":12772,"rating":12773,"olutions":12774,"Ġuncatchable":12775,"told":12776,"Ġnormality":12777,"Ġweekly":12778,"Ġdesks":12779,"Ġperplex":12780,"ĠPasting":12781,"Ġelim":12782,"Ġchatted":12783,"ĠStores":12784,"ĠShiny":12785,"Ġundercooked":12786,"Ġreceiver":12787,"Ġmoonlit":12788,"Ġgrossness":12789,"Ġinsin":12790,"Ġbreads":12791,"Ġdevelopers":12792,"zzarella":12793,"Ġoperates":12794,"Ġclassics":12795,"Ġpunct":12796,"Ġcooperating":12797,"Ġskillfully":12798,"ĠFriendly":12799,"Ġfunctionality":12800,"Ġsplend":12801,"Ġrumble":12802,"Ġvacc":12803,"Ġalbums":12804,"Ġknocks":12805,"Ġrejected":12806,"Ġnarrative":12807,"Ġtremble":12808,"Ġmagazine":12809,"ĠTreats":12810,"Ġelevate":12811,"Ġedible":12812,"Ġrituals":12813,"ĠJamie":12814,"Ġvigil":12815,"aid":12816,"fiction":12817,"Ġfoss":12818,"Ġtoaster":12819,"Ġpunch":12820,"ares":12821,"Ġunwh":12822,"Ġshores":12823,"Ġfrog":12824,"Ġquotes":12825,"Ġlooms":12826,"Ġcommute":12827,"Ġdraft":12828,"irect":12829,"ĠBud":12830,"Ġroast":12831,"Ġsnails":12832,"ĠChamomile":12833,"ĠStains":12834,"Ġlowers":12835,"Ġatmospher":12836,"ĠUnp":12837,"Ġcompetit":12838,"Ġcelebrates":12839,"ooted":12840,"Ġrepresentation":12841,"Ġdriveway":12842,"Ġtendencies":12843,"Ġscientist":12844,"Ġthoughtlessness":12845,"Ġintimacy":12846,"Ġchemistry":12847,"Ġsuperher":12848,"Ġsibling":12849,"Ġoverreacting":12850,"Ġfertiliz":12851,"Ġwhistling":12852,"Ġmisbehave":12853,"ĠInventions":12854,"ĠOrnaments":12855,"Ġultimately":12856,"ĠSurrounding":12857,"ĠSponges":12858,"great":12859,"mast":12860,"Ġtours":12861,"inct":12862,"inery":12863,"Ġthief":12864,"usions":12865,"reet":12866,"Ġstim":12867,"ĠTidy":12868,"Ġchameleo":12869,"Ġaged":12870,"agging":12871,"ĠRo":12872,"ĠRust":12873,"ĠRoses":12874,"Ġglimmer":12875,"Ġmisinter":12876,"ĠCare":12877,"Ġairy":12878,"Ġeffortless":12879,"Ġartif":12880,"Ġexcitedly":12881,"Ġmeaningless":12882,"Ġdangerously":12883,"Ġflatness":12884,"Ġsailor":12885,"Ġcrafted":12886,"Ġscarce":12887,"Ġcleverly":12888,"Ġcharms":12889,"Ġapparatuses":12890,"Ġuntrained":12891,"Ġsportsmanship":12892,"Ġscrew":12893,"Ġpurchasing":12894,"ĠStopping":12895,"Ġteddy":12896,"Ġfatiguing":12897,"Ġuninspiring":12898,"Ġhikers":12899,"Ġowls":12900,"Ġribbons":12901,"Ġbustling":12902,"Ġdaffodils":12903,"ĠExpectations":12904,"Ġankle":12905,"Ġreignite":12906,"Ġsplendid":12907,"oons":12908,"path":12909,"sher":12910,"Ġwalnuts":12911,"Ġbunch":12912,"reeable":12913,"Ġlacked":12914,"Ġunpe":12915,"Ġchased":12916,"osm":12917,"Ġkill":12918,"Ġsap":12919,"Ġamb":12920,"ĠSud":12921,"ĠSolutions":12922,"Ġvoting":12923,"Ġcommutes":12924,"Ġbelievable":12925,"Ġsupplier":12926,"ĠLim":12927,"Ġbusiest":12928,"Ġunfounded":12929,"Ġharsher":12930,"Ġstruck":12931,"ĠChick":12932,"Ġsoftest":12933,"Ġsoftware":12934,"Ġwetter":12935,"Ġtightening":12936,"redictable":12937,"Ġmachinery":12938,"Ġunmovable":12939,"Ġinstance":12940,"ification":12941,"Ġclimbers":12942,"Ġtextiles":12943,"Ġcomplained":12944,"Ġemerging":12945,"Ġdescription":12946,"Ġhighlighted":12947,"Ġsorrows":12948,"Ġversatility":12949,"Ġabsorbing":12950,"Ġhazard":12951,"Ġearthquake":12952,"ĠResearching":12953,"Ġuninspired":12954,"Ġexcluded":12955,"Ġmanipulate":12956,"Ġpasswords":12957,"ĠEngineers":12958,"Ġgeography":12959,"ĠSudden":12960,"cra":12961,"mare":12962,"sth":12963,"Ġfiling":12964,"esp":12965,"asurable":12966,"Ġbamb":12967,"Ġep":12968,"iceable":12969,"eding":12970,"Ġrej":12971,"Ġster":12972,"hers":12973,"ĠTooth":12974,"ĠTools":12975,"ĠTraf":12976,"Ġtrapping":12977,"Ġworming":12978,"ĠHere":12979,"ĠMagic":12980,"Ġtab":12981,"Ġawesome":12982,"Ġminded":12983,"Ġfoam":12984,"Ġdrought":12985,"ĠCle":12986,"Ġnightmare":12987,"Ġdesper":12988,"Ġswoll":12989,"Ġoverwhelms":12990,"Ġripped":12991,"Ġstorylines":12992,"Ġfirsth":12993,"Ġjoints":12994,"Ġcheckups":12995,"Ġcloudiness":12996,"Ġunknowing":12997,"Ġretreat":12998,"Ġpreparedness":12999,"Ġperformer":13000,"Ġbandage":13001,"Ġthrillers":13002,"Ġluckily":13003,"ĠAnx":13004,"Ġreligious":13005,"Ġcopying":13006,"ĠSpiders":13007,"ĠVenting":13008,"ĠChefs":13009,"Ġtunnels":13010,"affes":13011,"Ġunnoticeable":13012,"Ġmadness":13013,"Ġelection":13014,"ĠLightning":13015,"watering":13016,"Ġcandid":13017,"Ġharbors":13018,"ĠBeauty":13019,"ĠLikewise":13020,"Ġdeserted":13021,"Ġshoelace":13022,"Ġunintentionally":13023,"Ġawaken":13024,"Ġtropical":13025,"Ġrepulsive":13026,"ĠFriday":13027,"Ġvirtual":13028,"discovery":13029,"Ġperplexing":13030,"Ġbamboo":13031,"ĠTraffic":13032,"Ġswollen":13033,"Ġfirsthand":13034,"baked":13035,"Ġsons":13036,"Ġfaint":13037,"usual":13038,"Ġcosm":13039,"Ġdil":13040,"Ġfeast":13041,"Ġinaction":13042,"riages":13043,"Ġoutage":13044,"Ġvintage":13045,"ational":13046,"Ġresistant":13047,"umbers":13048,"Ġbackfires":13049,"ĠLoving":13050,"Ġcompletion":13051,"Ġcarefulness":13052,"Ġdealings":13053,"ĠDevelop":13054,"Ġdriven":13055,"Ġsharpening":13056,"Ġtoolbox":13057,"ĠKnot":13058,"Ġfalsehoods":13059,"Ġbeginner":13060,"Ġessence":13061,"Ġmeasurement":13062,"Ġrushes":13063,"ĠPrices":13064,"Ġunchanged":13065,"ĠWarmth":13066,"Ġdimin":13067,"world":13068,"Ġreassured":13069,"Ġdecreased":13070,"Ġblossoming":13071,"Ġnourishment":13072,"Ġstreams":13073,"ĠCracking":13074,"Ġdisconnection":13075,"ĠNeither":13076,"Ġuntruths":13077,"Ġsupervision":13078,"Ġvalleys":13079,"ĠEmpty":13080,"Ġfishermen":13081,"Ġmoisturizer":13082,"Ġveterans":13083,"Ġmarathon":13084,"Ġmisinterpret":13085,"Ġartifacts":13086,"natural":13087,"ranging":13088,"Ġcore":13089,"Ġdaring":13090,"Ġpaw":13091,"ctors":13092,"Ġuntold":13093,"ceptions":13094,"ĠWood":13095,"ĠWaste":13096,"olent":13097,"itement":13098,"ĠFirst":13099,"Ġskate":13100,"Ġglitter":13101,"Ġbudge":13102,"engu":13103,"appier":13104,"Ġdelaying":13105,"gged":13106,"Ġshined":13107,"Ġdecency":13108,"Ġartis":13109,"Ġresponsive":13110,"Ġroughly":13111,"ondition":13112,"Ġhonoring":13113,"ructure":13114,"Ġunhelpfully":13115,"fiti":13116,"Ġminers":13117,"Ġtransporting":13118,"ĠUnusual":13119,"Ġpumpkins":13120,"Ġperforms":13121,"Ġfootprints":13122,"Ġenters":13123,"Ġjuggling":13124,"Ġaimed":13125,"Ġwarned":13126,"Ġcontributed":13127,"ĠOnline":13128,"Ġuntang":13129,"ĠLonger":13130,"ĠCalming":13131,"Ġdeceit":13132,"Ġmuted":13133,"Ġsparrows":13134,"abilitation":13135,"Ġcommuters":13136,"Ġcigarette":13137,"Ġfragrant":13138,"ĠExcitement":13139,"Ġcitrus":13140,"Ġsailboat":13141,"presented":13142,"Ġuncontrollable":13143,"Ġcultivate":13144,"ĠStepping":13145,"Ġbrowsing":13146,"eat":13147,"Ġfries":13148,"ester":13149,"aser":13150,"Ġtoothy":13151,"Ġgiggles":13152,"ourage":13153,"Ġstall":13154,"ĠTired":13155,"ĠTying":13156,"eapp":13157,"ĠWaking":13158,"Ġorch":13159,"Ġspends":13160,"Ġdaydream":13161,"ĠSafe":13162,"Ġgram":13163,"Ġclocked":13164,"endable":13165,"ĠCourage":13166,"Ġenvel":13167,"trust":13168,"Ġwatery":13169,"Ġowns":13170,"Ġmomentum":13171,"Ġcommonly":13172,"Ġfriendliness":13173,"Ġdecline":13174,"Ġrode":13175,"Ġrug":13176,"ĠStreet":13177,"Ġgrounding":13178,"Ġmooning":13179,"Ġskincare":13180,"Ġburdening":13181,"Ġcounted":13182,"ĠLeft":13183,"Ġbravest":13184,"Ġchalkboard":13185,"Ġtruthfully":13186,"Ġdiscomforts":13187,"Ġtexts":13188,"Ġgrieve":13189,"Ġscars":13190,"casts":13191,"ĠOverthinking":13192,"Ġunbalance":13193,"Ġdimmed":13194,"Ġwanders":13195,"Ġbanners":13196,"Ġsplashed":13197,"ĠLighter":13198,"ĠCompet":13199,"ĠRelaxation":13200,"Ġunevenly":13201,"Ġbroadens":13202,"Ġsunbea":13203,"ĠDoubts":13204,"Ġnoodle":13205,"Ġrehabilitation":13206,"Ġrent":13207,"ĠRepairing":13208,"Ġunapproachable":13209,"Ġventilation":13210,"Ġmulch":13211,"Ġaverage":13212,"Ġeliminate":13213,"Ġunpeaceful":13214,"Ġartisans":13215,"'.":13216,",\"":13217,"cent":13218,"rors":13219,"Ġfellow":13220,"ĠIde":13221,"Ġpand":13222,"Ġstif":13223,"Ġimbalance":13224,"feine":13225,"Ġquilts":13226,"Ġpriced":13227,"Ġloom":13228,"orming":13229,"Ġlesser":13230,"Ġquicken":13231,"Ġblast":13232,"Ġplaylists":13233,"Ġheartache":13234,"Ġbackfire":13235,"Ġamazement":13236,"ĠLost":13237,"Ġcrises":13238,"Ġsolely":13239,"open":13240,"Ġowned":13241,"ĠBuild":13242,"ĠLetters":13243,"Ġburger":13244,"Ġindul":13245,"Ġopposites":13246,"Ġrattle":13247,"Ġtimers":13248,"Ġdrew":13249,"Ġwritings":13250,"Ġhilltop":13251,"Ġallergic":13252,"Ġbounces":13253,"Ġcancellations":13254,"Ġunlocks":13255,"Ġbakeries":13256,"Ġoptimism":13257,"Ġfluid":13258,"Ġpartnerships":13259,"Ġpeaks":13260,"Ġmishap":13261,"Ġdrooping":13262,"ĠDisappointments":13263,"Ġreunion":13264,"Ġcivil":13265,"stract":13266,"ĠCustomers":13267,"Ġanchor":13268,"Ġlivelihoods":13269,"ĠReceiving":13270,"Ġprincip":13271,"Ġobligations":13272,"Ġvigilant":13273,"Ġatmospheres":13274,"Ġepis":13275,"conf":13276,"copes":13277,"power":13278,"rot":13279,"Ġtipping":13280,"insp":13281,"Ġabstract":13282,"urp":13283,"ept":13284,"Ġconfined":13285,"ĠSour":13286,"ĠMars":13287,"Ġproceed":13288,"Ġactor":13289,"Ġvir":13290,"Ġcommendable":13291,"Ġdarkens":13292,"Ġmozzarella":13293,"umm":13294,"Ġcargo":13295,"Ġlightening":13296,"Ġharvesting":13297,"Ġinspirations":13298,"Ġtops":13299,"Ġclouding":13300,"ĠKissing":13301,"Ġprivately":13302,"Ġlifesp":13303,"Ġcollectively":13304,"Ġtickle":13305,"Ġadjusts":13306,"Ġobserved":13307,"respect":13308,"Ġhammering":13309,"Ġcompares":13310,"Ġsoothes":13311,"Ġlowering":13312,"Ġvibrations":13313,"Ġawkwardly":13314,"Ġcenters":13315,"Ġdrowning":13316,"Ġbeverage":13317,"Ġdispleasing":13318,"Ġkittens":13319,"Ġuntangled":13320,"Ġgrammar":13321,"hot":13322,"pse":13323,"Ġsang":13324,"Ġthunders":13325,"Ġwip":13326,"Ġcables":13327,"elier":13328,"Ġmoo":13329,"Ġhoops":13330,"Ġlinking":13331,"Ġbean":13332,"Ġgases":13333,"Ġmapped":13334,"chief":13335,"Ġdisrepair":13336,"Ġupright":13337,"Ġfunniest":13338,
[...]
